<unk>	0
<s>	0
</s>	0
▁	-3.2543
-	-3.66589
.	-3.70622
=	-3.7776
,	-3.9103
|	-4.01961
s	-4.19892
▁the	-4.21591
▁[[	-4.29009
]]	-4.39105
/	-4.58387
▁|	-4.63337
▁*	-4.75366
▁of	-4.77414
▁to	-4.79734
▁and	-4.81717
ref	-4.88481
▁a	-4.97062
▁in	-5.00537
▁(	-5.08046
'	-5.08655
ing	-5.19736
ed	-5.2061
:	-5.24059
://	-5.25
http	-5.30558
▁be	-5.37821
com	-5.41589
)	-5.436
w	-5.48424
▁Wikipedia	-5.5813
▁Wars	-5.6738
title	-5.68128
url	-5.68694
d	-5.71565
>	-5.77379
ww	-5.79242
}}</	-5.80043
date	-5.83294
▁=	-5.84402
cite	-5.86536
▁you	-5.90441
)|	-5.90719
e	-5.92218
.<	-5.95673
▁name	-5.95812
▁that	-5.98441
▁on	-5.98792
▁I	-6.00183
▁The	-6.00695
ly	-6.0319
▁"	-6.03572
>{{	-6.03866
▁for	-6.05735
▁was	-6.07956
accessdate	-6.08098
t	-6.09277
Star	-6.10367
▁{{	-6.12199
="	-6.12856
▁with	-6.13522
▁''	-6.15973
▁web	-6.17802
''	-6.18199
r	-6.18596
n	-6.19261
}}	-6.22328
web	-6.23856
by	-6.24047
▁'''[[	-6.24446
]]'''	-6.25005
▁not	-6.27021
"	-6.27082
▁this	-6.27756
▁as	-6.2865
▁.	-6.302
▁''[[	-6.31697
▁is	-6.32909
]],	-6.35044
_	-6.37249
will	-6.37422
▁A	-6.37551
a	-6.42052
first	-6.44147
y	-6.45319
last	-6.45489
▁are	-6.45595
The	-6.50751
▁Rey	-6.53151
cy	-6.53382
publisher	-6.54049
▁at	-6.54596
from	-6.5492
no	-6.55824
▁You	-6.56372
▁Del	-6.56552
▁N	-6.58798
al	-6.6007
Priva	-6.61413
▁Star	-6.61825
news	-6.62381
org	-6.62773
f	-6.64378
archive	-6.64425
m	-6.64883
work	-6.65821
]]''	-6.65887
▁an	-6.66627
–	-6.68778
▁term	-6.71037
—	-6.74467
▁any	-6.78478
▁album	-6.79859
S	-6.80331
th	-6.80376
en	-6.80425
▁edits	-6.84214
▁Roses	-6.85028
section	-6.85653
c	-6.85717
<	-6.86119
A	-6.92524
&	-6.92631
Category	-6.9437
▁Edit	-6.95189
▁or	-6.95277
ng	-6.97489
?	-6.97732
▁it	-6.98148
!	-6.9924
▁In	-7.01482
▁her	-7.01513
▁may	-7.01922
▁re	-7.03562
▁band	-7.05433
▁can	-7.05459
▁D	-7.06726
;	-7.07692
P	-7.08331
yes	-7.0866
▁film	-7.08671
▁first	-7.09052
April	-7.09841
le	-7.09865
▁user	-7.11085
del	-7.11217
▁us	-7.11559
▁other	-7.12261
}}||{{	-7.13271
on	-7.13407
the	-7.13984
lana	-7.14129
igation	-7.14152
▁make	-7.14347
▁Mo	-7.14429
rey	-7.14927
▁Contact	-7.15472
▁non	-7.1556
▁C	-7.16055
able	-7.1624
▁2015	-7.17684
▁Inc	-7.18233
bout	-7.18474
in	-7.1856
▁==	-7.1973
▁S	-7.20139
▁F	-7.20543
if	-7.2111
▁page	-7.21238
archivedate	-7.21959
▁view	-7.22703
archiveurl	-7.23
music	-7.2313
ted	-7.23747
",	-7.2495
▁addition	-7.25001
E	-7.2508
▁statement	-7.25361
▁but	-7.26516
▁By	-7.2659
content	-7.26624
▁2017	-7.26633
o	-7.27006
I	-7.27069
ember	-7.27981
3	-7.28047
▁policy	-7.28399
▁"[[	-7.28494
▁have	-7.28572
▁create	-7.28983
trademark	-7.29341
▁register	-7.29447
June	-7.29701
▁Use	-7.29788
▁W	-7.2984
Lana	-7.29946
▁Guns	-7.30144
html	-7.30198
▁agree	-7.30212
▁site	-7.30553
=[[	-7.31423
Policy	-7.31536
▁2	-7.31616
profit	-7.31898
▁Pink	-7.32194
▁used	-7.32296
▁account	-7.32507
deadurl	-7.32555
organization	-7.32591
▁app	-7.32814
®	-7.3353
D	-7.33644
▁Page	-7.33693
▁Do	-7.34432
ir	-7.34554
▁edited	-7.35008
search	-7.35468
">{{	-7.35863
▁win	-7.36449
▁Rose	-7.36556
star	-7.37191
▁de	-7.37308
▁logg	-7.37448
▁Content	-7.37946
▁c	-7.38003
▁(1	-7.38943
▁his	-7.39031
▁we	-7.40786
▁log	-7.41171
l	-7.41222
▁fill	-7.41406
▁news	-7.41409
g	-7.42452
p	-7.42963
▁nav	-7.43673
▁address	-7.43687
composer	-7.44189
bil	-7.44339
st	-7.44521
uary	-7.44848
O	-7.4489
▁Work	-7.44904
er	-7.45452
to	-7.46045
▁check	-7.46078
▁public	-7.46094
▁anyone	-7.46124
i	-7.46592
ers	-7.46623
▁notice	-7.47312
ates	-7.47604
▁submit	-7.48542
November	-7.48677
▁one	-7.49235
es	-7.49281
an	-7.49519
had	-7.49611
▁amo	-7.5041
Billboard	-7.50418
ation	-7.50667
subject	-7.51016
▁Anti	-7.51109
February	-7.51376
▁song	-7.52248
id	-7.52272
▁were	-7.52474
August	-7.52806
▁R	-7.53375
your	-7.5355
▁conditions	-7.53632
▁which	-7.53676
▁viol	-7.53677
Guns	-7.53895
March	-7.54048
distributed	-7.54161
July	-7.54433
Dec	-7.54458
▁Encyclopedi	-7.54715
rs	-7.54921
▁she	-7.55214
▁species	-7.55243
Pink	-7.5526
fits	-7.55355
▁===	-7.55594
▁P	-7.56834
▁New	-7.57344
▁2012	-7.57826
ertain	-7.57853
><	-7.59377
C	-7.59738
R	-7.60107
Cite	-7.60373
▁released	-7.60743
tributed	-7.60748
1=	-7.60939
▁mus	-7.6095
▁Awards	-7.61868
▁Music	-7.62004
▁would	-7.62062
▁more	-7.62261
▁visib	-7.62642
ctober	-7.63602
wars	-7.63883
b	-7.63998
h	-7.64074
==	-7.64346
▁O	-7.64556
▁Award	-7.64851
▁Lucas	-7.6492
leted	-7.66044
ie	-7.6754
▁who	-7.68715
]]"	-7.6873
▁series	-7.69694
▁has	-7.69991
List	-7.70059
1	-7.70072
spa	-7.70221
▁title	-7.70988
evelopers	-7.7103
articles	-7.71462
▁List	-7.72291
▁Jedi	-7.72957
John	-7.73084
mp	-7.73395
website	-7.73584
▁1	-7.7445
2	-7.75149
▁Ju	-7.76203
k	-7.76672
▁bot	-7.77086
ne	-7.77435
▁'	-7.77467
▁This	-7.77577
▁book	-7.78047
guns	-7.78783
▁also	-7.78902
▁2013	-7.79017
re	-7.79724
Jan	-7.79747
▁p	-7.79777
]]'',	-7.7993
▁he	-7.80389
jpg	-7.80427
."	-7.80493
▁Dis	-7.80562
roses	-7.8093
BAFTA	-7.81122
php	-7.82151
▁again	-7.82231
▁{{{	-7.82395
]]|	-7.8335
▁It	-7.84156
▁M	-7.84653
|}}}	-7.84668
eptember	-7.85168
of	-7.85644
ve	-7.85661
billboard	-7.85688
Emmy	-7.85937
▁||	-7.86607
▁2016	-7.86613
/|	-7.86733
ikimedia	-7.871
▁appear	-7.88078
▁J	-7.88554
list	-7.89125
▁2014	-7.89375
article	-7.90039
▁Found	-7.90526
"/>	-7.90899
▁all	-7.92458
▁style	-7.9493
▁-	-7.94932
L	-7.95581
▁T	-7.96044
▁they	-7.9629
author	-7.9634
▁films	-7.9639
▁second	-7.97224
▁after	-7.97601
▁two	-7.97608
▁so	-7.99096
▁2012|	-7.99521
.{{	-7.99858
ms	-7.99876
▁music	-8.0029
▁Tour	-8.00305
film	-8.00923
7,	-8.01009
co	-8.01251
and	-8.01278
▁time	-8.01689
ent	-8.0175
'',	-8.02031
▁Disc	-8.0283
▁pages	-8.03182
▁On	-8.03381
▁/>	-8.04309
▁no	-8.04376
ookie	-8.04635
copyright	-8.04653
▁ver	-8.05033
File	-8.05386
▁video	-8.05529
▁L	-8.05952
▁2017|	-8.06375
▁original	-8.06812
▁She	-8.07586
isbn	-8.08964
ifi	-8.09018
year	-8.09916
▁!	-8.1079
▁last	-8.1113
group	-8.11839
album	-8.11955
▁2011	-8.12076
5,	-8.12288
▁year	-8.12296
access	-8.12649
N	-8.128
▁than	-8.12837
F	-8.12859
▁B	-8.13095
▁Lana	-8.13371
▁E	-8.13373
▁G	-8.13379
▁some	-8.13398
6,	-8.13814
out	-8.14631
▁tour	-8.1469
nbsp	-8.14755
▁file	-8.14774
▁Records	-8.14802
▁please	-8.14859
]	-8.1489
new	-8.15316
us	-8.15761
▁2015|	-8.15989
May	-8.16089
▁Ter	-8.16287
'''	-8.16381
right	-8.16421
{	-8.16703
▁They	-8.16728
===	-8.16887
rms	-8.1706
▁Axl	-8.17269
▁trilogy	-8.173
action	-8.17507
▁Te	-8.17696
▁http	-8.17768
▁16	-8.18066
umb	-8.18382
9,	-8.1842
MTV	-8.18644
David	-8.18836
▁2010	-8.19118
▁about	-8.19206
claime	-8.19708
oundation	-8.19948
▁[	-8.20274
media	-8.20567
song	-8.2074
magazine	-8.21256
background	-8.21331
IFMCA	-8.21389
▁November	-8.21891
W	-8.21903
is	-8.22327
uk	-8.22521
span	-8.22817
]].	-8.23066
▁Young	-8.23534
▁Force	-8.23851
▁like	-8.23921
4,	-8.24048
▁De	-8.24088
5	-8.2422
▁url	-8.2466
index	-8.24889
man	-8.25186
G	-8.25357
▁see	-8.25436
▁there	-8.25714
rights	-8.25803
▁copy	-8.26197
8	-8.26256
▁new	-8.2636
▁Video	-8.26451
American	-8.2664
u	-8.26923
books	-8.27186
v	-8.27481
many	-8.27545
▁planet	-8.27612
▁later	-8.27794
▁songs	-8.27908
▁Empire	-8.28642
pink	-8.28656
▁Cook	-8.29059
▁23,	-8.30518
▁needed	-8.30518
▁Luke	-8.30588
8,	-8.31682
▁release	-8.32372
ive	-8.32429
▁into	-8.32433
▁H	-8.32487
▁agent	-8.33372
:#	-8.33483
B	-8.33801
▁Times	-8.33889
▁col	-8.33929
ikipedia	-8.3393
▁out	-8.34567
▁over	-8.34759
ion	-8.3543
▁20	-8.35752
▁14	-8.35867
▁string	-8.36201
▁know	-8.36553
▁its	-8.36775
...	-8.37046
▁American	-8.37336
▁Wiki	-8.37398
▁b	-8.3756
or	-8.37977
▁late	-8.38081
▁Jan	-8.38153
Main	-8.38622
▁author	-8.38721
▁years	-8.3874
▁Best	-8.38858
ch	-8.3887
▁'''	-8.39137
old	-8.39217
▁View	-8.39242
stone	-8.39411
▁Template	-8.39555
▁ben	-8.39633
▁Rock	-8.39997
rifi	-8.40596
▁&	-8.40749
▁19	-8.40806
▁article	-8.40838
▁Re	-8.41086
use	-8.41397
tv	-8.4159
ty	-8.41701
▁21	-8.41727
ny	-8.418
Richard	-8.41931
musician	-8.42091
▁2013|	-8.42231
▁Slash	-8.42597
▁No	-8.42697
▁image	-8.42702
▁t	-8.42952
for	-8.43013
▁Playskool	-8.43173
▁II	-8.43439
▁changes	-8.43552
▁2008	-8.43702
▁me	-8.43852
page	-8.43852
▁most	-8.44158
▁interview	-8.44262
se	-8.44367
▁follow	-8.45046
▁ve	-8.45102
}	-8.45434
Chinese	-8.45551
small	-8.45552
▁number	-8.45673
▁s	-8.45781
Rolling	-8.46133
here	-8.46424
during	-8.46526
when	-8.46614
▁What	-8.46677
▁Wi	-8.46948
▁only	-8.47793
▁single	-8.47807
▁U	-8.4798
T	-8.47983
▁f	-8.48074
▁Clone	-8.48157
Slash	-8.48603
Michael	-8.48724
▁York	-8.48885
at	-8.49263
col	-8.49344
▁Special	-8.49396
▁back	-8.49531
▁requests	-8.49736
net	-8.50216
laime	-8.50637
▁change	-8.50655
▁franchise	-8.51189
ce	-8.52168
▁States	-8.52369
▁Talk	-8.52458
starwars	-8.52542
▁do	-8.52568
all	-8.52967
▁Life	-8.52976
▁un	-8.53082
▁Not	-8.53174
J	-8.54434
awards	-8.54753
4	-8.54973
show	-8.55212
▁Be	-8.5527
▁Nav	-8.55581
ump	-8.55696
entertainment	-8.55904
Axl	-8.55907
3;"	-8.55914
▁28	-8.56169
▁2009	-8.5618
▁Australia	-8.56312
▁Democracy	-8.56312
▁Co	-8.56492
▁World	-8.56584
▁wins	-8.56653
M	-8.56843
▁TV	-8.57409
fn	-8.57634
▁record	-8.57685
1,	-8.57693
▁12	-8.57879
now	-8.57993
▁17	-8.58356
▁label	-8.5846
Wikipedia	-8.58629
▁up	-8.58977
▁just	-8.59608
band	-8.59696
mtv	-8.59724
▁Back	-8.59747
▁artist	-8.59862
one	-8.59897
▁2018	-8.59906
citation	-8.59909
▁million	-8.60178
▁3,	-8.60303
▁through	-8.60333
▁McKagan	-8.60461
▁Develop	-8.60936
dead	-8.61064
before	-8.61371
▁Me	-8.61597
▁May	-8.6162
▁}}	-8.61695
z	-8.61742
▁cover	-8.61926
▁Stone	-8.62113
▁under	-8.62246
</	-8.62475
▁30,	-8.62602
▁22	-8.62695
son	-8.62821
▁members	-8.631
rolling	-8.63482
▁come	-8.63597
▁made	-8.63606
▁For	-8.63692
Episode	-8.6371
▁Editi	-8.63755
▁Adler	-8.63893
▁talk	-8.63986
today	-8.64117
▁10,	-8.64354
▁fiction	-8.64358
▁15	-8.65155
▁history	-8.65394
ar	-8.66078
▁March	-8.66131
including	-8.66218
▁rock	-8.66811
▁being	-8.67258
▁move	-8.67319
quote	-8.67452
▁could	-8.67464
▁Sith	-8.67612
rap	-8.67664
led	-8.67755
story	-8.67886
▁Press	-8.67904
▁live	-8.68041
up	-8.68054
▁game	-8.68108
H	-8.68319
ten	-8.68552
▁co	-8.68679
▁list	-8.68853
▁play	-8.69101
▁13	-8.69171
▁2008|	-8.69372
time	-8.69446
▁use	-8.69672
▁2014|	-8.70652
▁top	-8.70801
ies	-8.71158
Mark	-8.71285
▁debut	-8.7135
▁Anakin	-8.71619
om	-8.71619
U	-8.71721
with	-8.71742
▁such	-8.71779
▁include	-8.71802
ous	-8.71869
▁24	-8.71874
▁With	-8.71971
Del	-8.72
▁group	-8.72239
Best	-8.72241
it	-8.72443
▁well	-8.72682
rock	-8.72776
▁links	-8.72965
▁US	-8.73033
▁Al	-8.73256
▁*[[	-8.73297
▁Creat	-8.7338
j	-8.73717
ry	-8.73971
(	-8.73996
▁War	-8.74168
▁K	-8.74313
ic	-8.74556
▁games	-8.74894
▁set	-8.74908
rose	-8.75224
am	-8.75301
Grammy	-8.75606
▁Episode	-8.75675
hell	-8.75872
▁cli	-8.76075
▁since	-8.76117
el	-8.76162
''===	-8.7625
First	-8.76303
▁When	-8.7631
▁||{{	-8.76403
▁Love	-8.76489
▁musical	-8.76593
la	-8.76645
oldi	-8.76719
Robert	-8.76805
▁announced	-8.76828
▁Her	-8.76872
George	-8.76882
Paul	-8.76921
▁Unit	-8.77337
▁edit	-8.78121
charts	-8.78484
▁lead	-8.78582
▁At	-8.78955
▁people	-8.79004
▁track	-8.79562
▁2016|	-8.79622
▁To	-8.79647
based	-8.80071
▁message	-8.80513
▁said	-8.80529
harv	-8.8053
▁studio	-8.80609
2,	-8.80629
▁After	-8.80669
▁Zeppelin	-8.80669
▁date	-8.80733
9	-8.80758
Use	-8.80833
▁stated	-8.80853
▁hard	-8.8098
▁More	-8.81064
▁seen	-8.8124
Rock	-8.81462
▁four	-8.81494
location	-8.81511
Frank	-8.81776
load	-8.81994
▁albums	-8.82154
▁Pop	-8.82198
velopers	-8.82255
|''[[	-8.82473
▁long	-8.82694
K	-8.8301
6	-8.83053
▁2006	-8.83209
▁shows	-8.83269
ment	-8.83779
▁February	-8.83907
▁25	-8.84006
▁Album	-8.84039
▁Hot	-8.84138
▁show	-8.84423
▁Film	-8.84435
times	-8.84497
▁then	-8.84633
▁write	-8.85063
be	-8.85259
Citation	-8.85276
x	-8.85431
▁Vader	-8.85434
▁writing	-8.85713
▁dark	-8.85809
ut	-8.86
▁Illusion	-8.86073
gan	-8.86151
df	-8.86337
▁Str	-8.8641
▁what	-8.86418
James	-8.86513
protected	-8.86533
making	-8.87182
▁Disney	-8.87322
▁Man	-8.8742
au	-8.88098
▁Artist	-8.88141
▁Inter	-8.88304
▁He	-8.88374
0	-8.89042
like	-8.89058
▁All	-8.89173
interview	-8.90206
▁limit	-8.90279
void	-8.90292
▁Game	-8.90311
▁him	-8.9032
Online	-8.90324
20	-8.90331
▁|[[	-8.90508
▁try	-8.90585
▁vocals	-8.90682
▁while	-8.90855
ext	-8.90942
present	-8.90946
▁where	-8.91019
third	-8.9102
▁200	-8.91611
▁100	-8.91679
▁Grammy	-8.91767
sp	-8.91881
▁al	-8.91973
riginal	-8.92078
gone	-8.92325
▁artists	-8.93051
▁con	-8.93847
▁request	-8.94197
New	-8.94507
▁spo	-8.95228
via	-8.95399
▁success	-8.95533
▁Help	-8.95538
▁Republic	-8.95539
▁version	-8.95542
▁guitarist	-8.95561
▁29	-8.95564
▁wait	-8.95575
▁Free	-8.95659
ur	-8.95672
▁"[	-8.95774
ist	-8.95899
▁Log	-8.95938
▁publisher	-8.95956
▁Ret	-8.95987
ight	-8.9599
▁News	-8.96007
▁27	-8.96232
7	-8.96414
▁hit	-8.96432
▁right	-8.96537
▁d	-8.97019
▁Hollywood	-8.97168
life	-8.97234
red	-8.97238
width	-8.97314
people	-8.97319
▁side	-8.9735
Duff	-8.97365
left	-8.97404
▁One	-8.97455
Joe	-8.97663
pop	-8.97697
▁Up	-8.97897
2=	-8.97949
ike	-8.98037
ark	-8.98262
#	-8.98326
▁too	-8.98456
▁end	-8.98973
read	-8.99062
riev	-8.99093
zzy	-8.99192
▁2007	-8.99455
est	-8.99684
▁part	-8.99786
''.	-8.99841
▁best	-8.99871
▁An	-8.99968
ants	-9.0017
me	-9.00552
▁them	-9.00652
It	-9.00879
ting	-9.00931
watch	-9.0099
chart	-9.01079
▁recommend	-9.01093
▁establish	-9.01093
ents	-9.01093
▁several	-9.01103
▁26	-9.01104
px	-9.01153
enforce	-9.01175
▁perform	-9.01221
▁speed	-9.01236
▁work	-9.0125
▁think	-9.01292
▁Personal	-9.01478
▁Media	-9.01489
▁produced	-9.01707
▁History	-9.01727
claim	-9.01955
▁source	-9.02027
oogle	-9.02091
▁my	-9.02812
▁}	-9.02833
Alan	-9.03014
▁events	-9.03031
▁Encyclopedia	-9.03217
Brian	-9.03284
mdy	-9.03345
Term	-9.03357
uring	-9.03495
te	-9.03518
▁MTV	-9.03551
▁11	-9.03964
]]'	-9.0434
▁left	-9.04935
ton	-9.05092
▁life	-9.05104
started	-9.05562
▁sequel	-9.05781
8-	-9.06027
▁story	-9.06562
wiki	-9.06728
ate	-9.06862
disney	-9.06975
▁Angeles	-9.06991
▁Fox	-9.06999
▁much	-9.07005
Appetite	-9.07006
▁Europe	-9.07162
▁Skywalker	-9.07164
▁====''	-9.07178
▁Search	-9.07192
▁Last	-9.07247
▁Request	-9.07562
▁galaxy	-9.07623
▁guitar	-9.07826
▁1993	-9.07885
▁2017}}	-9.07933
video	-9.07981
Mike	-9.0807
]"	-9.08162
pg	-9.0817
▁return	-9.08395
▁Reed	-9.08549
between	-9.08722
izzy	-9.09066
▁Time	-9.09117
authorlink	-9.09342
Kaminski	-9.09384
Hasbro	-9.09441
▁4	-9.09846
/>	-9.1036
▁did	-9.10394
▁1990	-9.10505
ttle	-9.10793
▁2011|	-9.11033
-2018	-9.11117
▁m	-9.11126
ll	-9.11184
▁media	-9.11354
▁draft	-9.11832
most	-9.11923
▁ab	-9.12426
ational	-9.12634
animated	-9.1264
▁every	-9.13035
▁10	-9.13036
Y	-9.13132
▁concert	-9.13209
▁available	-9.13225
Paradise	-9.13225
▁information	-9.13227
▁Company	-9.13265
▁note	-9.13316
▁received	-9.13485
television	-9.13519
arts	-9.13712
▁!!	-9.13727
▁Name	-9.13826
age	-9.13829
▁And	-9.13854
nk	-9.1395
▁Show	-9.14039
▁link	-9.14119
▁called	-9.14176
|[[	-9.14375
▁18	-9.14598
▁Ro	-9.14775
Z	-9.14805
▁Main	-9.14915
ia	-9.14931
Peter	-9.15007
▁Communi	-9.15015
▁Rand	-9.15153
▁6	-9.15305
▁down	-9.15477
▁featur	-9.15494
came	-9.15725
Music	-9.15748
Jonathan	-9.15936
▁We	-9.15943
Honeymoon	-9.1598
▁reminde	-9.15991
People	-9.16046
▁give	-9.16157
de	-9.16332
▁Dec	-9.16556
very	-9.1664
Wan	-9.16764
nme	-9.17133
early	-9.17636
▁1985	-9.17875
Lu	-9.18023
ified	-9.18032
▁James	-9.1817
▁sign	-9.18428
▁template	-9.18517
bi	-9.18601
▁performance	-9.18703
▁get	-9.1875
|''	-9.19368
htm	-9.19772
▁scope	-9.19892
▁Contribution	-9.19893
▁Stradlin	-9.19901
Language	-9.19906
▁Story	-9.19909
▁Destruction	-9.19915
▁mod	-9.19933
▁Hope	-9.19942
Commons	-9.19945
Lego	-9.20063
▁California	-9.20101
▁Order	-9.20102
▁Vari	-9.20103
▁take	-9.20214
▁Year	-9.20257
name	-9.20314
▁another	-9.20423
venge	-9.20471
▁store	-9.20474
selling	-9.20592
▁Top	-9.20624
ta	-9.20649
kimedia	-9.20727
▁Of	-9.20856
▁going	-9.20941
▁Books	-9.21005
▁Williams	-9.21103
▁short	-9.21147
▁Please	-9.21163
▁Solo	-9.21176
▁add	-9.21256
▁singer	-9.21346
"2018	-9.21366
▁port	-9.21421
cause	-9.21447
Jeff	-9.21453
national	-9.21464
▁Out	-9.21564
as	-9.21662
▁Martin	-9.21694
▁UK	-9.21708
▁how	-9.21782
▁off	-9.21797
William	-9.22027
live	-9.22139
▁th	-9.22335
▁Ray	-9.22346
br	-9.22472
V	-9.22655
style	-9.22874
Return	-9.22991
align	-9.23116
▁Abo	-9.2312
Funhouse	-9.23143
Stephen	-9.23145
Chris	-9.23161
Steven	-9.23311
Live	-9.23453
▁Too	-9.23868
Don	-9.23951
▁prev	-9.23985
).	-9.24051
▁Hasbro	-9.24101
▁So	-9.24133
▁pop	-9.24141
▁feature	-9.24186
▁titled	-9.245
▁found	-9.24571
▁Th	-9.24579
Los	-9.2475
▁high	-9.248
▁access	-9.25117
]]".	-9.25202
ogue	-9.25529
6"	-9.25558
▁Review	-9.25647
▁1977	-9.25773
same	-9.25857
pages	-9.26112
▁project	-9.26416
▁open	-9.26885
▁2002	-9.26889
▁lo	-9.2699
Ultraviolence	-9.27034
flatlist	-9.27035
▁Sorum	-9.27035
▁father	-9.27043
▁n	-9.27053
Official	-9.27056
References	-9.27064
jsp	-9.27076
▁way	-9.27093
BBC	-9.27136
xx	-9.2714
spaces	-9.2723
▁Series	-9.27268
▁Print	-9.27444
▁still	-9.27526
▁female	-9.27568
▁performed	-9.27668
Dave	-9.27851
▁toys	-9.27916
xl	-9.27941
▁science	-9.28104
▁Down	-9.28134
▁v	-9.28286
ary	-9.28367
emale	-9.28441
Ron	-9.28752
▁recorded	-9.28799
▁official	-9.28929
q	-9.29097
world	-9.29122
Bor	-9.29194
▁nominations	-9.29347
ols	-9.29559
▁2018|	-9.29714
▁--	-9.29744
games	-9.29856
▁magazine	-9.29945
▁File	-9.29991
▁Group	-9.30352
zed	-9.30395
ca	-9.30431
nd	-9.30633
language	-9.30768
Joseph	-9.30873
newspaper	-9.30909
history	-9.30918
her	-9.31067
▁Live	-9.31097
gnr	-9.31147
▁August	-9.31632
]]''.	-9.31879
state	-9.32407
ust	-9.32432
ools	-9.32771
▁Horse	-9.33216
▁rights	-9.33259
▁Vocal	-9.33295
▁Festival	-9.33331
▁character	-9.33346
ew	-9.33352
▁help	-9.33414
▁2005	-9.33447
▁Day	-9.33523
didn	-9.33803
ivil	-9.34009
go	-9.34395
game	-9.34397
entury	-9.34405
▁America	-9.34479
sing	-9.34648
land	-9.34707
Lawrence	-9.34727
hollywood	-9.34729
Echani	-9.34733
reporter	-9.34736
▁support	-9.34747
▁appearance	-9.34749
latimes	-9.34751
▁books	-9.3479
{{	-9.3481
Monopoly	-9.34812
▁Ma	-9.34859
Classic	-9.34864
Share	-9.34958
▁Perry	-9.34982
▁City	-9.35023
▁contain	-9.35042
▁joined	-9.35076
▁due	-9.35297
tributors	-9.35514
▁find	-9.35521
▁category	-9.35557
▁three	-9.35591
▁Brown	-9.35871
ity	-9.35949
▁Han	-9.35976
▁hand	-9.36038
▁Edition	-9.36188
▁pre	-9.36327
▁differen	-9.36381
▁singers	-9.36414
▁came	-9.36514
▁revealed	-9.36571
▁*{{	-9.36671
▁2007|	-9.37002
▁radio	-9.37043
Rose	-9.37276
na	-9.37419
▁earn	-9.37475
ardner	-9.37549
▁Lucasfilm	-9.37633
Video	-9.37752
til	-9.3777
play	-9.38057
▁brow	-9.38107
▁Short	-9.3811
▁class	-9.38125
ts	-9.38317
▁My	-9.38385
et	-9.38479
former	-9.38515
source	-9.38649
▁Dar	-9.38681
▁1999	-9.38797
main	-9.38837
Bill	-9.38888
ultimate	-9.38927
Jedi	-9.39128
class	-9.39162
Entertainment	-9.39164
US	-9.3936
▁8	-9.3947
Me	-9.39614
▁V	-9.39651
▁articles	-9.39662
ke	-9.39668
====	-9.39669
▁Fro	-9.39968
▁width	-9.40269
▁theme	-9.40296
ever	-9.40486
▁men	-9.40557
Re	-9.40617
il	-9.40734
10	-9.40749
▁St	-9.40798
Neil	-9.40938
▁protected	-9.41163
▁Night	-9.41396
So	-9.41553
tribution	-9.41677
12	-9.41819
un	-9.41927
spin	-9.42197
line	-9.42329
Te	-9.42458
▁recording	-9.42591
▁Dea	-9.42789
▁adapt	-9.42976
pitchfork	-9.43059
wikitable	-9.43062
▁However	-9.43065
Josh	-9.43067
classicrock	-9.43068
Christopher	-9.43075
▁Coast	-9.4308
▁really	-9.43132
▁sound	-9.43215
▁machine	-9.43308
▁Palpatine	-9.43314
▁{|	-9.43338
▁III	-9.43588
▁wanted	-9.43607
▁good	-9.4363
▁industry	-9.43637
▁Fortus	-9.43639
rom	-9.43662
▁along	-9.43709
▁order	-9.4372
▁Li	-9.43795
▁light	-9.4382
ermanent	-9.4392
▁reason	-9.43961
▁Ab	-9.4397
2-	-9.43972
▁Radio	-9.43973
okie	-9.43993
▁special	-9.44091
inspired	-9.44101
▁La	-9.44122
Bob	-9.44221
▁solo	-9.44325
▁details	-9.44389
▁look	-9.44391
▁changed	-9.44583
▁played	-9.4461
▁Green	-9.4464
▁Other	-9.44702
▁website	-9.44767
▁control	-9.44781
he	-9.44888
features	-9.44994
▁director	-9.45088
▁ma	-9.45101
Wars	-9.45347
bbc	-9.4543
▁fall	-9.45444
▁Band	-9.45517
ine	-9.45653
▁start	-9.45715
ite	-9.45804
▁ever	-9.45833
▁Die	-9.45905
laim	-9.45919
Ben	-9.46023
lot	-9.46354
guitar	-9.4648
SW	-9.46536
▁vi	-9.46714
box	-9.46813
No	-9.47091
▁free	-9.4718
Marc	-9.47295
ose	-9.475
▁del	-9.47598
16	-9.47812
debut	-9.47832
Tim	-9.47962
free	-9.48084
Project	-9.48085
pp	-9.48131
digital	-9.48205
Disney	-9.48304
▁dates	-9.48317
ian	-9.48325
tion	-9.48575
▁Gold	-9.48584
30	-9.48847
singer	-9.48909
coming	-9.49024
picture	-9.49107
ple	-9.49444
▁protecti	-9.50072
ner	-9.5008
▁George	-9.5031
grammy	-9.50722
paghetti	-9.5074
▁Feature	-9.5136
▁hav	-9.51462
▁bo	-9.51482
▁2007}}	-9.515
round	-9.51689
ney	-9.51746
▁go	-9.51784
Gon	-9.52
▁force	-9.52065
Anthony	-9.52151
▁Pennsylvania	-9.52151
zeppelin	-9.52152
▁Categories	-9.52153
▁Clarke	-9.52153
|2007|	-9.52154
▁Incident	-9.5216
▁decide	-9.52161
11	-9.52166
▁something	-9.52174
/6	-9.52182
NME	-9.5221
▁Darlings	-9.52232
▁does	-9.52261
ser	-9.52337
▁Foster	-9.52423
▁Two	-9.52424
▁Litera	-9.52425
▁Biography	-9.52426
▁Moore	-9.52428
▁Weekly	-9.52435
▁Lies	-9.52455
▁Johnson	-9.52459
▁Read	-9.52478
▁point	-9.52723
▁secret	-9.52781
▁Kasdan	-9.52785
▁Hall	-9.52893
▁Davis	-9.52934
▁home	-9.53095
▁IV	-9.53127
▁plot	-9.53156
▁Dead	-9.53218
Charl	-9.5356
▁EP	-9.53618
▁John	-9.53657
="2	-9.5369
/?	-9.54055
confirmed	-9.54544
▁Qui	-9.54583
ki	-9.54814
▁(2	-9.549
▁1991	-9.54995
▁Geffen	-9.55027
▁1980	-9.55288
31,	-9.55607
ture	-9.55785
▁box	-9.56345
▁2000	-9.56794
▁world	-9.56858
You	-9.57043
▁tend	-9.57114
▁Go	-9.57167
urrent	-9.57169
▁9	-9.5724
export	-9.57508
▁Sun	-9.57697
TV	-9.5793
self	-9.57965
long	-9.57983
tom	-9.58002
Empire	-9.58229
journal	-9.58254
Daniel	-9.58273
series	-9.5845
St	-9.58463
down	-9.58594
▁While	-9.58607
tour	-9.58647
idden	-9.58752
semi	-9.58783
▁final	-9.58854
1.	-9.59087
50	-9.59124
Roses	-9.59175
Jon	-9.59541
side	-9.59892
In	-9.60255
han	-9.60293
dy	-9.60314
lo	-9.60688
nt	-9.60835
▁don	-9.60971
▁journal	-9.61016
▁3	-9.61332
29	-9.6138
▁Ob	-9.61576
nce	-9.61594
▁Book	-9.61886
hr	-9.61886
ance	-9.61995
▁Ho	-9.62034
▁even	-9.62064
18	-9.62076
▁Piazza	-9.62151
▁companies	-9.62151
drummer	-9.62153
▁copies	-9.62154
▁Wilson	-9.62155
▁lineup	-9.62159
▁Awakens	-9.6216
▁Galaxy	-9.62165
Mick	-9.62168
▁Reporter	-9.62187
▁sales	-9.62193
▁Leia	-9.62193
cropped	-9.62197
▁current	-9.62209
Forbes	-9.62225
Eddie	-9.62248
ile	-9.62293
▁Fame	-9.62295
daily	-9.62326
▁direct	-9.62357
▁Pa	-9.62409
▁together	-9.62443
▁Rec	-9.6247
▁next	-9.62482
▁fight	-9.62522
jor	-9.62638
▁become	-9.62742
ter	-9.62756
▁race	-9.62758
▁Truth	-9.62849
▁Magazine	-9.62851
8/	-9.62857
▁Miller	-9.62887
▁mid	-9.62918
▁script	-9.6292
tic	-9.62958
▁months	-9.62969
ld	-9.63183
Matt	-9.63209
7|	-9.63453
▁format	-9.63598
vor	-9.63749
ovie	-9.63815
rry	-9.63935
▁audio	-9.64041
▁London	-9.64092
▁birth	-9.64172
22	-9.64187
▁full	-9.64233
▁stage	-9.6429
ill	-9.64417
▁written	-9.64519
▁far	-9.64702
row	-9.64983
▁Games	-9.65183
Unit	-9.65483
▁2006|	-9.65502
previously	-9.65639
▁now	-9.65679
ax	-9.65686
ecia	-9.65729
da	-9.6583
nnual	-9.65977
more	-9.66229
▁2009|	-9.66287
▁state	-9.66379
▁singles	-9.6649
alph	-9.66548
▁2012.	-9.66675
▁(3	-9.66683
▁|{{	-9.66983
ther	-9.66998
mer	-9.6704
▁hire	-9.67172
release	-9.6739
ish	-9.67421
Andre	-9.67422
movie	-9.67789
pl	-9.67813
ct	-9.67832
der	-9.6792
post	-9.68026
link	-9.68067
▁Steven	-9.68085
)}}	-9.68102
ck	-9.6813
ward	-9.68235
titled	-9.68629
We	-9.68784
Jack	-9.69051
stand	-9.69159
What	-9.69362
Big	-9.69376
package	-9.69381
Lucasfilm	-9.69433
thing	-9.69438
El	-9.69456
▁Duff	-9.69505
Ray	-9.69509
tt	-9.69586
Dan	-9.69726
os	-9.69754
].	-9.69771
2/	-9.69783
▁i	-9.69794
top	-9.69807
nal	-9.69832
icense	-9.69861
Time	-9.69929
lies	-9.69942
acts	-9.70115
%2	-9.70118
PA	-9.70171
review	-9.70231
its	-9.70548
ad	-9.71191
▁====	-9.71218
▁Lu	-9.71239
key	-9.7125
▁own	-9.71702
▁review	-9.72182
▁Song	-9.72193
lust	-9.72257
▁**	-9.72278
▁card	-9.72368
▁week	-9.72392
▁sing	-9.72483
ard	-9.72651
▁interest	-9.72656
14	-9.72664
▁brand	-9.73006
▁7	-9.73123
▁mu	-9.73247
Pitchfork	-9.73262
description	-9.73262
▁Trilogy	-9.73262
All	-9.73263
nominees	-9.73263
▁worldwide	-9.73263
comicbook	-9.73267
▁Johnston	-9.73271
▁reported	-9.73295
▁Like	-9.73316
▁Union	-9.73381
Further	-9.73453
▁Newman	-9.73475
▁ga	-9.73517
▁figures	-9.73525
hot	-9.73527
5/	-9.73574
▁North	-9.73586
▁children	-9.73588
▁Cohen	-9.73599
▁reached	-9.73626
ble	-9.73667
century	-9.7374
Gary	-9.7378
▁nice	-9.73813
▁produce	-9.73831
▁fully	-9.73887
▁Actress	-9.73897
▁li	-9.73914
▁Rain	-9.73982
▁Rebels	-9.74005
▁premiere	-9.74009
▁Smith	-9.74037
▁genre	-9.74048
▁Jones	-9.7405
▁Yoda	-9.74055
▁future	-9.74116
Try	-9.74242
Info	-9.74276
ul	-9.74383
off	-9.74415
fe	-9.74433
▁issue	-9.74433
▁musicians	-9.74499
▁Moon	-9.74532
▁Metal	-9.74552
17	-9.74594
StarWars	-9.74659
▁weeks	-9.74674
uff	-9.74801
ube	-9.74839
▁Don	-9.74902
▁Comic	-9.74913
▁universe	-9.74967
▁Comics	-9.75009
-4}}	-9.75042
▁w	-9.75043
▁production	-9.75051
▁comic	-9.75113
Dar	-9.75163
▁develop	-9.75255
beat	-9.75255
▁characters	-9.75331
▁friends	-9.75408
▁templates	-9.75651
▁fans	-9.75756
em	-9.7578
▁wrote	-9.75889
albums	-9.76258
▁How	-9.76261
▁di	-9.7631
opening	-9.76336
ka	-9.76987
ley	-9.76989
love	-9.77057
▁claim	-9.77297
▁package	-9.773
[[	-9.77409
▁Stones	-9.7745
ol	-9.77479
▁things	-9.7759
yout	-9.77657
reviews	-9.77811
▁Clones	-9.78135
0,000	-9.78194
▁member	-9.78258
▁accessdate	-9.78396
▁Ba	-9.78652
▁wars	-9.7888
▁describ	-9.78896
misc	-9.78976
▁ha	-9.79064
▁newspaper	-9.79152
▁fan	-9.79413
elle	-9.79416
".	-9.79504
Har	-9.79529
15	-9.7964
▁includ	-9.79646
field	-9.79825
▁type	-9.79917
image	-9.79981
ra	-9.80049
▁;	-9.80054
▁bee	-9.80133
▁chart	-9.80177
19	-9.80243
▁dis	-9.80311
nom	-9.80341
▁six	-9.80472
artist	-9.80479
that	-9.805
Nick	-9.80661
Sta	-9.80992
Globe	-9.81477
pload	-9.81594
Steve	-9.81705
Jaguar	-9.81717
GNR	-9.81757
▁popular	-9.81787
▁turn	-9.81802
Academy	-9.81812
Hollywood	-9.81855
break	-9.81856
Geffen	-9.81876
▁As	-9.81983
radio	-9.82054
Pop	-9.82055
orry	-9.82099
vision	-9.82448
Wiki	-9.82484
28/	-9.82493
our	-9.8255
best	-9.82677
▁location	-9.82967
2012	-9.83008
comics	-9.8312
though	-9.83213
events	-9.83308
io	-9.83534
▁child	-9.83626
▁contribut	-9.83649
▁want	-9.83941
▁Emmy	-9.83986
▁e	-9.84007
?|	-9.84128
ave	-9.84153
▁pr	-9.84446
▁form	-9.84623
▁Vi	-9.84677
taken	-9.84696
inside	-9.8475
▁Play	-9.84844
ac	-9.85075
ps	-9.85077
▁remain	-9.85319
iz	-9.85648
_1_	-9.8572
gunsnroses	-9.85749
my	-9.85758
JPG	-9.85762
Navbox	-9.85762
Quote	-9.85762
▁Publishing	-9.85762
▁Kenobi	-9.85763
Variety	-9.85763
▁travel	-9.85764
▁Performance	-9.85764
boardgame	-9.85766
Bruce	-9.85766
Louis	-9.85769
medium	-9.85774
▁material	-9.85775
▁training	-9.85781
▁kind	-9.85799
▁seven	-9.85804
▁attractions	-9.85815
ythm	-9.85816
Summer	-9.85817
▁Network	-9.8583
categories	-9.85844
Allmusic	-9.85847
▁Phan	-9.85856
evil	-9.85859
Polydor	-9.8588
entry	-9.85956
biggest	-9.85958
should	-9.85965
=3	-9.86066
▁considered	-9.86066
▁VII	-9.86066
▁Things	-9.86073
Interscope	-9.86095
women	-9.86097
▁Studios	-9.86124
slash	-9.86147
▁Fett	-9.86149
▁Trunk	-9.86151
▁heav	-9.86152
▁replaced	-9.86159
60	-9.86231
>[	-9.86266
shows	-9.86334
▁Thal	-9.86462
,000	-9.86478
De	-9.86493
about	-9.8652
▁fur	-9.86542
▁r	-9.86608
▁escape	-9.8664
▁above	-9.86674
▁Heav	-9.86712
biz	-9.86763
▁novels	-9.86809
90	-9.86834
▁publishing	-9.86848
▁simpl	-9.8687
EW	-9.87037
▁-->	-9.87198
▁Old	-9.87249
▁<!--	-9.8756
▁Eyes	-9.87562
▁space	-9.87573
▁complete	-9.8761
▁empire	-9.87612
less	-9.87748
08	-9.87953
▁2004	-9.87997
um	-9.88104
▁winners	-9.88272
▁God	-9.88299
ro	-9.88336
▁Tim	-9.88418
over	-9.88419
▁big	-9.88447
▁Years	-9.88526
Mel	-9.88531
uardian	-9.88534
▁our	-9.88569
▁center	-9.88674
▁Watch	-9.88954
▁movie	-9.89041
ha	-9.89066
ddy	-9.89073
li	-9.892
ja	-9.89306
zard	-9.89343
you	-9.89368
▁worked	-9.89448
online	-9.89949
▁See	-9.90005
3|	-9.90079
▁tracks	-9.90179
21	-9.90184
▁att	-9.90198
Brit	-9.90209
book	-9.91008
tional	-9.91054
LA	-9.9111
▁Af	-9.91305
Spin	-9.9163
win	-9.91777
▁liv	-9.91791
▁Port	-9.91825
▁hop	-9.91971
▁section	-9.92018
ym	-9.9204
▁act	-9.92611
eted	-9.92637
Fred	-9.92648
▁promote	-9.92784
ma	-9.93001
▁2009.	-9.93011
▁visit	-9.9321
30/	-9.93458
23	-9.93475
per	-9.9358
ab	-9.93828
▁thing	-9.93893
▁voice	-9.94019
▁Some	-9.94422
Comic	-9.94488
ip	-9.9469
Alex	-9.94838
Game	-9.95025
Lisa	-9.95044
▁previous	-9.95169
edition	-9.95212
Q	-9.95393
mouth	-9.95443
2|	-9.95486
▁male	-9.95578
Rey	-9.95584
Eminem	-9.95617
fired	-9.95788
assist	-9.95844
multi	-9.9596
Wall	-9.96004
Bumblefoot	-9.9602
Aerosmith	-9.9603
Playskool	-9.96036
Beautiful	-9.96063
This	-9.96067
Today	-9.96083
DVD	-9.96128
VI	-9.96153
songwriter	-9.96157
Martin	-9.96158
Year	-9.96207
Young	-9.96245
official	-9.96248
comic	-9.9625
UK	-9.96251
46	-9.96489
Ken	-9.96627
See	-9.96807
▁g	-9.96856
▁31	-9.96923
says	-9.97043
Co	-9.97073
esources	-9.97186
▁Roll	-9.97193
fiction	-9.97384
2"	-9.97571
things	-9.97779
▁5	-9.98015
releases	-9.9823
are	-9.9823
▁letter	-9.9838
ug	-9.98399
▁error	-9.98509
ick	-9.9857
▁prequel	-9.98606
Philip	-9.98699
▁nomination	-9.98729
each	-9.9874
ical	-9.98828
▁Girl	-9.99018
blog	-9.99134
▁sa	-9.99269
ors	-9.99374
▁feel	-9.99437
ctic	-9.99561
▁But	-9.99615
▁season	-9.99963
▁great	-9.99988
evin	-9.9999
▁reach	-10.0001
▁nominat	-10.0002
playskool	-10.0005
LaFace	-10.0005
Tropico	-10.0005
lightsaber	-10.0005
▁Utada	-10.0005
▁suggest	-10.0005
▁Trauma	-10.0005
▁Menace	-10.0005
Bouzereau	-10.0005
Type	-10.0005
▁compil	-10.0005
▁scene	-10.0005
▁Ferrer	-10.0005
honeymoon	-10.0005
▁element	-10.0005
Patrick	-10.0005
▁Square	-10.0005
Victor	-10.0005
well	-10.0006
Legacy	-10.0006
▁Guest	-10.0006
▁Reese	-10.0006
▁development	-10.0007
encyclopedia	-10.0008
▁Abrams	-10.0008
VH	-10.0009
▁(2012)	-10.0009
▁Science	-10.001
▁launch	-10.0011
▁Resources	-10.0011
RCA	-10.0013
Thrawn	-10.0014
%27	-10.0014
underground	-10.0017
bonus	-10.0023
Exter	-10.0024
Sea	-10.0025
ily	-10.0025
caption	-10.0029
bber	-10.003
issa	-10.0032
▁Than	-10.0033
▁stating	-10.0035
jhtml	-10.0035
▁saying	-10.0038
▁alt	-10.0043
▁drums	-10.0045
▁career	-10.0046
▁Reagan	-10.0046
▁hunt	-10.0047
▁products	-10.0048
Ko	-10.0048
▁Alternative	-10.005
▁Lifetime	-10.0053
=5	-10.0061
▁Rio	-10.0061
▁got	-10.0062
PO	-10.0063
Joel	-10.0065
classic	-10.0066
▁Sch	-10.0068
▁2003	-10.007
▁manager	-10.0072
▁Count	-10.0072
▁quite	-10.0077
▁Mar	-10.0077
upcoming	-10.009
Desk	-10.0098
ved	-10.0099
▁campaign	-10.0106
photos	-10.0108
diet	-10.0109
▁Di	-10.0111
▁Director	-10.0115
Wi	-10.0118
▁attend	-10.0129
▁1994	-10.0134
▁done	-10.0135
▁below	-10.0137
▁en	-10.0146
▁Featur	-10.0153
▁Set	-10.0157
▁mean	-10.0166
▁Attack	-10.0168
▁Far	-10.0173
Tor	-10.0177
▁Notes	-10.0181
-12-	-10.0184
▁That	-10.0189
▁disc	-10.0191
▁editing	-10.0198
text	-10.0198
▁Richard	-10.0199
▁1996	-10.0203
▁2007.<	-10.0213
▁Dona	-10.0214
▁1997	-10.0216
Ed	-10.0223
stage	-10.0228
▁Le	-10.023
▁1986	-10.0233
▁concept	-10.0241
▁metal	-10.0244
ko	-10.0249
▁Good	-10.0265
lumn	-10.0267
▁CD	-10.0269
▁descen	-10.0276
▁Days	-10.0282
▁offer	-10.0285
lan	-10.0288
les	-10.0303
elated	-10.0309
▁law	-10.0318
▁Ca	-10.0321
Jo	-10.0321
▁images	-10.0324
▁Take	-10.0329
▁peak	-10.0333
▁projects	-10.0343
▁drafts	-10.0345
▁Fu	-10.0345
▁Ka	-10.0346
Cat	-10.0347
▁sequels	-10.0366
▁Hi	-10.0388
bad	-10.0405
▁King	-10.0407
▁put	-10.0408
9|	-10.0412
years	-10.0413
▁DVD	-10.0413
▁times	-10.0432
▁40	-10.0432
23/	-10.045
ORT	-10.0458
▁am	-10.0464
▁Wall	-10.0488
1992	-10.0489
mann	-10.0544
▁introduce	-10.055
ik	-10.0556
▁background	-10.0572
=2	-10.0579
▁express	-10.0589
▁groups	-10.0604
▁Sh	-10.0605
]]:	-10.0606
ge	-10.062
cable	-10.063
▁Non	-10.0651
''[[	-10.0652
Long	-10.0655
ism	-10.0659
▁Neil	-10.0672
what	-10.0685
▁rele	-10.0705
▁Fan	-10.071
1/	-10.0711
=14	-10.0719
▁sort	-10.0733
▁place	-10.0762
▁Desp	-10.0781
mber	-10.0786
▁initial	-10.0796
▁Eye	-10.0798
UN	-10.0808
▁There	-10.082
rough	-10.0829
▁though	-10.0836
▁describe	-10.086
▁Curr	-10.0864
Pa	-10.0879
▁o	-10.0897
▁main	-10.0903
▁2010|	-10.0914
▁mass	-10.0933
referred	-10.0935
-100-	-10.0938
And	-10.0939
▁past	-10.0957
▁employ	-10.096
99	-10.0977
held	-10.0998
ons	-10.1001
why	-10.101
▁Ha	-10.1012
edited	-10.1019
browse	-10.102
where	-10.1021
Jer	-10.1038
▁protect	-10.1055
▁Lo	-10.1101
ness	-10.1118
tical	-10.1132
episode	-10.1136
big	-10.1161
▁Tradi	-10.1174
Elom	-10.1201
Up	-10.122
moments	-10.1221
Hard	-10.1222
Tom	-10.1223
info	-10.1226
species	-10.1229
ff	-10.1234
two	-10.1242
Welcome	-10.1247
chi	-10.1248
Not	-10.1258
after	-10.1261
Black	-10.1263
Simon	-10.1266
McKagan	-10.127
issue	-10.1271
full	-10.1276
director	-10.1278
concert	-10.1279
wrote	-10.1279
nominations	-10.1281
bb	-10.1285
revealed	-10.1287
written	-10.1287
center	-10.1305
▁u	-10.1312
members	-10.1318
▁vari	-10.1336
▁Eas	-10.1337
▁citation	-10.1348
▁collaborat	-10.1352
Ba	-10.1353
late	-10.1353
Films	-10.1361
▁Ben	-10.1363
con	-10.1369
tor	-10.138
▁Creati	-10.1384
My	-10.1438
way	-10.1439
▁Mark	-10.1445
ba	-10.1491
▁contract	-10.1503
▁1987	-10.151
movies	-10.1512
▁keyboard	-10.1516
nded	-10.1522
▁friend	-10.1534
Tre	-10.1536
Sept	-10.154
hin	-10.1543
interviews	-10.1553
▁Chart	-10.1555
ful	-10.1559
fb	-10.1559
ating	-10.1566
There	-10.1571
udio	-10.1573
IS	-10.1606
▁novel	-10.1617
▁humanoid	-10.1621
▁musician	-10.1631
▁Can	-10.164
▁sub	-10.1643
elt	-10.1646
▁month	-10.1648
ogg	-10.1663
▁Secret	-10.167
ultraviolence	-10.1671
darlings	-10.1671
Oasis	-10.1671
Missundaztood	-10.1671
▁effort	-10.1671
Companies	-10.1671
Rinzler	-10.1671
▁Collins	-10.1671
▁ROSE	-10.1671
▁embark	-10.1671
▁guide	-10.1671
chicagotribune	-10.1671
▁Previously	-10.1671
hasbro	-10.1671
▁Release	-10.1672
controversial	-10.1672
▁Unauthori	-10.1672
▁Anthem	-10.1672
▁Unleashed	-10.1672
▁entries	-10.1672
▁large	-10.1672
▁indefinitely	-10.1672
▁Resistance	-10.1672
▁Worldwide	-10.1672
▁instructions	-10.1672
▁remix	-10.1672
▁level	-10.1672
▁Jackson	-10.1672
wilson	-10.1672
▁Kingdom	-10.1672
weeknd	-10.1672
▁documentary	-10.1673
▁successful	-10.1673
Fiction	-10.1673
▁Since	-10.1673
▁Battle	-10.1673
▁native	-10.1674
active	-10.1674
Hiro	-10.1674
▁himself	-10.1674
▁Island	-10.1675
▁Master	-10.1676
Just	-10.1677
Craig	-10.1677
▁saga	-10.1677
▁apprentice	-10.1679
▁Later	-10.1679
▁Price	-10.168
▁(2014)	-10.168
suit	-10.1681
▁personal	-10.1681
ated	-10.1682
ure	-10.1682
Starboy	-10.1683
Nathan	-10.1684
vma	-10.1685
▁wave	-10.1685
▁itself	-10.1686
tracii	-10.1687
▁discussed	-10.1692
▁save	-10.1695
Danny	-10.1695
holds	-10.1695
standalone	-10.1696
▁Guide	-10.1697
▁Accordi	-10.1698
Opening	-10.1699
deluxe	-10.1701
▁park	-10.1705
runk	-10.1705
AOL	-10.1707
illionaires	-10.1709
Dugs	-10.171
▁horns	-10.1712
allmusic	-10.1713
agency	-10.1714
▁1983	-10.1717
▁Imperial	-10.1719
▁destroy	-10.172
▁decade	-10.172
▁screenplay	-10.172
▁Jungle	-10.172
▁Street	-10.172
▁Clawdites	-10.172
▁Boys	-10.1721
▁Grant	-10.1721
▁head	-10.1721
▁Box	-10.1722
52	-10.1723
▁Knight	-10.1725
▁Scott	-10.1725
▁1978	-10.1727
▁enti	-10.1732
▁Mind	-10.1734
▁effects	-10.1734
▁sol	-10.1734
▁join	-10.1736
▁broadcast	-10.1737
▁parents	-10.1739
▁Journ	-10.1743
ahoo	-10.1745
nik	-10.1745
▁focus	-10.175
▁skin	-10.1753
ollaboration	-10.1756
arry	-10.1761
reatest	-10.1767
▁singing	-10.1769
▁1970	-10.1772
=''	-10.1774
ichi	-10.1774
event	-10.1777
▁Poe	-10.178
▁Cover	-10.1789
▁money	-10.1791
▁*[	-10.1798
vh	-10.1799
▁towards	-10.1802
▁battle	-10.1807
▁bro	-10.1817
13	-10.1823
▁press	-10.1826
dom	-10.1827
▁Role	-10.1827
▁ten	-10.1837
▁Right	-10.1842
▁Girls	-10.1843
▁citations	-10.1862
▁today	-10.1862
▁University	-10.1867
7/	-10.1873
Michel	-10.1873
Saga	-10.1883
▁begin	-10.1893
▁issues	-10.19
numer	-10.1929
▁episode	-10.1929
/2011	-10.1933
▁death	-10.1937
▁block	-10.1944
3,	-10.1945
▁logo	-10.1952
▁followed	-10.1958
actually	-10.1962
city	-10.1964
▁days	-10.1978
▁l	-10.1979
▁(2008)	-10.198
aking	-10.1984
cool	-10.1988
49	-10.1992
ality	-10.2004
▁license	-10.2006
nz	-10.2007
mon	-10.2014
▁company	-10.2015
21/	-10.2021
gy	-10.2022
Sa	-10.2031
cking	-10.2038
▁foot	-10.2041
▁stand	-10.2055
▁Hart	-10.2063
▁Fo	-10.2066
Mo	-10.2082
▁total	-10.2093
5|	-10.2099
▁Was	-10.21
▁performances	-10.21
-3	-10.2105
15/	-10.2114
▁face	-10.2117
▁Ky	-10.2141
ok	-10.2142
boys	-10.2148
▁Beautiful	-10.2163
▁edition	-10.2166
▁Today	-10.2167
ept	-10.2168
Jive	-10.2169
▁Albums	-10.2208
room	-10.2221
Carl	-10.2229
ired	-10.2232
▁Academy	-10.2238
apped	-10.2248
ilar	-10.2256
TA	-10.2267
▁IFMCA	-10.23
ending	-10.2308
▁inter	-10.2312
▁provid	-10.2317
▁merchandis	-10.2324
editors	-10.2325
ger	-10.2336
▁Pi	-10.234
Rho	-10.2354
▁wi	-10.2363
ollow	-10.2367
▁Bo	-10.2376
lated	-10.2386
lin	-10.239
06	-10.2393
▁Great	-10.2398
▁1988	-10.24
finally	-10.2408
ez	-10.2409
mi	-10.2412
▁self	-10.2419
▁sets	-10.2428
ast	-10.2447
▁comics	-10.2451
/2014/	-10.2463
ade	-10.2466
ree	-10.2469
▁allow	-10.2489
1989	-10.249
56	-10.2493
ments	-10.2501
lists	-10.2502
Cooki	-10.252
03/	-10.2528
▁Entertainment	-10.2537
▁line	-10.2537
Ke	-10.2543
▁Get	-10.2556
37	-10.2559
Ann	-10.2563
▁Billboard	-10.2564
%	-10.2565
▁2018}}	-10.2572
▁isbn	-10.2572
▁Joseph	-10.2604
Li	-10.2615
01	-10.2615
-2	-10.263
Gu	-10.2653
24/	-10.2654
Her	-10.2657
=22	-10.266
▁continu	-10.2663
case	-10.2669
view	-10.268
%5	-10.2681
▁design	-10.2686
▁2010.	-10.2687
▁loca	-10.2693
ortal	-10.2699
▁Forces	-10.2701
▁leave	-10.2712
24	-10.2718
▁others	-10.2723
▁creat	-10.2725
▁records	-10.2726
▁Bob	-10.2727
▁Bot	-10.2731
ri	-10.2751
Ch	-10.2756
inners	-10.2759
▁Will	-10.2777
Despi	-10.2793
▁publish	-10.2794
▁refle	-10.2799
Gil	-10.2806
ig	-10.2809
▁2001	-10.2811
]]<	-10.2813
rian	-10.2823
min	-10.2851
birth	-10.2852
▁mdy	-10.2889
how	-10.2898
12/	-10.2901
eluxe	-10.2921
mini	-10.2928
add	-10.2932
={{	-10.294
Mil	-10.2941
ho	-10.2942
Na	-10.2944
▁attempt	-10.2949
▁young	-10.2976
▁tall	-10.2989
mar	-10.2997
▁referenc	-10.3
Al	-10.3043
▁videos	-10.3048
▁prefer	-10.3058
▁writer	-10.3063
writer	-10.3064
vin	-10.3072
▁Ren	-10.3076
law	-10.3078
/2012	-10.3103
Ne	-10.3111
screen	-10.3125
▁Mi	-10.3125
Author	-10.3126
▁2014}}	-10.3132
ring	-10.3154
▁<	-10.3163
Class	-10.3167
kar	-10.3181
Bach	-10.3183
],	-10.3198
gross	-10.3199
company	-10.3202
uz	-10.3206
ution	-10.3208
Lucas	-10.3208
trie	-10.3212
doc	-10.3213
Arthur	-10.3215
sound	-10.3215
onso	-10.322
super	-10.3228
Adam	-10.324
▁2011}}	-10.3241
Alexander	-10.3243
YouTube	-10.3243
Howard	-10.3244
geek	-10.3245
▁Cr	-10.3246
Bad	-10.3248
file	-10.325
would	-10.3251
voice	-10.3252
Take	-10.3254
Interview	-10.3261
Clone	-10.3263
Why	-10.3264
Life	-10.3266
World	-10.3267
Max	-10.3268
Party	-10.3269
Please	-10.3274
London	-10.3275
Encyclopedia	-10.3278
West	-10.3279
short	-10.3279
Solo	-10.3279
='	-10.3285
Other	-10.3287
through	-10.3294
announced	-10.3296
winners	-10.3306
▁Com	-10.3314
How	-10.3315
34/	-10.3318
▁boy	-10.3319
▁tri	-10.3323
55	-10.3336
notes	-10.3342
Land	-10.3351
ear	-10.3369
0%	-10.3373
jun	-10.3381
Da	-10.339
bla	-10.3394
records	-10.3397
ume	-10.3423
▁charts	-10.3431
ith	-10.345
▁Dr	-10.3467
covered	-10.3476
ren	-10.3489
dr	-10.349
8}}	-10.3494
sible	-10.3496
00.	-10.3501
▁(2008	-10.3508
artists	-10.3511
photo	-10.3526
▁sim	-10.3531
▁Mother	-10.3538
pe	-10.3548
▁guest	-10.3559
▁replac	-10.357
2016	-10.3574
▁Movie	-10.3577
gg	-10.3598
eyes	-10.3615
Un	-10.3618
▁consider	-10.3621
▁role	-10.3624
DE	-10.3628
▁producer	-10.3629
▁prove	-10.3631
}}|	-10.3635
/2013	-10.3642
Gener	-10.3655
ey	-10.3659
▁Act	-10.3663
onopoly	-10.3665
cent	-10.3669
prnewswire	-10.3671
Ultimate	-10.3671
=978-1-4516-066	-10.3671
Timothy	-10.3671
▁decision	-10.3671
Poolside	-10.3671
dagger	-10.3671
▁Goldsmith	-10.3671
▁Murphy	-10.3671
▁Vegas	-10.3671
▁behalf	-10.3671
▁pursu	-10.3671
▁recogniz	-10.3671
▁require	-10.3671
business	-10.3671
▁Dooku	-10.3671
▁Suicide	-10.3671
▁Tobias	-10.3671
▁Washington	-10.3671
▁Arnold	-10.3671
▁executive	-10.3671
▁particular	-10.3671
▁separat	-10.3671
▁Bernstein	-10.3671
collapse	-10.3671
tropico	-10.3672
▁Flames	-10.3672
bandsintown	-10.3672
▁(2005)	-10.3672
▁Perkins	-10.3672
▁keep	-10.3672
▁permission	-10.3672
▁spawn	-10.3672
▁Club	-10.3672
=8352	-10.3672
▁Critics	-10.3672
jaguar	-10.3672
▁Ashba	-10.3672
▁(2010)	-10.3672
▁Weeknd	-10.3672
▁LLC	-10.3672
▁Goldstein	-10.3672
folk	-10.3672
▁vocalist	-10.3672
6;"|	-10.3672
Maleficent	-10.3672
▁enough	-10.3672
svg	-10.3672
▁Lennox	-10.3673
girl	-10.3673
▁Complete	-10.3673
▁subsidiar	-10.3673
▁Fisher	-10.3673
hospital	-10.3674
''{{'}}	-10.3674
▁(1991)	-10.3675
▁Edge	-10.3676
Robin	-10.3676
babies	-10.3676
▁Guardian	-10.3676
Bantam	-10.3676
presence	-10.3677
▁Los	-10.3677
Patience	-10.3677
punk	-10.3677
▁spoke	-10.3678
▁serial	-10.368
brian	-10.368
▁rare	-10.368
▁Moments	-10.3681
▁Germany	-10.3681
robot	-10.3681
ama	-10.3682
▁chose	-10.3683
Coachella	-10.3683
▁retain	-10.3683
▁Motor	-10.3684
Drall	-10.3685
▁lower	-10.3686
▁responded	-10.3689
▁Park	-10.369
▁Glass	-10.369
height	-10.3691
▁creatures	-10.3691
▁pull	-10.3693
Barrie	-10.3695
▁critical	-10.3697
38	-10.3698
=2008|	-10.3698
body	-10.3699
Ern	-10.3701
snl	-10.3701
=[[20	-10.3704
Sample	-10.3704
democracy	-10.3706
▁settle	-10.3706
rather	-10.3707
Going	-10.371
=2011|	-10.3716
▁Car	-10.3721
▁post	-10.3722
▁Productions	-10.3722
Another	-10.3726
speaks	-10.3726
day	-10.3727
▁exist	-10.3729
▁technology	-10.373
▁lyrics	-10.373
▁Channel	-10.373
▁Stinson	-10.373
▁President	-10.3731
▁piano	-10.3731
▁person	-10.3733
feld	-10.3733
Ka	-10.3733
▁highest	-10.3733
adler	-10.3734
/50-	-10.3734
▁advance	-10.3737
▁Parker	-10.3738
▁1981	-10.3743
▁Report	-10.3743
Coda	-10.3745
▁Home	-10.3745
sites	-10.3746
Bla	-10.3749
exactly	-10.3753
▁Debuts	-10.3753
▁feminism	-10.3755
▁#	-10.3755
bio	-10.3758
▁GN	-10.3763
;"	-10.3765
93	-10.377
▁(2015)	-10.3772
=2004|	-10.3775
▁Card	-10.3776
▁Michael	-10.3777
unreleased	-10.378
Kenner	-10.3781
▁Ar	-10.3782
ice	-10.3783
▁Barb	-10.3783
else	-10.3789
_(	-10.3792
▁Daniels	-10.3796
904	-10.3803
tley	-10.3814
igital	-10.3815
▁programs	-10.3817
▁exclusive	-10.3817
▁son	-10.3819
▁mother	-10.3821
▁Four	-10.3823
mission	-10.3823
▁Dashade	-10.3826
▁Collect	-10.3833
▁plans	-10.3834
▁seriously	-10.3836
▁soundtrack	-10.3842
▁Arts	-10.3848
▁Adventures	-10.3849
▁cost	-10.3859
▁su	-10.3871
cover	-10.3879
ere	-10.3896
▁Morris	-10.3897
cha	-10.3897
ame	-10.3907
Jerr	-10.3908
▁cast	-10.391
▁club	-10.391
▁Walt	-10.3911
▁Oscar	-10.3911
▁Arista	-10.3912
▁Blue	-10.3917
went	-10.3917
ual	-10.3925
Ho	-10.3934
Raise	-10.3941
▁prequels	-10.3942
▁1998	-10.3963
▁listed	-10.3975
▁stars	-10.3977
ULT	-10.3987
ant	-10.3989
▁Has	-10.3991
42	-10.3993
20/	-10.4001
▁Madonna	-10.4004
▁Philadelphia	-10.4005
▁Albert	-10.4006
arrie	-10.4006
grammys	-10.4012
/201	-10.4019
dward	-10.4027
cc	-10.4034
▁Or	-10.4038
▁helps	-10.4055
48	-10.406
Satur	-10.4078
▁Vocals	-10.4079
-1-	-10.4079
asp	-10.4083
▁du	-10.4085
11/	-10.4087
amous	-10.4093
obi	-10.4097
74	-10.4099
▁Party	-10.4104
used	-10.4106
Ca	-10.4113
▁day	-10.4114
▁exp	-10.4124
▁pro	-10.4142
68	-10.4142
lucas	-10.4149
▁kill	-10.4149
-7	-10.4156
▁West	-10.416
▁se	-10.417
ute	-10.4174
▁Jr	-10.4177
turned	-10.4178
05/	-10.418
▁1984	-10.4181
▁Simon	-10.4199
▁board	-10.4216
▁takes	-10.423
▁program	-10.4233
adele	-10.4237
leaked	-10.4245
Alf	-10.4246
▁Is	-10.4251
0%|	-10.4262
▁cards	-10.4269
14/	-10.427
▁Here	-10.4276
Di	-10.4276
▁Bumblefoot	-10.4282
▁Aerosmith	-10.4284
themed	-10.4285
ship	-10.4292
Janis	-10.4299
▁30	-10.43
▁Come	-10.4303
ich	-10.4305
scu	-10.4308
ett	-10.4308
oth	-10.4311
▁Ave	-10.4323
-22	-10.4344
▁art	-10.4346
voy	-10.4358
nley	-10.436
▁break	-10.436
tickets	-10.4365
king	-10.4381
any	-10.4388
=2017-0	-10.4389
▁#1	-10.4395
▁Vol	-10.4403
000	-10.4416
di	-10.4417
metime	-10.4431
bo	-10.4449
stories	-10.4452
▁moves	-10.4452
aj	-10.4457
ail	-10.4457
*	-10.4458
end	-10.4472
related	-10.4472
▁war	-10.4509
▁Crea	-10.4511
▁197	-10.4524
harles	-10.4535
▁Gilb	-10.454
▁2017.	-10.4542
Listen	-10.4545
Out	-10.455
reflist	-10.4554
80	-10.456
28	-10.459
/1993	-10.4593
elebration	-10.4606
ortable	-10.4614
▁Due	-10.4614
we	-10.4615
unday	-10.4616
▁Reveal	-10.4633
2010	-10.4638
▁Un	-10.464
ier	-10.4645
6|	-10.4659
elling	-10.4667
04	-10.4673
ned	-10.4683
▁Project	-10.4686
bold	-10.4686
▁digital	-10.4689
▁Gu	-10.4693
few	-10.4695
orbes	-10.4699
▁William	-10.47
mble	-10.47
▁works	-10.4704
▁arms	-10.4705
droids	-10.4715
Fan	-10.472
Ja	-10.4725
▁13-	-10.473
▁Rocks	-10.4738
aft	-10.4749
/5	-10.4755
mo	-10.4757
▁Clos	-10.4761
rman	-10.4762
/200	-10.4765
▁qu	-10.4778
scores	-10.4802
▁low	-10.4818
26	-10.4826
imated	-10.4847
▁Ed	-10.4851
tz	-10.4851
utter	-10.4864
ell	-10.4866
▁fire	-10.4875
4/	-10.488
▁Van	-10.488
57	-10.4881
▁row	-10.4904
Ro	-10.4906
▁His	-10.4916
Br	-10.4924
iph	-10.4938
23.	-10.4951
▁Under	-10.4958
▁promot	-10.4972
]].{{	-10.4972
MS	-10.4976
Groupie	-10.4994
llow	-10.5001
put	-10.5003
▁People	-10.5016
▁develope	-10.5021
pair	-10.5036
▁giv	-10.5043
▁seem	-10.5046
anti	-10.505
efore	-10.5052
▁eventual	-10.5063
2008	-10.5067
other	-10.5069
▁age	-10.5081
ain	-10.5089
erial	-10.51
84	-10.512
nie	-10.512
▁Author	-10.5133
▁rest	-10.5148
ood	-10.5171
ber	-10.5178
▁Ke	-10.518
que	-10.521
aries	-10.5224
-11-	-10.5235
ough	-10.5235
lyn	-10.5238
Stu	-10.524
ridge	-10.5243
▁Golden	-10.5259
owned	-10.526
Jim	-10.5282
43	-10.5282
town	-10.5288
77	-10.529
▁purchase	-10.5293
Dea	-10.5302
3/	-10.532
=8	-10.5321
War	-10.5335
▁Hold	-10.5338
▁serv	-10.5338
250	-10.5348
covers	-10.5353
ize	-10.5359
▁read	-10.536
ler	-10.536
allas	-10.5381
irgin	-10.5386
▁Alan	-10.5394
ico	-10.5413
ver	-10.5416
ars	-10.5426
int	-10.5435
35	-10.5454
head	-10.5458
FA	-10.5462
face	-10.5463
▁base	-10.5471
ributed	-10.5472
actor	-10.5481
▁gre	-10.5482
hen	-10.5492
▁fact	-10.5506
back	-10.5507
ira	-10.5509
Be	-10.5523
ak	-10.5531
290	-10.5535
▁sp	-10.5542
rad	-10.5549
shop	-10.5559
hi	-10.5559
▁Wor	-10.556
soundtrack	-10.556
'']]	-10.5563
clone	-10.5568
night	-10.5574
Prince	-10.5585
take	-10.5591
metal	-10.5595
114	-10.5596
Trans	-10.5608
pa	-10.5611
aily	-10.5617
Ma	-10.562
▁Se	-10.5625
type	-10.5626
For	-10.5656
<!--	-10.5661
ded	-10.5684
feature	-10.5692
Kurt	-10.5705
Exclusive	-10.5706
complete	-10.5707
double	-10.571
Ryan	-10.5716
ould	-10.5721
Jimm	-10.5726
antas	-10.5727
▁Gibb	-10.5727
Awards	-10.5729
may	-10.5735
incident	-10.5744
44/	-10.5744
culture	-10.5746
Special	-10.5752
million	-10.5752
Holiday	-10.5753
countries	-10.5753
Guitar	-10.5755
75	-10.5755
Watch	-10.5755
Tommy	-10.5755
Philadelphia	-10.5759
production	-10.5759
Albert	-10.576
Madonna	-10.576
format	-10.5762
universe	-10.5771
science	-10.5772
manager	-10.5772
details	-10.5772
original	-10.5773
▁50	-10.5775
▁2009}}	-10.5775
color	-10.5776
1997|	-10.5778
Down	-10.5779
▁br	-10.578
begin	-10.578
Brown	-10.578
look	-10.5785
uch	-10.5785
Ewoks	-10.5786
death	-10.5797
empire	-10.5798
called	-10.58
God	-10.5807
DJ	-10.5809
audio	-10.5814
88	-10.5816
cards	-10.5826
theme	-10.5827
influences	-10.5828
Japan	-10.5828
Here	-10.5834
solo	-10.5835
special	-10.5843
bert	-10.5861
By	-10.5896
One	-10.5897
Tou	-10.5899
190	-10.5908
inter	-10.5909
▁defe	-10.591
stead	-10.5946
Le	-10.5967
▁Son	-10.5968
▁cap	-10.5974
episodes	-10.5977
away	-10.5993
ways	-10.5998
iana	-10.6002
▁discussion	-10.6004
Ry	-10.6008
-2016	-10.601
Inter	-10.6015
▁gene	-10.6015
▁Influence	-10.6018
Leo	-10.602
'':	-10.603
ken	-10.6043
Las	-10.6043
Singer	-10.6044
emy	-10.6065
organiz	-10.6069
▁Dream	-10.6088
▁old	-10.6089
others	-10.609
▁Adventure	-10.6101
89/	-10.6103
▁Ewok	-10.6106
een	-10.6107
▁Mak	-10.6108
▁Brit	-10.611
stream	-10.6112
scape	-10.6125
biography	-10.6139
uffington	-10.6142
Liv	-10.6143
▁(2003	-10.6144
avorite	-10.6145
olydor	-10.6146
773	-10.6149
racii	-10.6149
▁induct	-10.6152
Happ	-10.6154
isible	-10.6156
▁princ	-10.6157
Elle	-10.6157
duced	-10.6157
▁say	-10.6161
ubmit	-10.6162
Hawks	-10.6166
ritney	-10.6168
Roger	-10.6168
minute	-10.617
=2006110	-10.617
Sebastian	-10.6171
MacWEEK	-10.6171
paradise	-10.6171
Cambridge	-10.6171
bumblefoot	-10.6171
▁2009-11-30	-10.6171
/2014-11-01/	-10.6171
ISBN	-10.6171
Matthew	-10.6171
Architect	-10.6171
Cinderella	-10.6171
Epicanthix	-10.6171
Jewish	-10.6171
Kassidy	-10.6171
Leonard	-10.6171
PlayStation	-10.6171
Sirens	-10.6171
alcohol	-10.6171
vandalism	-10.6171
▁Campaign	-10.6171
▁Campbell	-10.6171
▁Christmas	-10.6171
▁Communications	-10.6171
▁Details	-10.6171
▁Enterprises	-10.6171
▁Joplin	-10.6171
▁Premiere	-10.6171
▁Universe	-10.6171
▁participate	-10.6171
▁potential	-10.6171
▁schedul	-10.6171
▁sequence	-10.6171
▁Calrissian	-10.6171
▁disappoint	-10.6171
Encyc	-10.6171
▁Schwartz	-10.6171
▁relationship	-10.6171
Deyneka	-10.6171
twitter	-10.6172
▁Presley	-10.6172
Reckless	-10.6172
▁associated	-10.6172
Freak	-10.6172
=8344	-10.6172
▁Keane	-10.6172
▁Lewis	-10.6172
exchange	-10.6172
Winwood	-10.6172
▁English	-10.6172
Viacom	-10.6172
▁prominen	-10.6172
Brannigan	-10.6172
▁Nominees	-10.6172
Geoff	-10.6172
▁possess	-10.6172
display	-10.6172
▁School	-10.6172
lanadelrey	-10.6172
variety	-10.6172
▁Screenplay	-10.6172
▁across	-10.6172
▁(2018)	-10.6172
▁country	-10.6172
▁prior	-10.6172
rebels	-10.6172
▁discography	-10.6172
Noitalic	-10.6172
▁Valley	-10.6172
Pipeworks	-10.6172
▁Houston	-10.6172
tific	-10.6172
▁weapons	-10.6172
/2012/01/	-10.6172
/2014/06/	-10.6172
Massey	-10.6172
Estranged	-10.6172
▁extensive	-10.6172
▁Season	-10.6172
▁Cameron	-10.6172
▁latter	-10.6172
▁freedom	-10.6172
▁Hetfield	-10.6173
Academic	-10.6173
gment	-10.6173
george	-10.6173
▁Association	-10.6173
▁explain	-10.6173
▁Soft	-10.6173
▁Pitman	-10.6173
starboy	-10.6173
URL	-10.6173
▁Lennon	-10.6173
▁Feet	-10.6174
▁Walker	-10.6174
SNL	-10.6174
▁Navarro	-10.6174
▁however	-10.6174
▁changing	-10.6174
▁Database	-10.6175
desire	-10.6175
Summertime	-10.6175
Brode	-10.6175
▁administrator	-10.6175
▁mention	-10.6176
Prequel	-10.6176
▁Doves	-10.6176
▁Dan	-10.6177
▁close	-10.6177
▁aspect	-10.6177
▁Archive	-10.6177
▁Title	-10.6178
Wenner	-10.6179
wikt	-10.618
casino	-10.618
▁unlike	-10.618
Boggle	-10.618
/2013082	-10.618
shades	-10.6181
▁Bowl	-10.6181
▁units	-10.6181
gate	-10.6182
▁accompani	-10.6182
Charlie	-10.6182
Revolver	-10.6182
▁Finale	-10.6183
▁Child	-10.6183
▁(2017)	-10.6184
amily	-10.6184
▁Insider	-10.6184
home	-10.6185
▁France	-10.6188
Reason	-10.6188
▁Craz	-10.6188
Redirect	-10.6189
▁(2009)	-10.6189
animation	-10.619
ARS	-10.6191
▁Beck	-10.6191
▁licensing	-10.6191
▁deep	-10.6191
▁stole	-10.6192
▁storyline	-10.6192
Guitarist	-10.6193
binding	-10.6194
▁discovered	-10.6195
▁Single	-10.6196
▁starfighters	-10.6196
▁Zolanders	-10.6196
edy	-10.6198
Norman	-10.6199
▁sixth	-10.6199
▁adaptation	-10.62
▁task	-10.62
▁Shaw	-10.62
MM	-10.6201
greatest	-10.6201
strong	-10.6201
weird	-10.6204
▁Fin	-10.6205
▁anything	-10.6207
oodstock	-10.6208
pdf	-10.6208
Trailblazer	-10.621
tech	-10.621
AQ	-10.621
▁Mine	-10.6211
RIT	-10.6213
Defel	-10.6216
1994	-10.6216
▁commented	-10.6216
▁manage	-10.6217
ksn	-10.6217
Fantas	-10.6219
Kid	-10.6219
▁grow	-10.6219
▁creator	-10.6221
instyle	-10.6221
▁(2002)	-10.6221
▁Ball	-10.6222
▁Ahme	-10.6222
▁Along	-10.6227
/675	-10.6228
▁duel	-10.6228
▁hair	-10.623
▁comment	-10.623
▁argu	-10.623
▁reading	-10.6231
▁Super	-10.6241
npr	-10.6241
Bry	-10.6241
watches	-10.6242
vii	-10.6242
Elomin	-10.6243
idley	-10.6244
▁powers	-10.6245
▁demo	-10.6246
▁PETA	-10.6247
▁Naboo	-10.6247
▁vinyl	-10.6247
▁Result	-10.6247
▁command	-10.6247
▁Gabriel	-10.6247
▁Tatooine	-10.6247
▁Metallica	-10.6248
▁Trank	-10.6248
▁accept	-10.625
▁Starkiller	-10.625
▁Macon	-10.625
▁Break	-10.6251
▁Score	-10.6251
sput	-10.6252
Imagine	-10.6253
▁1955	-10.6255
▁headlin	-10.6255
1|	-10.6255
▁Pe	-10.6257
▁Donald	-10.6257
▁scale	-10.6258
▁Kennedy	-10.6259
▁Lando	-10.626
sports	-10.6261
▁Hotel	-10.6261
▁BB	-10.6261
documentation	-10.6264
▁navbox	-10.6267
Spinoff	-10.6267
|150	-10.627
/16	-10.6271
▁goes	-10.6271
▁realize	-10.6271
▁Reader	-10.6272
▁Devaronians	-10.6273
▁stations	-10.6276
rogue	-10.6276
▁dramas	-10.6277
rie	-10.6281
announce	-10.6281
▁finished	-10.6281
▁Lords	-10.6282
▁Gone	-10.6286
adm	-10.6288
Former	-10.6289
▁Court	-10.629
▁model	-10.629
regnan	-10.629
ggressive	-10.6291
▁lib	-10.6293
▁Fall	-10.6295
▁teen	-10.6301
onald	-10.6301
▁Bone	-10.6304
Dick	-10.6306
▁office	-10.6311
Hug	-10.6313
▁delay	-10.6319
▁clock	-10.632
STA	-10.6321
?"]]''	-10.6322
actic	-10.6327
sky	-10.6329
▁Ch	-10.6329
setlist	-10.6331
▁shot	-10.6335
Famous	-10.6341
ING	-10.6362
.]]	-10.6364
▁Chaos	-10.6366
▁Future	-10.6367
▁Television	-10.6369
▁reunion	-10.6372
362	-10.6374
ord	-10.6386
arvel	-10.6387
▁learn	-10.6394
▁2015}}	-10.6399
ham	-10.6402
▁build	-10.6403
uki	-10.6407
aria	-10.6415
ener	-10.6416
=26	-10.642
▁leg	-10.6424
wa	-10.644
▁Sam	-10.6442
▁Mor	-10.6442
▁eight	-10.6458
▁completed	-10.6462
/14298	-10.6467
32	-10.6476
▁Queen	-10.6486
▁Hags	-10.6487
▁Russell	-10.6487
▁Seattle	-10.6487
▁blue	-10.6487
▁subsequent	-10.6488
expanded	-10.6492
-5-	-10.6493
▁Tales	-10.6494
▁sister	-10.6494
▁Anthology	-10.6495
▁born	-10.6496
▁hip	-10.6502
▁cut	-10.6502
▁color	-10.6506
▁deal	-10.6511
▁Dreams	-10.6512
▁Soul	-10.6515
▁dominate	-10.6516
▁Hell	-10.6516
amuel	-10.6522
lon	-10.6532
alone	-10.6533
Mari	-10.6542
coast	-10.6542
126|	-10.6544
Olive	-10.6549
Lor	-10.6551
far	-10.6565
omen	-10.6566
-8	-10.6569
▁body	-10.6575
ilton	-10.6575
4}}	-10.6578
▁speak	-10.6585
Car	-10.6587
ious	-10.6589
/80	-10.6591
▁credit	-10.6593
▁1994.	-10.6594
Kill	-10.6595
Ride	-10.6598
tri	-10.6603
▁countries	-10.6607
oon	-10.6608
▁Holiday	-10.6608
▁Songs	-10.6609
remastered	-10.6612
▁Tommy	-10.6613
▁Geograph	-10.6616
Physic	-10.6616
/2015/12/	-10.6617
kin	-10.6623
mus	-10.6634
urther	-10.6637
USA	-10.6638
spaghetti	-10.6638
hitney	-10.6644
Didn	-10.6647
sta	-10.665
▁Say	-10.6653
▁night	-10.6667
Coming	-10.6672
▁away	-10.6674
▁Run	-10.6676
hildhood	-10.6693
▁DJ	-10.6694
Vor	-10.67
2009	-10.6702
▁Sa	-10.6703
▁per	-10.6704
SE	-10.6707
79	-10.6714
ee	-10.6719
▁Roy	-10.672
istic	-10.6723
Find	-10.6725
▁Gala	-10.6726
rupt	-10.6726
▁Bigge	-10.6727
▁influences	-10.6727
▁Interview	-10.6727
asked	-10.6728
▁Why	-10.673
Henr	-10.673
▁sounds	-10.6742
45/	-10.6743
▁collaboration	-10.6752
▁Max	-10.6753
▁Ewoks	-10.6757
-10-	-10.6757
▁1989	-10.6759
▁ago	-10.6759
▁Fur	-10.6759
1423	-10.676
5270	-10.6762
▁fr	-10.6764
33	-10.6768
Can	-10.6773
▁El	-10.6789
ensive	-10.6806
amas	-10.6809
weet	-10.6813
▁Adam	-10.6819
def	-10.6835
▁concerts	-10.684
]]''<	-10.6842
▁less	-10.6842
▁plan	-10.6844
▁consist	-10.6849
▁Black	-10.6852
wi	-10.6852
▁Are	-10.6859
▁Mari	-10.6863
ek	-10.6863
▁Land	-10.6865
im	-10.6875
Bo	-10.6879
cock	-10.6892
open	-10.6904
▁Wa	-10.6927
▁cause	-10.6932
ep	-10.6933
▁Ra	-10.6939
22/	-10.6941
▁score	-10.6946
▁songwriter	-10.6956
Han	-10.6965
▁2002|	-10.6976
)]]	-10.6984
▁Now	-10.6984
?"	-10.6991
▁online	-10.6999
war	-10.7004
ong	-10.7021
▁Y	-10.7021
usa	-10.7021
ezn	-10.703
▁Big	-10.7042
ery	-10.7048
mates	-10.7049
137	-10.7053
Frederic	-10.7054
1990	-10.7064
ically	-10.7072
36	-10.7072
van	-10.7074
▁ac	-10.708
▁wide	-10.7091
▁GNR	-10.7091
size	-10.7091
▁Jaguar	-10.7093
3"	-10.7094
undation	-10.71
bru	-10.7102
ative	-10.711
▁says	-10.712
▁Am	-10.7127
▁Daniel	-10.713
▁arm	-10.7157
ath	-10.7163
▁noted	-10.7163
rotection	-10.7165
zi	-10.717
"|	-10.7171
▁achieve	-10.7172
PR	-10.7187
PP	-10.7194
▁100,	-10.7195
▁David	-10.7205
▁([[	-10.7225
ield	-10.7227
▁collaborate	-10.7238
▁hot	-10.7278
86-	-10.7282
600	-10.7282
ray	-10.7283
=20	-10.7287
ind	-10.729
crow	-10.7294
▁Globe	-10.7295
News	-10.7305
▁labels	-10.7307
Mail	-10.7316
=''[[	-10.7322
itch	-10.7325
ns	-10.7327
ling	-10.7329
▁San	-10.733
71	-10.7331
=2016	-10.7331
/2012/	-10.7334
art	-10.7338
225	-10.7339
ican	-10.7376
5)	-10.738
▁wear	-10.7383
▁Z	-10.7391
▁Po	-10.7392
Mar	-10.7398
▁fi	-10.7399
▁roll	-10.7412
edu	-10.7415
bs	-10.7416
▁sur	-10.7421
reveals	-10.7426
▁Ti	-10.7427
ego	-10.7432
▁disp	-10.7433
omputer	-10.7434
eme	-10.7439
▁serve	-10.7441
▁human	-10.7453
ome	-10.7458
gets	-10.7465
▁franchises	-10.7469
1">{{	-10.7469
ings	-10.7479
16/	-10.7483
▁seek	-10.7488
/2013/0	-10.7494
▁Sk	-10.7507
Musical	-10.7514
Yuzzums	-10.7515
▁publishe	-10.7518
▁pret	-10.7528
ather	-10.7533
Lud	-10.7536
ody	-10.7538
ap	-10.755
od	-10.7554
tr	-10.7556
working	-10.7561
Je	-10.7564
▁cont	-10.757
IM	-10.7586
▁Cre	-10.7588
pot	-10.7595
Marv	-10.7617
make	-10.7628
128	-10.7628
19/	-10.7631
▁land	-10.7633
born	-10.7636
ami	-10.7643
john	-10.7652
nu	-10.766
Gal	-10.7686
▁Let	-10.769
so	-10.7692
87	-10.7694
ctresses	-10.7697
▁continue	-10.7699
▁alter	-10.7701
Se	-10.7702
shi	-10.7702
▁(1985–	-10.7709
/2015	-10.7709
▁Ten	-10.7711
riv	-10.7719
▁Films	-10.7725
rah	-10.7726
Hum	-10.7729
▁critici	-10.7742
=10	-10.775
rincess	-10.775
/15	-10.7751
Con	-10.7766
ont	-10.7771
nium	-10.7774
als	-10.7781
/20130	-10.7785
':	-10.7804
berg	-10.7811
▁Stephen	-10.7821
▁Funhouse	-10.7823
board	-10.7824
won	-10.7827
-1987	-10.7833
men	-10.7833
18-	-10.7833
▁filming	-10.7836
/2015/0	-10.7843
45	-10.7844
567	-10.7844
▁Track	-10.7858
=1	-10.7863
/09/	-10.787
▁Drama	-10.7877
▁Bass	-10.7902
lip	-10.7912
fi	-10.7916
2206	-10.7916
09	-10.7969
3=	-10.7973
yman	-10.7974
61	-10.8005
/21/	-10.8015
405	-10.8015
ying	-10.8018
98	-10.8035
▁Ko	-10.8043
lso	-10.8043
▁Kaminski	-10.8061
po	-10.8074
▁est	-10.8077
-5|	-10.8103
▁remind	-10.8107
tat	-10.8112
worked	-10.8118
▁Compan	-10.8119
hoped	-10.8122
iss	-10.8146
▁droid	-10.8166
itially	-10.8178
erson	-10.8191
RD	-10.82
▁Bach	-10.8206
els	-10.8214
25/	-10.8214
hit	-10.8223
Cook	-10.8228
▁adventure	-10.8243
An	-10.8254
omy	-10.8256
▁air	-10.8259
▁gone	-10.8259
Great	-10.8268
uda	-10.8272
▁1992	-10.829
va	-10.8292
Film	-10.8303
4=	-10.8311
nique	-10.8318
lis	-10.8324
ys	-10.8339
leading	-10.834
▁Bur	-10.8341
nterscope	-10.8359
Ju	-10.8388
▁Chang	-10.8393
▁Did	-10.8398
risten	-10.84
▁ph	-10.8404
▁editor	-10.841
asi	-10.8419
▁Ear	-10.8427
▁Bill	-10.8435
▁100]]	-10.8437
La	-10.8466
1986	-10.8469
sa	-10.8474
bot	-10.848
▁award	-10.8488
▁Friends	-10.8492
ought	-10.8499
ales	-10.853
oder	-10.8539
,"	-10.8544
mag	-10.8544
▁ne	-10.8548
nimated	-10.8565
2014"	-10.859
1999|	-10.8599
/20	-10.8601
▁Sat	-10.8609
ow	-10.8612
mond	-10.8616
low	-10.8626
/03/	-10.8645
▁Start	-10.8661
unch	-10.8669
Gala	-10.8679
Who	-10.8686
0/	-10.8693
▁Per	-10.8693
▁Ble	-10.8709
▁releases	-10.8709
▁somewh	-10.8716
rant	-10.8717
▁gr	-10.8733
ti	-10.8735
Wa	-10.8746
onorary	-10.8763
log	-10.8763
days	-10.8767
Go	-10.8776
termin	-10.8779
sure	-10.8783
critics	-10.8784
/2017	-10.8789
▁Robert	-10.8791
Prime	-10.8802
▁pa	-10.8803
record	-10.881
5}}	-10.8818
Force	-10.8818
den	-10.8825
talk	-10.8826
ix	-10.8826
'|	-10.8831
huck	-10.8833
pid	-10.8841
Tour	-10.8846
move	-10.8852
Cinema	-10.8871
▁1984.	-10.8879
Contact	-10.8888
Bern	-10.8893
project	-10.8894
▁(4	-10.8896
/2009	-10.89
House	-10.8931
Brun	-10.8937
▁Vis	-10.8938
93.	-10.894
has	-10.894
space	-10.8944
Book	-10.8944
02	-10.8946
create	-10.8947
hood	-10.8947
force	-10.8949
Artist	-10.8949
brit	-10.8954
Sam	-10.8957
51	-10.8957
ai	-10.8959
ju	-10.8974
Clint	-10.8981
have	-10.8982
▁revis	-10.8985
Page	-10.8995
auto	-10.8999
07	-10.9001
write	-10.9004
▁present	-10.9004
▁Fun	-10.9005
▁met	-10.9005
▁positi	-10.9006
▁leak	-10.902
brand	-10.9026
Eagles	-10.9034
anthem	-10.9035
Risk	-10.9035
Loder	-10.9036
novelization	-10.9036
}}{{	-10.9037
Cult	-10.9045
place	-10.9045
German	-10.9052
Look	-10.9059
Template	-10.906
Sex	-10.9064
Warner	-10.9066
Douglas	-10.9067
Get	-10.9067
Thomas	-10.9067
Manson	-10.9069
Democracy	-10.907
Australia	-10.907
Golden	-10.9072
high	-10.9078
Jean	-10.9078
leak	-10.9079
▁believ	-10.9081
blue	-10.9082
Russell	-10.9082
Queen	-10.9083
Adler	-10.9083
Seattle	-10.9084
Tales	-10.9084
perform	-10.9085
control	-10.9087
Anthology	-10.9088
know	-10.9089
Arista	-10.909
Oscar	-10.9091
Blue	-10.9091
while	-10.9091
Jay	-10.9092
galaxy	-10.9092
History	-10.9093
Love	-10.9093
University	-10.9093
Metal	-10.9093
return	-10.9094
mind	-10.9094
Hell	-10.9096
Attack	-10.9096
club	-10.9097
Science	-10.9097
Radio	-10.9101
friends	-10.9102
season	-10.9103
That	-10.9104
▁prot	-10.9104
category	-10.9104
Sound	-10.9105
who	-10.9107
Hear	-10.911
horn	-10.9112
sister	-10.9113
reason	-10.9114
Hags	-10.9115
ional	-10.9117
Press	-10.9117
Show	-10.9122
plot	-10.9123
Sage	-10.9126
Roy	-10.9128
Old	-10.9129
hear	-10.9131
three	-10.9132
▁influence	-10.9152
▁Pri	-10.9153
CD	-10.9158
recorded	-10.9162
base	-10.9164
Mary	-10.9166
trip	-10.917
▁mov	-10.9181
fans	-10.9184
print	-10.9194
part	-10.9199
31	-10.9201
347	-10.9201
ston	-10.9203
some	-10.9204
II	-10.9228
brands	-10.9228
map	-10.923
▁red	-10.9231
▁wh	-10.9232
user	-10.9235
▁fun	-10.9246
house	-10.9254
ally	-10.926
ji	-10.9269
Rand	-10.9282
poken	-10.9285
stein	-10.9287
ag	-10.9293
estruction	-10.9294
Now	-10.9295
Wild	-10.9295
Ref	-10.9296
2}}	-10.9304
dark	-10.9305
▁(2006)	-10.932
asha	-10.9322
Glo	-10.9326
=19	-10.9327
▁Power	-10.9336
going	-10.9337
note	-10.9341
bd	-10.9343
▁Red	-10.935
equel	-10.9357
▁Photo	-10.9359
▁parent	-10.936
▁Debut	-10.9368
power	-10.9369
▁Know	-10.9373
cial	-10.9373
ven	-10.9373
Sh	-10.9374
100	-10.938
▁Bart	-10.9395
▁prim	-10.9403
▁station	-10.941
EP	-10.9422
sets	-10.9424
tween	-10.9426
=2004	-10.9435
kins	-10.9438
ari	-10.9439
eriously	-10.9441
▁(1998	-10.9441
Nan	-10.9442
▁wil	-10.9444
/20160	-10.9447
▁happen	-10.9449
▁drug	-10.9453
▁finish	-10.9454
41	-10.9455
▁origin	-10.9455
▁Even	-10.946
mask	-10.946
▁discuss	-10.9461
unk	-10.9461
rns	-10.9462
▁Rebel	-10.9474
▁Lord	-10.9483
▁Bran	-10.9488
Denni	-10.9488
▁serious	-10.9489
Referenc	-10.9495
RIA	-10.9497
▁reuni	-10.9497
leep	-10.9499
043	-10.9503
SP	-10.9504
▁Perform	-10.9504
tumblr	-10.9504
▁Board	-10.9504
gatsby	-10.9505
oyfriend	-10.9505
FORM	-10.9505
ZswwC	-10.9505
kasdan	-10.9505
springsteen	-10.9505
▁Filoni	-10.9505
Berkeley	-10.9505
EEEEE	-10.9505
blockquote	-10.9505
▁digitiz	-10.9505
▁occasional	-10.9505
▁respectively	-10.9505
▁victims	-10.9505
Chicago	-10.9505
Cosmopolitan	-10.9505
Elizabeth	-10.9505
GRAMMY	-10.9505
Industry	-10.9505
LGBT	-10.9505
Technology	-10.9505
collectible	-10.9505
motocross	-10.9505
▁Aguilera	-10.9505
▁Auerbach	-10.9505
▁Chancellor	-10.9505
▁Gaddis	-10.9505
▁Jailer	-10.9505
▁McDiarmid	-10.9505
▁McQuarrie	-10.9505
▁Robbins	-10.9505
▁Sinatra	-10.9505
▁Springsteen	-10.9505
▁aesthetic	-10.9505
▁audience	-10.9505
▁conflict	-10.9505
▁confront	-10.9505
▁divorce	-10.9505
▁freighter	-10.9505
▁fundamental	-10.9505
▁opportunit	-10.9505
▁parallel	-10.9505
▁percussion	-10.9505
▁photography	-10.9505
▁significant	-10.9505
▁strength	-10.9505
▁synthesizers	-10.9505
▁technique	-10.9505
▁(1977)	-10.9505
▁Museum	-10.9505
mountain	-10.9505
▁Nottingham	-10.9505
▁Pyros	-10.9505
▁consensus	-10.9505
▁struggl	-10.9505
Wookieepedia	-10.9505
▁(1985–1986)	-10.9505
▁conversation	-10.9505
▁favor	-10.9505
▁fucked	-10.9505
▁thousand	-10.9505
Trouble	-10.9505
welcome	-10.9505
▁Annikin	-10.9505
▁departure	-10.9505
▁necessar	-10.9505
▁Points	-10.9505
Derek	-10.9505
Sentinel	-10.9505
eminem	-10.9505
hsoka	-10.9505
lawrence	-10.9505
entertainer	-10.9505
lizzard	-10.9505
▁(1983)	-10.9505
▁Armstrong	-10.9505
LanaDelRey	-10.9505
▁Mishima	-10.9505
Wicket	-10.9505
▁Kinberg	-10.9505
▁echo	-10.9505
/2010/12/	-10.9505
▁Wallace	-10.9505
▁Falcon	-10.9505
▁Hamilton	-10.9505
▁alumni	-10.9505
▁eleven	-10.9505
▁Bradley	-10.9505
craft	-10.9505
Presence	-10.9505
uldoon	-10.9505
farewell	-10.9505
israel	-10.9505
▁expectations	-10.9505
Events	-10.9505
▁drink	-10.9505
Theodor	-10.9505
▁surface	-10.9505
/2011/10/	-10.9505
▁teeth	-10.9505
igwise	-10.9505
jazz	-10.9505
▁Crash	-10.9505
Banyan	-10.9505
cott	-10.9505
▁warriors	-10.9505
▁Newswire	-10.9505
▁Beauty	-10.9505
ollapalooza	-10.9505
holiday	-10.9505
▁Children	-10.9505
▁quick	-10.9505
▁court	-10.9505
▁tension	-10.9505
▁Benioff	-10.9505
▁Graffiti	-10.9505
▁High	-10.9505
-20140716	-10.9505
Primus	-10.9505
▁Ruess	-10.9505
france	-10.9506
▁Henson	-10.9506
length	-10.9506
hadowlocked	-10.9506
▁regard	-10.9506
▁modern	-10.9506
▁shadows	-10.9506
▁tradition	-10.9506
smash	-10.9506
▁Jinn	-10.9506
▁Bummer	-10.9506
▁respect	-10.9506
▁abandon	-10.9506
▁involve	-10.9506
▁half	-10.9506
▁Coleman	-10.9506
▁Greek	-10.9506
/2013/08/	-10.9506
Space	-10.9506
▁bodies	-10.9506
ucket	-10.9506
▁Colour	-10.9506
▁Football	-10.9506
▁Courage	-10.9506
=2007|	-10.9506
▁Wishworld	-10.9506
Gregory	-10.9506
andora	-10.9506
▁Hamill	-10.9507
▁Hartley	-10.9507
/201511	-10.9507
▁Atris	-10.9507
▁acqui	-10.9507
/2003/	-10.9507
quiet	-10.9507
▁construction	-10.9507
▁Byrne	-10.9507
▁substan	-10.9507
Access	-10.9507
▁Baker	-10.9507
GnR	-10.9507
▁Nazi	-10.9507
▁Lloyd	-10.9507
▁twenty	-10.9507
Deadline	-10.9507
Career	-10.9507
▁easy	-10.9507
▁gangst	-10.9507
▁Trump	-10.9508
▁chick	-10.9508
▁step	-10.9508
▁Ltd	-10.9508
parody	-10.9508
Loudwire	-10.9508
▁repris	-10.9508
▁signature	-10.9508
▁Endor	-10.9508
▁Cameo	-10.9508
volume	-10.9509
Aaron	-10.9509
▁price	-10.9509
▁lawyer	-10.9509
stival	-10.9509
drowsy	-10.9509
Sober	-10.9509
AllMusic	-10.9509
▁reception	-10.9509
ultra	-10.951
▁resol	-10.951
Pre	-10.951
TBA	-10.951
▁Collection	-10.951
▁Davies	-10.9511
Lenovo	-10.9511
Natalia	-10.9511
▁terri	-10.9511
▁shut	-10.9511
▁addiction	-10.9511
▁Rather	-10.9512
▁acclaim	-10.9512
▁Shah	-10.9512
▁Burtt	-10.9512
▁Webber	-10.9512
▁Daley	-10.9512
▁Gr	-10.9512
2%	-10.9512
physical	-10.9512
▁powerful	-10.9512
trump	-10.9512
collection	-10.9512
▁disband	-10.9512
▁Hawk	-10.9513
▁(1988)	-10.9513
▁Rogers	-10.9513
Addiction	-10.9513
GQ	-10.9513
/1992/	-10.9513
Org	-10.9514
▁collaborator	-10.9514
wift	-10.9514
value	-10.9515
▁capture	-10.9515
Alien	-10.9515
491	-10.9515
▁Grand	-10.9515
ssential	-10.9515
oudwire	-10.9517
%20	-10.9517
assic	-10.9517
Marty	-10.9517
▁1982	-10.9517
Irvin	-10.9517
-1985-	-10.9517
▁idea	-10.9517
▁increased	-10.9517
indef	-10.9517
▁process	-10.9518
▁nine	-10.9518
Adele	-10.9518
electronic	-10.9518
%3	-10.9519
▁answer	-10.9519
worthy	-10.9519
orphan	-10.9519
Neely	-10.952
Vi	-10.952
Mothership	-10.952
3681	-10.952
ludge	-10.952
▁weak	-10.952
natural	-10.952
▁(2013)	-10.952
Simpson	-10.9521
stayed	-10.9521
▁0-345-4	-10.9521
Telos	-10.9522
celebrities	-10.9523
YT	-10.9523
To	-10.9523
Hutt	-10.9523
▁#2	-10.9523
▁hunter	-10.9523
witz	-10.9523
▁Trick	-10.9523
/0,,20	-10.9524
perry	-10.9524
▁tribe	-10.9524
ympath	-10.9524
Jenni	-10.9524
▁occur	-10.9525
▁Vong	-10.9525
▁host	-10.9525
spears	-10.9527
▁(1993)	-10.9528
ault	-10.9528
theless	-10.9528
attoo	-10.9528
181	-10.9528
Everybody	-10.9528
▁(2007	-10.9528
▁limb	-10.9529
▁upload	-10.953
cities	-10.953
▁Base	-10.953
▁sick	-10.9531
▁Fea	-10.9531
upport	-10.9531
aspx	-10.9532
kick	-10.9532
fett	-10.9533
vatar	-10.9534
/2013080	-10.9534
german	-10.9535
348	-10.9535
▁Bond	-10.9535
ex	-10.9536
▁Setlist	-10.9536
▁Senat	-10.9537
▁Diamond	-10.9537
▁beats	-10.9538
ocialite	-10.9538
▁Spy	-10.954
▁Sessions	-10.9541
▁Chronicles	-10.9541
Alice	-10.9541
▁Brothers	-10.9541
▁Weiss	-10.9541
▁plain	-10.9541
▁Animals	-10.9541
Bouncers	-10.9542
▁skills	-10.9542
Dressellians	-10.9542
▁quest	-10.9542
▁words	-10.9543
aught	-10.9543
▁flap	-10.9544
Filmography	-10.9544
▁Announced	-10.9544
▁2020	-10.9545
▁Ways	-10.9545
defining	-10.9546
▁Hayes	-10.9547
▁sell	-10.9547
Huffington	-10.9547
Arie	-10.9548
chapter	-10.955
VE	-10.955
Action	-10.9552
spring	-10.9552
▁baby	-10.9553
=2009|	-10.9553
Discography	-10.9553
▁anymore	-10.9554
superstar	-10.9554
4901	-10.9555
▁insist	-10.9555
links	-10.9555
MON	-10.9557
blend	-10.9557
▁bound	-10.956
Cart	-10.956
▁Announce	-10.956
▁Never	-10.9561
▁happened	-10.9562
606	-10.9562
-100	-10.9562
▁Lane	-10.9562
▁better	-10.9563
Mega	-10.9566
Huge	-10.9566
▁Fr	-10.9567
▁owner	-10.9569
Ramin	-10.9569
salis	-10.957
▁2016.	-10.9571
▁concern	-10.9575
gon	-10.9576
▁Wood	-10.9578
joe	-10.9578
CG	-10.9579
seemingly	-10.9579
driven	-10.9581
556	-10.9581
/2006	-10.9582
lifestyle	-10.9582
TC	-10.9585
▁player	-10.9585
▁recent	-10.9586
▁venue	-10.9586
▁rename	-10.9586
james	-10.9586
▁tape	-10.9589
▁thick	-10.959
multimedia	-10.9592
awnshop	-10.9595
CDref	-10.9596
|2015|	-10.9596
▁Politic	-10.9598
Woman	-10.9598
VO	-10.9598
ess	-10.9598
▁Quest	-10.9598
▁problems	-10.9601
osario	-10.9601
▁Speaks	-10.9602
▁beginnings	-10.9602
ua	-10.9602
parad	-10.9605
▁China	-10.9605
Style	-10.9605
▁period	-10.9606
▁Bros	-10.9608
▁Ru	-10.9609
▁Ago	-10.961
▁summer	-10.961
common	-10.9611
788	-10.9611
▁Zahn	-10.9612
▁Species	-10.9612
▁royalties	-10.9612
▁INTER	-10.9613
▁instrument	-10.9613
▁Israel	-10.9613
▁Gatsby	-10.9613
▁Desire	-10.9613
▁Tribune	-10.9613
▁Driven	-10.9613
▁Drummer	-10.9613
▁hour	-10.9613
▁Celebrity	-10.9613
▁Phillips	-10.9613
▁Composer	-10.9613
▁canceled	-10.9614
▁Evil	-10.9615
▁Folk	-10.9615
▁Blaster	-10.9615
▁Morgan	-10.9615
▁module	-10.9615
▁Gaga	-10.9616
▁Doyle	-10.9617
|2012}}	-10.9617
▁Musicians	-10.9617
▁partner	-10.9619
onta	-10.9619
dramatic	-10.962
▁Duke	-10.962
▁favorite	-10.9621
▁Gross	-10.9622
▁Nash	-10.9624
lines	-10.9625
aravan	-10.9626
▁festival	-10.9627
▁heard	-10.9627
▁excit	-10.9628
generated	-10.9628
▁Doug	-10.9629
!!!	-10.9633
Kir	-10.9634
woman	-10.9635
▁expect	-10.9636
=83	-10.9637
gi	-10.9638
▁Monster	-10.9638
KS	-10.964
icon	-10.9642
▁Sho	-10.9642
▁sense	-10.9643
▁Wax	-10.9644
▁Ze	-10.9645
▁2005.<	-10.9646
Tonk	-10.9647
1991|	-10.9647
▁Levin	-10.9649
▁Chapter	-10.9651
▁legs	-10.9652
oka	-10.9652
▁Post	-10.9654
/08/	-10.9657
Ellen	-10.9659
▁need	-10.9659
▁Photos	-10.966
bel	-10.9662
iddle	-10.9662
▁drugs	-10.9663
31/	-10.9663
BA	-10.9664
=2005|	-10.9665
▁direction	-10.9665
▁Hay	-10.9666
▁Net	-10.9666
▁contemp	-10.967
280	-10.967
rase	-10.9672
Mauri	-10.9672
▁Myth	-10.9673
-200-	-10.9675
bts	-10.9675
▁feeling	-10.9675
18040	-10.9676
▁Guitars	-10.9677
▁Cool	-10.9678
/201203	-10.9679
ASA	-10.9679
fortune	-10.9681
▁Yu	-10.9681
gun	-10.9682
7767	-10.9685
▁fla	-10.9687
tle	-10.9689
▁Stein	-10.9691
07/11/	-10.9694
7895	-10.9701
▁directing	-10.9704
NCE	-10.9709
struction	-10.9709
hann	-10.971
▁Picture	-10.9712
lang	-10.9714
lack	-10.9717
▁yet	-10.9719
▁(1987)	-10.9723
▁costs	-10.9723
sunday	-10.9723
▁tasks	-10.9727
itz	-10.9729
▁([	-10.9729
▁subtitle	-10.9735
▁meaning	-10.9736
being	-10.9738
mmys	-10.9741
ZA	-10.9742
▁prob	-10.9744
▁h	-10.9744
feed	-10.9746
metals	-10.9749
883/	-10.9751
hall	-10.9751
ography	-10.9753
uition	-10.9755
annica	-10.9756
Por	-10.9758
▁Vel	-10.9764
▁(2006).	-10.9764
talks	-10.9766
▁Harris	-10.977
▁Cros	-10.9771
711/	-10.9774
557	-10.9783
▁Tyler	-10.9784
▁Emperor	-10.9786
▁Elliott	-10.9786
▁Chewbacca	-10.9786
▁Highest	-10.9787
▁Number	-10.9787
▁Barabel	-10.9788
▁platinum	-10.9788
Tony	-10.979
▁Cards	-10.9794
▁1976	-10.9798
▁fear	-10.98
▁Butt	-10.9802
▁border	-10.9803
▁Road	-10.9805
▁Bell	-10.9805
▁Bow	-10.9809
rating	-10.981
▁Barry	-10.981
▁193	-10.9811
otti	-10.9811
▁producers	-10.9812
▁profits	-10.9813
▁Carey	-10.9814
▁wood	-10.9815
uss	-10.9815
Mort	-10.9815
▁heads	-10.9816
Toys	-10.9818
Williams	-10.9819
▁common	-10.982
cle	-10.982
)#	-10.9824
▁Hand	-10.9825
Coury	-10.9827
epic	-10.983
▁sw	-10.9832
legend	-10.9833
▁strip	-10.9836
0,	-10.9837
▁k	-10.984
2627	-10.9844
/2016030	-10.9849
▁keyboards	-10.9851
▁Rocky	-10.9852
AP	-10.9856
Emil	-10.9858
Philipp	-10.986
blogs	-10.9861
Pri	-10.9861
▁credits	-10.9862
ades	-10.9863
▁ground	-10.9863
▁trad	-10.9868
▁Lead	-10.9869
▁2013.	-10.987
6/	-10.9874
/23	-10.9875
ster	-10.9876
ID	-10.9878
viole	-10.9878
Fer	-10.988
▁FI	-10.9892
aliens	-10.9895
▁soundtracks	-10.9901
chill	-10.9901
editions	-10.9901
cultural	-10.9904
endrick	-10.9904
▁Guitar	-10.9905
)===	-10.9909
Buen	-10.9911
6&	-10.9913
▁errors	-10.9914
05080	-10.9914
▁Does	-10.9917
▁Sciences	-10.9917
autism	-10.9921
3?	-10.9926
▁Cry	-10.9928
▁sit	-10.993
&#	-10.9932
urge	-10.9936
=37	-10.9937
25	-10.9937
AS	-10.9941
throw	-10.9941
Jacques	-10.9943
▁Ross	-10.9944
▁general	-10.9948
rickell	-10.9951
▁Dun	-10.9952
awson	-10.9954
appa	-10.9956
▁flu	-10.9957
ustic	-10.996
▁icon	-10.9961
▁Thomas	-10.9962
▁Douglas	-10.9963
▁Sound	-10.9967
anchor	-10.997
Herb	-10.9971
▁194	-10.9971
▁Warner	-10.9975
▁Manson	-10.9977
cur	-10.9985
29/	-10.9989
ishlist	-10.999
▁Look	-10.9991
edge	-10.9991
pre	-10.9995
influenced	-11
▁Christi	-11.0002
hk	-11.0005
▁Influences	-11.0006
▁alive	-11.001
ered	-11.001
ington	-11.0015
▁map	-11.0016
1732	-11.0018
lsen	-11.0027
witch	-11.0028
▁Sage	-11.0053
00	-11.0054
videos	-11.0059
conference	-11.0062
slot	-11.0063
▁ball	-11.0063
▁Singer	-11.0065
▁Du	-11.0067
▁Zi	-11.0067
▁ears	-11.0069
▁believe	-11.0071
▁Sta	-11.0081
mega	-11.0083
Zac	-11.0091
dies	-11.0091
▁wants	-11.01
▁Merc	-11.01
stic	-11.01
▁thin	-11.0102
▁Hale	-11.0103
▁fir	-11.0104
Multi	-11.0105
▁spell	-11.0106
lands	-11.011
>(	-11.0113
ontactmusic	-11.0117
/2010/	-11.0118
billy	-11.0121
39	-11.0127
-->	-11.0128
▁culture	-11.0129
▁Mary	-11.0135
▁incident	-11.0137
blow	-11.0138
Antoni	-11.0138
nthology	-11.014
MT	-11.0144
ater	-11.0147
▁impos	-11.0148
arlowe	-11.0153
ibbons	-11.0158
▁Kat	-11.016
vis	-11.0162
▁Sha	-11.017
668	-11.0174
-20111	-11.0184
shtml	-11.0185
240	-11.0196
▁Kurt	-11.0198
med	-11.0209
▁visi	-11.0219
mn	-11.0219
36/	-11.0229
Rod	-11.0233
▁draw	-11.0234
/201410	-11.0234
▁absen	-11.0235
▁beca	-11.0239
tha	-11.0242
ga	-11.0247
dream	-11.0247
▁sca	-11.0249
706/	-11.025
▁Every	-11.025
▁Ham	-11.0253
steve	-11.026
180	-11.0265
34.	-11.0269
alogue	-11.027
▁refer	-11.027
▁lines	-11.0273
uel	-11.0274
▁distan	-11.0274
car	-11.0278
▁refus	-11.0278
dating	-11.0279
▁opera	-11.028
▁3)	-11.0282
▁Horses	-11.0288
▁Plac	-11.0298
Ra	-11.0306
▁geek	-11.0311
jam	-11.0314
CHA	-11.0317
▁YouTube	-11.0317
▁Alexander	-11.0321
mark	-11.0326
▁Howard	-11.0328
abba	-11.0342
▁recordings	-11.0344
Kent	-11.0346
PU	-11.0346
Bul	-11.0347
treat	-11.0357
tsuko	-11.0366
FU	-11.037
hrones	-11.0374
▁2006.<	-11.038
gb	-11.0381
ures	-11.0381
▁canon	-11.0382
owed	-11.04
bob	-11.041
wise	-11.0413
905	-11.0414
eight	-11.0419
mit	-11.0423
tation	-11.0428
▁80	-11.0442
▁boss	-11.0462
])	-11.0463
ets	-11.0468
Kirk	-11.0472
6-	-11.0474
1988	-11.0479
▁episodes	-11.0479
▁brands	-11.0483
ories	-11.0492
LEA	-11.0493
Eloms	-11.0495
646	-11.0495
▁Airpla	-11.0496
▁Welcome	-11.0496
ay	-11.05
/2016	-11.0501
iv	-11.0502
railblazer	-11.0505
lash	-11.0509
Walt	-11.0513
ozo	-11.0515
saw	-11.0515
▁Schu	-11.0518
▁Su	-11.0521
00,000	-11.0523
▁van	-11.0528
▁Finn	-11.0539
/10/	-11.0541
▁tak	-11.0548
/2012/06/	-11.055
▁1997|	-11.0551
▁Men	-11.0553
▁multi	-11.0554
anger	-11.0555
mb	-11.0562
44	-11.0562
▁event	-11.0575
▁banne	-11.058
▁Ei	-11.0582
fman	-11.0585
▁Yo	-11.0588
▁extr	-11.0591
▁st	-11.0591
▁2005|	-11.0594
reissues	-11.0594
▁certifi	-11.0596
20120203	-11.06
ely	-11.061
hrough	-11.061
ssica	-11.0616
Cy	-11.0616
▁Friend	-11.0631
▁VI	-11.0638
ches	-11.0643
▁Q	-11.0651
cal	-11.0653
eyonce	-11.0662
Top	-11.0667
▁Steve	-11.0675
/2014	-11.0682
▁mouth	-11.0686
▁flo	-11.0697
▁2006.	-11.0701
ae	-11.0701
▁guitars	-11.0709
482	-11.0736
apanese	-11.0751
▁Pet	-11.0761
2015-	-11.0767
des	-11.0777
/1991/	-11.0784
▁Rome	-11.0786
lord	-11.0789
96	-11.079
2014	-11.0793
sic	-11.0794
436	-11.0794
ani	-11.0799
]])	-11.0813
parodies	-11.0822
donates	-11.0829
ue	-11.0833
06/	-11.0836
Shadows	-11.0837
png	-11.084
Gera	-11.0842
▁[[20	-11.0845
/17	-11.0846
touring	-11.0849
Legends	-11.0854
Feel	-11.0854
▁populari	-11.0861
sessions	-11.0866
▁Ot	-11.0869
9-28	-11.0882
▁caus	-11.0886
pul	-11.0895
ric	-11.09
484	-11.091
ece	-11.0911
ull	-11.0914
934	-11.0915
ributors	-11.0925
▁movies	-11.0926
qM	-11.0929
▁prov	-11.094
▁sam	-11.0947
▁Rich	-11.0956
▁Want	-11.0958
erner	-11.0959
LE	-11.0963
▁ways	-11.0966
▁passe	-11.0969
0-	-11.0988
vel	-11.1001
Cr	-11.101
Stormtrooper	-11.1011
rademarkia	-11.1018
▁kid	-11.1032
Korn	-11.1036
▁Tom	-11.1058
▁Bat	-11.1074
=1992	-11.1077
nkar	-11.1089
-8|	-11.1092
erate	-11.1097
ach	-11.1097
▁topic	-11.1108
tato	-11.111
▁picture	-11.1111
▁Tra	-11.113
pinner	-11.1138
380	-11.1154
▁remove	-11.1159
webarchive	-11.1165
ady	-11.1166
▁Hard	-11.1175
ception	-11.118
Isa	-11.1184
▁Frank	-11.1186
-20	-11.1194
-198	-11.12
eek	-11.1205
9/	-11.1214
ature	-11.1221
iver	-11.1224
-2018-	-11.1227
▁Gi	-11.1231
58	-11.1232
/20080	-11.1238
writing	-11.124
▁ob	-11.1258
abl	-11.1266
lly	-11.1271
/20120	-11.1271
/2007	-11.1282
fore	-11.1282
cording	-11.1282
/201705	-11.1293
nda	-11.1298
▁fe	-11.1299
429	-11.1301
ected	-11.1305
ander	-11.1309
=196	-11.1313
▁basi	-11.1317
145	-11.1328
▁(1991–	-11.1328
▁Uni	-11.1333
6630	-11.1343
Par	-11.1348
▁(19	-11.1356
gh	-11.1361
preced	-11.1371
msn	-11.138
nge	-11.1386
▁Honor	-11.1403
Masa	-11.1406
▁Angel	-11.1408
met	-11.1413
▁fa	-11.1414
▁bands	-11.1417
134	-11.1426
sion	-11.1426
lect	-11.1427
4-	-11.1431
84-	-11.1437
Ad	-11.1439
light	-11.1441
▁DeBe	-11.1444
Fry	-11.1461
=978-1-4	-11.1464
rge	-11.1468
▁Mel	-11.1469
nquisitr	-11.1478
__	-11.1479
released	-11.1482
leaves	-11.1486
▁actress	-11.1498
474	-11.15
124	-11.1502
gnron	-11.1505
gar	-11.1519
Ru	-11.152
▁vision	-11.154
Key	-11.1552
▁ei	-11.1571
ayed	-11.1574
Head	-11.1575
▁Sto	-11.1579
▁PA	-11.158
erry	-11.158
erence	-11.1585
2"/>	-11.1605
▁Alli	-11.1607
ilot	-11.1632
ited	-11.1662
1/24/	-11.1662
atsu	-11.1666
iscuss	-11.1669
rh	-11.168
AK	-11.1686
onate	-11.1698
gu	-11.1703
ook	-11.1718
nger	-11.1718
ang	-11.1719
)''	-11.1728
▁language	-11.1728
▁send	-11.1733
On	-11.1737
Du	-11.1741
lton	-11.1756
pinks	-11.1761
Laur	-11.1769
igs	-11.177
▁Chris	-11.1772
223	-11.1775
lead	-11.1777
OL	-11.1784
mme	-11.1795
ide	-11.1799
▁End	-11.1803
posts	-11.1805
aked	-11.1813
yn	-11.1814
▁beg	-11.1827
lade	-11.1831
▁dir	-11.1832
ana	-11.1833
310	-11.1839
onstant	-11.1849
▁beginn	-11.1862
▁rem	-11.1863
rought	-11.1874
▁str	-11.188
Ex	-11.1884
▁Ri	-11.1894
los	-11.1894
_7	-11.1899
27	-11.1903
ON	-11.1904
▁align	-11.1912
294	-11.1948
▁Gro	-11.1962
Card	-11.1977
udge	-11.1979
▁tru	-11.1996
2007022	-11.2001
=2015	-11.2001
/1	-11.2006
▁Satur	-11.2016
▁tours	-11.2023
eck	-11.2028
elli	-11.2037
▁Cha	-11.2046
ction	-11.2053
ini	-11.2059
Artists	-11.206
oper	-11.2071
▁App	-11.2076
bu	-11.208
76/	-11.2086
▁Honeymoon	-11.2095
gged	-11.2101
▁rec	-11.2104
olitical	-11.2112
nspira	-11.2115
ph	-11.2122
hart	-11.2128
ci	-11.2129
ove	-11.2136
ecent	-11.2143
▁document	-11.2146
▁composer	-11.2183
▁boun	-11.2189
1993|	-11.2191
536/	-11.2198
track	-11.2203
08/	-11.2213
hird	-11.223
Mam	-11.2241
▁mis	-11.2248
newly	-11.2253
▁ca	-11.2255
847	-11.2255
zen	-11.2267
▁Stol	-11.2282
1}}	-11.2291
word	-11.2291
ls	-11.2295
Graph	-11.2298
bal	-11.2301
▁authorlink	-11.2303
gative	-11.2308
ost	-11.2318
▁Brian	-11.2331
▁Dad	-11.2337
▁Va	-11.235
▁Amp	-11.2357
2012|	-11.2368
▁Luc	-11.2368
276	-11.2373
▁Temp	-11.2374
Offici	-11.2379
Gar	-11.2382
▁inspiration	-11.2389
=18	-11.2395
2">{{	-11.2398
ect	-11.24
guard	-11.2402
asco	-11.2436
2251	-11.2437
▁Sing	-11.245
▁Na	-11.2464
ease	-11.2467
alo	-11.2476
▁man	-11.2492
yez	-11.2496
/2014/0	-11.2497
531	-11.2498
types	-11.2499
ecker	-11.2505
TS	-11.2506
▁negotiate	-11.2517
emastered	-11.2529
▁Jane	-11.2545
Ga	-11.255
▁Fe	-11.2553
nch	-11.2555
▁assassin	-11.2559
▁Mil	-11.2577
▁Associat	-11.2581
▁Carn	-11.2583
150	-11.2585
▁Joe	-11.2596
oncert	-11.2613
/2008	-11.2623
245	-11.2647
▁addi	-11.2666
880	-11.2667
ses	-11.2668
▁bass	-11.2669
Fuck	-11.2671
▁Kar	-11.2675
▁myst	-11.2683
▁styles	-11.2687
▁product	-11.2693
oya	-11.2696
oo	-11.2706
666	-11.2707
Qui	-11.2707
▁debu	-11.2721
oa	-11.2721
47	-11.2734
har	-11.2739
ss	-11.2758
▁Ki	-11.2766
▁ticket	-11.2769
atic	-11.2769
▁channel	-11.2775
llowed	-11.2782
voiced	-11.2783
▁whe	-11.2787
ona	-11.2793
▁FOR	-11.2795
sun	-11.2798
RO	-11.2803
▁ret	-11.2808
xt	-11.2809
307	-11.2813
aul	-11.2819
ultural	-11.2821
ublic	-11.2822
developing	-11.2829
ory	-11.2833
▁none	-11.2858
Move	-11.2865
Exte	-11.287
/201406	-11.2871
eased	-11.2877
ellen	-11.2893
▁Cart	-11.2896
nake	-11.292
nn	-11.2921
▁uses	-11.2923
▁Gam	-11.2932
331	-11.2943
▁Anders	-11.2952
▁impr	-11.2955
Kyl	-11.2961
Mik	-11.2967
/2012/06/2	-11.3002
1138	-11.3003
.|	-11.3009
get	-11.3025
rocke	-11.303
▁2012}}	-11.3051
desp	-11.3053
bl	-11.3062
▁reissue	-11.3078
gra	-11.308
rain	-11.3125
ando	-11.3126
iant	-11.313
▁confirm	-11.3137
She	-11.314
ambl	-11.314
COM	-11.3143
aland	-11.3155
hab	-11.3159
▁wind	-11.3168
tal	-11.3174
▁Fai	-11.3181
bis	-11.3192
Andr	-11.3199
▁eye	-11.3203
ub	-11.3212
Bu	-11.3225
anoi	-11.3226
sent	-11.3228
Grammys	-11.3246
Ha	-11.3246
|2010	-11.3251
485	-11.3271
biographical	-11.3294
dec	-11.3296
ker	-11.3301
ildest	-11.3301
ped	-11.3308
▁2014.	-11.3309
ibuted	-11.3315
▁eat	-11.3322
moon	-11.3325
▁Shan	-11.334
ound	-11.3346
1226	-11.3359
collaborations	-11.3359
607	-11.336
racklist	-11.3373
ign	-11.3386
evo	-11.3394
504	-11.3406
sch	-11.3408
Nat	-11.3418
wski	-11.3419
▁fourt	-11.3421
▁Col	-11.3423
-1202	-11.3432
1999	-11.345
▁/	-11.3451
ina	-11.3455
▁ro	-11.3457
promo	-11.346
TI	-11.3468
>''	-11.3482
Art	-11.3492
▁30-	-11.3498
▁marke	-11.3505
TM	-11.3506
▁Ana	-11.3513
)|''	-11.3524
fer	-11.3528
jona	-11.3538
▁attr	-11.354
799	-11.3542
aps	-11.3545
▁Fat	-11.355
count	-11.3557
4|	-11.3561
leads	-11.3579
▁Fa	-11.3581
Anton	-11.3585
Rob	-11.3587
eath	-11.3588
not	-11.3602
▁Date	-11.3607
direct	-11.3616
rio	-11.362
▁tell	-11.3624
1985	-11.3625
ports	-11.3632
uri	-11.3632
▁Con	-11.3649
Prome	-11.3671
pted	-11.369
981	-11.369
▁relate	-11.3693
ographic	-11.3697
det	-11.3701
mmy	-11.3711
▁45	-11.3721
▁dist	-11.3722
10/	-11.3731
Gra	-11.3733
reme	-11.3733
2329	-11.3738
speak	-11.3756
franchise	-11.376
cast	-11.3761
▁artistic	-11.3762
AM	-11.3763
idth	-11.3771
master	-11.3772
Man	-11.378
583	-11.3782
959	-11.3786
drama	-11.38
hard	-11.3803
onist	-11.381
foot	-11.3815
parkl	-11.382
▁Brick	-11.3822
Illusion	-11.3825
▁Prince	-11.384
Intern	-11.3842
|200	-11.3851
shape	-11.3852
bra	-11.3858
fact	-11.3861
▁remaster	-11.387
do	-11.3871
formed	-11.3874
ima	-11.3876
influence	-11.3888
spell	-11.3889
Start	-11.3896
mother	-11.3898
tune	-11.3903
Buck	-11.3905
Kings	-11.3907
Nich	-11.3909
Screen	-11.3914
honor	-11.3917
sions	-11.3918
channel	-11.3922
Scien	-11.3922
919	-11.3923
si	-11.3926
general	-11.3926
▁Ta	-11.3935
0|	-11.3937
score	-11.394
ished	-11.3942
Burn	-11.3964
droid	-11.3968
2005|	-11.397
▁Andr	-11.3975
6-0	-11.3987
▁trip	-11.3989
option	-11.399
Che	-11.3996
utism	-11.4005
42/	-11.4012
Come	-11.4014
ritual	-11.4016
Track	-11.4017
include	-11.4018
muel	-11.4023
Universal	-11.4024
Lightsaber	-11.4025
Buckethead	-11.4025
Kenneth	-11.4026
Margaret	-11.4026
Twitter	-11.4026
Stewart	-11.4026
Geonosi	-11.4026
marriage	-11.4027
Duncan	-11.4027
Jakku	-11.4028
Blood	-11.4028
Niven	-11.4028
IC	-11.4029
differences	-11.4029
Voice	-11.403
Brooks	-11.4031
Saturday	-11.4031
Mortis	-11.4032
press	-11.4034
VIII	-11.4036
grand	-11.4037
NPR	-11.4038
Finn	-11.4041
Russ	-11.4042
▁Da	-11.4043
script	-11.4046
black	-11.4047
raise	-11.4048
White	-11.4048
product	-11.4049
label	-11.405
Tr	-11.4052
▁Edi	-11.4052
Luke	-11.4054
863	-11.4054
border	-11.4054
imate	-11.4058
Barabel	-11.4059
Collect	-11.406
ball	-11.4061
Chewbacca	-11.4061
/11/	-11.4061
Vol	-11.4062
Highest	-11.4062
Emperor	-11.4062
Number	-11.4063
Van	-11.4064
vocals	-11.4065
credits	-11.4066
Tyler	-11.4067
Influences	-11.4067
Justi	-11.4069
build	-11.4069
platinum	-11.407
learn	-11.4071
Personal	-11.4072
Road	-11.4072
When	-11.4074
Media	-11.4075
sexuality	-11.4075
also	-11.4076
Play	-11.4076
above	-11.4076
Director	-11.4077
battle	-11.4077
Future	-11.4078
Television	-11.4079
▁earl	-11.4079
Barry	-11.4079
Chaos	-11.4079
below	-11.408
Dreams	-11.4082
reunion	-11.4085
pu	-11.4085
Kasdan	-11.4086
Magazine	-11.4086
Elliott	-11.4086
humanoid	-11.4086
industry	-11.4087
Fortus	-11.4087
Web	-11.4087
secret	-11.4088
Heav	-11.4088
campaign	-11.4089
Smith	-11.409
Droids	-11.409
future	-11.4091
Yoda	-11.4091
task	-11.4093
Truth	-11.4094
Miller	-11.4095
genre	-11.4096
changed	-11.4096
▁Hol	-11.4096
exclusive	-11.4097
Harris	-11.4097
tial	-11.4098
Davis	-11.4098
ged	-11.4098
hearing	-11.41
Some	-11.4102
premiere	-11.4104
."|	-11.4106
▁doi	-11.4107
annual	-11.4107
Carey	-11.4107
awa	-11.4108
5-0	-11.4108
money	-11.4112
publishing	-11.4112
Late	-11.4116
▁ban	-11.4119
good	-11.412
another	-11.4123
Over	-11.4126
diting	-11.4127
canon	-11.4129
▁la	-11.413
Name	-11.413
Bio	-11.4133
produced	-11.4135
point	-11.4137
final	-11.4138
659	-11.4142
64	-11.4144
Hot	-11.4144
past	-11.4147
join	-11.4153
Jones	-11.4153
Birth	-11.4156
25.	-11.4158
find	-11.416
'')	-11.416
month	-11.4162
Ford	-11.4164
Hall	-11.4164
IV	-11.4167
Paw	-11.4168
Dead	-11.4171
order	-11.4177
▁Earl	-11.4182
completed	-11.4186
Notes	-11.419
Role	-11.419
aying	-11.4192
End	-11.4193
escape	-11.4195
female	-11.4196
Gold	-11.4197
0445	-11.4198
9171	-11.4202
Fuckin	-11.4206
▁hope	-11.4208
etty	-11.4211
vent	-11.4215
▁Ga	-11.4218
rick	-11.4219
▁unc	-11.422
2668	-11.4221
Nie	-11.4223
heat	-11.4231
Arts	-11.4246
bass	-11.4247
Count	-11.4247
single	-11.4247
ru	-11.4247
fall	-11.4248
ashi	-11.4252
cinema	-11.4253
moto	-11.4264
ersen	-11.4268
seriously	-11.4268
▁blo	-11.4269
/2012/0	-11.4271
]]}}	-11.4276
Hart	-11.4277
200809	-11.4278
Every	-11.4285
still	-11.4286
Cry	-11.4288
1961	-11.429
Ut	-11.429
2002|	-11.4298
Dashades	-11.4299
Musician	-11.4304
role	-11.4306
▁Ever	-11.4308
14-	-11.4308
Ak	-11.4311
sue	-11.4316
ES	-11.4317
Rosen	-11.4319
▁car	-11.4322
nstein	-11.4323
▁Thro	-11.4325
Div	-11.4331
▁piece	-11.4335
▁result	-11.4335
▁Brook	-11.4342
▁manufacturer	-11.4348
Lee	-11.4354
ris	-11.4356
▁problem	-11.4359
Won	-11.4368
Fran	-11.4373
Hammer	-11.4378
due	-11.4381
▁reissu	-11.4383
▁receiv	-11.4391
52|	-11.4393
-12	-11.4393
nnie	-11.4396
starwar	-11.44
niel	-11.4403
LLE	-11.4406
loud	-11.441
ille	-11.4414
corporate	-11.4416
▁beginning	-11.4418
Wish	-11.4419
'';	-11.4419
▁Call	-11.4419
▁Pass	-11.4419
cient	-11.4422
/95	-11.4426
stars	-11.4426
▁rac	-11.4427
Kit	-11.4427
2/|	-11.4428
▁buil	-11.4432
''|	-11.4434
tches	-11.4435
EGO	-11.4443
played	-11.4445
389	-11.4447
Ar	-11.4449
ries	-11.4451
tis	-11.4452
▁Kahn	-11.4453
59|	-11.4455
▁Hid	-11.4455
67/	-11.4455
spoken	-11.4456
terling	-11.4457
rk	-11.4458
India	-11.4459
617	-11.446
▁respon	-11.446
▁futur	-11.4462
▁walk	-11.4462
inger	-11.4462
ritten	-11.4464
Bi	-11.4465
bli	-11.4466
▁Glob	-11.4466
inking	-11.4467
into	-11.4469
Dimi	-11.4472
▁occu	-11.4474
▁teach	-11.4477
52/	-11.4477
▁oppos	-11.4478
▁Direct	-11.4479
ennedys	-11.448
lternative	-11.4481
nam	-11.4482
▁announc	-11.4483
▁figure	-11.4486
ugarm	-11.4487
tarkiller	-11.4488
8040	-11.4488
1997)	-11.4488
die	-11.449
pping	-11.4491
latinum	-11.4493
worth	-11.4496
▁respond	-11.4497
ddresses	-11.4497
ushfire	-11.4498
graphic	-11.4498
brams	-11.4498
welve	-11.4499
tradlin	-11.4499
▁spirit	-11.45
exclusi	-11.45
laborate	-11.45
atabase	-11.45
▁Independ	-11.45
ennox	-11.4502
▁difficult	-11.4503
aleficent	-11.4503
-201407	-11.4504
/2012120	-11.4504
–2006	-11.4504
2105452-2	-11.4504
/1100-64	-11.4504
=2018-0	-11.4504
77743585	-11.4504
85890995	-11.4504
battling	-11.4504
courant	-11.4505
plicate	-11.4505
-2019/|	-11.4505
-37-1207109|	-11.4505
/01/17/	-11.4505
482237|	-11.4505
mascara	-11.4505
naheim	-11.4505
ncredible	-11.4505
rucify	-11.4505
sheepish	-11.4505
society	-11.4505
▁'87–'93	-11.4505
-16729651|	-11.4505
sledgehammer	-11.4505
summary	-11.4505
elieve	-11.4505
tribune	-11.4505
=0-312-2	-11.4505
Duswalt	-11.4505
Kallis	-11.4505
RollingStone	-11.4505
Slovak	-11.4505
embodi	-11.4505
▁Service	-11.4505
Lindsay	-11.4505
0600877	-11.4505
Praxis	-11.4505
etalholic	-11.4505
riceratops	-11.4505
▁Confedera	-11.4505
▁Spencer	-11.4505
▁bankrupt	-11.4505
Deconstruction	-11.4505
SpongeBob	-11.4505
▁Destiny	-11.4505
▁Deutsch	-11.4505
▁Osamu	-11.4505
▁Plutt	-11.4505
▁culminat	-11.4505
▁professional	-11.4505
▁reinvigorat	-11.4505
▁volunteer	-11.4505
-287145|	-11.4505
-883997|	-11.4505
/21593264|	-11.4505
/60879|	-11.4505
/72098|	-11.4505
1988-06-01	-11.4505
31657	-11.4505
38427	-11.4505
=20%|'''	-11.4505
=978-0-06-1	-11.4505
Argentina	-11.4505
Armageddon	-11.4505
BOGGLE	-11.4505
Bangalore	-11.4505
Bunduki	-11.4505
CLUSI	-11.4505
Catacombs	-11.4505
Evita	-11.4505
Lolita	-11.4505
Madagascar	-11.4505
Picayune	-11.4505
PinkVideoVault	-11.4505
Rollerball	-11.4505
SDCC	-11.4505
Sunshine	-11.4505
Telegraph	-11.4505
Teruzane	-11.4505
Troubadour	-11.4505
Zabrak	-11.4505
asterpieces	-11.4505
microseries	-11.4505
piazza	-11.4505
recognition	-11.4505
tabloid	-11.4505
tardiness	-11.4505
|0-553-2979	-11.4505
▁51(78)	-11.4505
▁Araujo	-11.4505
▁Blondes	-11.4505
▁Brackett	-11.4505
▁Choice	-11.4505
▁Describ	-11.4505
▁Differences	-11.4505
▁Florida	-11.4505
▁Gervais	-11.4505
▁Jamieson	-11.4505
▁Kraemer	-11.4505
▁Kurosawa	-11.4505
▁Mandalorians	-11.4505
▁Michigan	-11.4505
▁Mountain	-11.4505
▁Ogata	-11.4505
▁Pritchard	-11.4505
▁Program	-11.4505
▁Sebatyne	-11.4505
▁Shapiro	-11.4505
▁Smurfs	-11.4505
▁Sniper	-11.4505
▁Squadron	-11.4505
▁Together	-11.4505
▁Wylde	-11.4505
▁accuracy	-11.4505
▁activist	-11.4505
▁advertising	-11.4505
▁ancestry	-11.4505
▁authentic	-11.4505
▁champion	-11.4505
▁circu	-11.4505
▁crawl	-11.4505
▁dismiss	-11.4505
▁eclectic	-11.4505
▁enjoy	-11.4505
▁mammal	-11.4505
▁manifest	-11.4505
▁murdered	-11.4505
▁overwhelming	-11.4505
▁rehearsal	-11.4505
▁reservation	-11.4505
▁security	-11.4505
▁siblings	-11.4505
▁smuggler	-11.4505
▁timbre	-11.4505
▁trilogies	-11.4505
▁wrinkle	-11.4505
CKY	-11.4505
Italian	-11.4505
Mascot	-11.4505
▁Arundel	-11.4505
▁Beatles	-11.4505
▁Schroeder	-11.4505
▁celebrate	-11.4505
celebrity	-11.4505
evenodd	-11.4505
navbar	-11.4505
▁(2011–2012)	-11.4505
▁(2013–2014)	-11.4505
▁Hamada	-11.4505
▁Kershner	-11.4505
▁Radcliffe	-11.4505
▁Tekka	-11.4505
▁Thrills	-11.4505
▁Yowza	-11.4505
▁crisis	-11.4505
▁nickname	-11.4505
▁ridicul	-11.4505
▁routine	-11.4505
▁technical	-11.4505
Cincinnati	-11.4505
Dignity	-11.4505
Ghost	-11.4505
IGHT	-11.4505
Milwauk	-11.4505
Rancid	-11.4505
Recovery	-11.4505
Society	-11.4505
Urkupp	-11.4505
mockumentar	-11.4505
▁(2001–	-11.4505
▁Arndt	-11.4505
▁Hirsch	-11.4505
▁volcan	-11.4505
Rufus	-11.4505
reastfeed	-11.4505
▁(1978)	-11.4505
▁Katarn	-11.4505
▁Rouge	-11.4505
▁conscious	-11.4505
▁humor	-11.4505
▁choice	-11.4505
▁harness	-11.4505
Weeble	-11.4505
▁Bradshaw	-11.4505
▁Cronin	-11.4505
▁Dumont	-11.4505
▁Fraser	-11.4505
▁Sadness	-11.4505
▁Sargent	-11.4505
▁Sidious	-11.4505
raiths	-11.4505
▁(2001)	-11.4505
▁Organa	-11.4505
▁Regard	-11.4505
Corellia	-11.4505
bourne	-11.4505
explore	-11.4505
▁ranges	-11.4505
ndustrial	-11.4505
▁Mackay	-11.4505
▁Whills	-11.4505
5%|'''	-11.4505
=2017-11-28|	-11.4505
=978-0-306-82	-11.4505
Description	-11.4505
Fallen	-11.4505
hilosophy	-11.4505
▁(1996)	-11.4505
▁govern	-11.4505
▁sponsor	-11.4505
-201511	-11.4505
▁Expect	-11.4505
▁brief	-11.4505
▁fierce	-11.4505
▁negotiations	-11.4505
▁swamp	-11.4505
▁Forgot	-11.4505
baugh	-11.4505
opinion	-11.4505
▁Windu	-11.4505
▁morning	-11.4505
Okej	-11.4505
▁Walden	-11.4505
▁impact	-11.4505
Exchange	-11.4505
▁Continu	-11.4505
▁activate	-11.4505
Fortune	-11.4505
Trakin	-11.4505
campus	-11.4505
▁Reissues	-11.4505
-3418|	-11.4505
/19504338|	-11.4505
/2016/11/2	-11.4505
/201604171554	-11.4505
JAMES	-11.4505
communism	-11.4505
residency	-11.4505
▁Collectible	-11.4505
BROWN	-11.4505
▁huge	-11.4505
complicated	-11.4505
|112|	-11.4505
▁paperback	-11.4505
▁Kondo	-11.4505
Connor	-11.4505
autogenerated	-11.4505
▁Maiden	-11.4505
▁Mantia	-11.4505
▁Plaza	-11.4505
▁Robinson	-11.4505
▁Truman	-11.4505
Dominik	-11.4505
Sulon	-11.4505
reasure	-11.4505
Schmidt	-11.4505
idiomag	-11.4505
▁Rabin	-11.4505
▁Sheppard	-11.4505
▁Spears	-11.4505
▁prepar	-11.4505
/2011/04/	-11.4505
Wisconsin	-11.4505
▁McCann	-11.4505
xperiment	-11.4505
Malastare	-11.4505
onservati	-11.4505
▁supervis	-11.4505
▁(2000)	-11.4505
Clue	-11.4505
Wendy	-11.4505
▁adult	-11.4505
othique	-11.4505
roadway	-11.4505
▁Mahal	-11.4505
▁indulge	-11.4505
/20151224	-11.4505
/2016/07/	-11.4505
3714|	-11.4505
▁supplies	-11.4505
Walk	-11.4505
▁theatrical	-11.4505
▁Skinner	-11.4505
▁questions	-11.4505
Junior	-11.4505
nchez	-11.4505
▁Fenton	-11.4505
Tesla	-11.4505
izmodo	-11.4505
telegraph	-11.4505
spectacles	-11.4505
▁important	-11.4505
▁Rapid	-11.4505
ghost	-11.4505
▁Frutti	-11.4505
▁Sofia	-11.4505
LoveShow	-11.4505
▁Towns	-11.4505
▁Angola	-11.4505
▁Zomb	-11.4505
Teedo	-11.4505
▁Palmer	-11.4505
Ruusan	-11.4505
-20130404	-11.4505
/61979|	-11.4505
969589	-11.4505
=978-0-97	-11.4505
false	-11.4505
▁Holmes	-11.4505
▁Zinn	-11.4505
ppropriat	-11.4505
▁Federation	-11.4505
▁famili	-11.4505
Toshi	-11.4506
▁settings	-11.4506
Moscow	-11.4506
Graham	-11.4506
-20151119	-11.4506
=2017-03-0	-11.4506
Anita	-11.4506
Dominic	-11.4506
Todd	-11.4506
slide	-11.4506
Gibson	-11.4506
definitiv	-11.4506
▁(2019)	-11.4506
▁Hilburn	-11.4506
▁Exile	-11.4506
▁Countries	-11.4506
▁ensemble	-11.4506
/2017071	-11.4506
▁Gersh	-11.4506
bbreviat	-11.4506
–1999)	-11.4506
zquez	-11.4506
-09-27	-11.4506
lusiv	-11.4506
▁convention	-11.4506
▁Bush	-11.4506
▁Shape	-11.4506
▁basically	-11.4506
PLAY	-11.4506
aylor	-11.4506
henomen	-11.4506
▁slavery	-11.4506
4-4|	-11.4506
▁Mancin	-11.4506
mulesing	-11.4506
▁couple	-11.4506
/20130605	-11.4506
/2014011	-11.4506
CNN	-11.4506
tlantic	-11.4506
Raygun	-11.4506
▁historian	-11.4506
belowclass	-11.4506
=97811	-11.4506
aboveclass	-11.4506
Crystal	-11.4506
=2018-03-	-11.4506
eremony	-11.4506
/2015/09/	-11.4506
=443|	-11.4506
▁Pollock	-11.4506
▁apparent	-11.4506
▁reptil	-11.4506
intellect	-11.4506
▁preschool	-11.4506
3524	-11.4506
Bigsby	-11.4506
innovation	-11.4506
belowstyle	-11.4506
▁Peppers	-11.4506
abovestyle	-11.4506
=978-1-84	-11.4506
21-25	-11.4506
▁Timberlake	-11.4506
▁Butler	-11.4506
/2013/04/	-11.4506
70927	-11.4506
▁Imagination	-11.4506
▁Nightsister	-11.4506
representative	-11.4507
-140|	-11.4507
▁Villa	-11.4507
=978-0-312-	-11.4507
Darren	-11.4507
▁Glennie	-11.4507
▁dedicat	-11.4507
antiMusic	-11.4507
▁Kura	-11.4507
Alphie	-11.4507
▁Races	-11.4507
-68709|	-11.4507
▁Altman	-11.4507
bodyclass	-11.4507
▁difficulties	-11.4507
Leah	-11.4507
Willman	-11.4507
-1978	-11.4507
=2006|	-11.4507
▁Fried	-11.4507
▁Powell	-11.4507
▁Spring	-11.4507
▁competi	-11.4507
billion	-11.4507
▁Nominations	-11.4507
bserver	-11.4507
-146-	-11.4507
bodystyle	-11.4507
Gnr	-11.4507
▁confuse	-11.4507
Cloud	-11.4507
▁Gunning	-11.4507
▁Handmaiden	-11.4508
orchestrat	-11.4508
▁Playthings	-11.4508
▁Madden	-11.4508
=2000|	-11.4508
▁Brianna	-11.4508
▁analys	-11.4508
▁prompt	-11.4508
▁(2011)	-11.4508
▁Vo	-11.4508
Jaws	-11.4508
judge	-11.4508
▁Favreau	-11.4508
caramanica	-11.4508
▁Arena	-11.4508
▁Cinematography	-11.4508
CBS	-11.4508
1947	-11.4508
Merchandising	-11.4508
shirt	-11.4508
psychedelic	-11.4508
Phoenixville	-11.4508
Kesha	-11.4508
▁Meyers	-11.4508
Junko	-11.4508
▁Arkeen	-11.4508
Glen	-11.4508
▁Join	-11.4508
Partridge	-11.4508
▁attack	-11.4508
▁daughter	-11.4508
Rihanna	-11.4508
Yuki	-11.4508
Stick	-11.4509
▁System	-11.4509
▁Million	-11.4509
IGN	-11.4509
Dudley	-11.4509
▁Webb	-11.4509
brass	-11.4509
▁Robot	-11.4509
▁exile	-11.4509
▁Peterson	-11.4509
▁Secretary	-11.4509
▁Countdown	-11.4509
▁connect	-11.4509
eezer	-11.4509
▁Independent	-11.4509
▁Stock	-11.4509
Belgi	-11.4509
LAND	-11.4509
▁Appeal	-11.4509
▁Henley	-11.451
▁Boardman	-11.451
2014–201	-11.451
Barney	-11.451
1253	-11.451
▁Asteroid	-11.451
glam	-11.451
Salon	-11.451
▁Poul	-11.451
536	-11.451
▁Twelve	-11.451
▁iPad	-11.451
▁Misty	-11.451
spiritual	-11.451
▁Monkey	-11.451
Much	-11.451
▁Katz	-11.451
▁riot	-11.451
▁durable	-11.451
14024	-11.451
Horowitz	-11.451
ffair	-11.451
loyd	-11.451
integra	-11.451
▁Yoko	-11.4511
▁breakup	-11.4511
▁(2012–	-11.4511
▁(2008–2014)	-11.4511
▁(1953	-11.4511
▁approach	-11.4511
=0-812	-11.4511
▁Aires	-11.4511
▁Sanders	-11.4511
▁Colombo	-11.4511
▁04:	-11.4511
boycott	-11.4511
▁Myself	-11.4511
Far	-11.4511
▁Rubi	-11.4511
▁tails	-11.4511
Colin	-11.4512
Tele	-11.4512
rrives	-11.4512
Amanin	-11.4512
mooth	-11.4512
Anx	-11.4512
/20180	-11.4512
guchi	-11.4512
▁movements	-11.4512
motherhood	-11.4512
▁Eisle	-11.4512
1457	-11.4512
▁heroin	-11.4512
▁(1987–	-11.4512
itude	-11.4512
▁wander	-11.4513
esbian	-11.4513
▁Whyte	-11.4513
cfm	-11.4513
▁McKen	-11.4513
-712	-11.4514
Ethan	-11.4514
▁wedding	-11.4514
Blow	-11.4514
▁1928	-11.4514
▁myself	-11.4514
apocalyptic	-11.4514
▁immediately	-11.4514
Greenwood	-11.4514
Totally	-11.4514
▁Roast	-11.4514
Nobu	-11.4515
▁survive	-11.4515
/1989/	-11.4515
>(1985–199	-11.4515
▁broad	-11.4515
▁stocky	-11.4515
acrimony	-11.4515
birds	-11.4515
▁possibility	-11.4515
Laurent	-11.4515
▁parenthe	-11.4516
Tracy	-11.4516
knowledge	-11.4516
▁(2002–200	-11.4516
antimusic	-11.4517
Bendu	-11.4517
▁Personality	-11.4517
82852	-11.4517
▁Dawson	-11.4517
▁Dragon	-11.4518
▁Present	-11.4518
30180	-11.4518
▁(2004)	-11.4518
▁rebellion	-11.4518
Zolan	-11.4518
▁orbit	-11.4519
▁marsh	-11.4519
hometown	-11.4519
▁Storey	-11.4519
▁Defini	-11.4519
▁communi	-11.4519
▁minutes	-11.4519
slant	-11.4519
Sylv	-11.4519
▁SON	-11.452
-2016/|	-11.452
▁Gym	-11.452
CGI	-11.452
Magic	-11.452
aughter	-11.452
golden	-11.452
Beginning	-11.452
/2012021	-11.452
Wonder	-11.4521
residence	-11.4521
enbach	-11.4521
▁explo	-11.4521
▁1979)	-11.4521
=84	-11.4521
Roxy	-11.4522
dynamite	-11.4522
53|	-11.4522
▁Drug	-11.4522
▁Makers	-11.4522
▁amount	-11.4522
Kidscreen	-11.4522
▁merc	-11.4522
▁Wiig	-11.4522
▁Superstar	-11.4523
▁emerged	-11.4523
mile	-11.4523
▁Brut	-11.4523
olatile	-11.4523
oviefone	-11.4523
Troy	-11.4524
Granderson	-11.4524
RIAA	-11.4524
Knox	-11.4524
engineer	-11.4525
▁cancelled	-11.4525
▁guy	-11.4525
▁Feat	-11.4525
▁worried	-11.4525
▁Gray	-11.4526
▁incredible	-11.4526
manufacturing	-11.4526
▁pick	-11.4526
▁Wilton	-11.4526
-25-	-11.4527
▁Idol	-11.4528
12.	-11.4528
4060	-11.4528
2012"/>	-11.4528
Swans	-11.4528
ME	-11.4528
uxury	-11.4529
▁virtu	-11.4529
▁assembl	-11.453
|29}}	-11.453
298	-11.453
fucking	-11.453
▁Carver	-11.453
tter	-11.453
shift	-11.453
▁Illi	-11.453
=136	-11.4531
1354	-11.4531
▁property	-11.4531
AGE	-11.4531
Noah	-11.4531
▁Speak	-11.4531
zza	-11.4532
celebration	-11.4532
5_1_	-11.4532
illiams	-11.4532
▁profitable	-11.4533
▁Political	-11.4533
▁jok	-11.4534
rotn	-11.4534
AND	-11.4535
merch	-11.4535
▁Morri	-11.4535
CA	-11.4535
ccount	-11.4535
-12-07	-11.4535
▁(2015	-11.4536
▁Joint	-11.4536
▁lining	-11.4536
eekmom	-11.4536
▁Lock	-11.4536
orary	-11.4537
▁Rica	-11.4537
▁dancer	-11.4538
63	-11.4538
▁push	-11.4539
▁Fink	-11.4539
groupstyle	-11.4539
▁Water	-11.4539
/200808	-11.4539
▁footnote	-11.4539
listclass	-11.4539
Off	-11.454
2,000	-11.454
▁(2016)	-11.454
olas	-11.4541
shaw	-11.4541
lliott	-11.4541
|1985|	-11.4541
▁deriv	-11.4541
ilver	-11.4542
arenthe	-11.4542
olph	-11.4542
Argazdan	-11.4542
iffin	-11.4542
▁Production	-11.4542
004	-11.4543
oggle	-11.4543
▁composition	-11.4544
knight	-11.4544
▁Hair	-11.4544
%22	-11.4544
Celegian	-11.4544
Blake	-11.4544
Pukkelpop	-11.4544
weekend	-11.4545
234	-11.4545
▁feats	-11.4545
▁alma	-11.4545
▁Japan	-11.4546
headset	-11.4546
liststyle	-11.4546
trailer	-11.4547
groupwidth	-11.4548
▁paper	-11.4548
▁fish	-11.4548
riaa	-11.4549
cgi	-11.4549
barricade	-11.4549
Tours	-11.4549
▁Culture	-11.455
-131	-11.455
▁real	-11.455
▁reside	-11.4551
▁share	-11.4553
/162	-11.4554
▁Recording	-11.4554
party	-11.4554
▁instruct	-11.4555
Brain	-11.4555
vacu	-11.4555
▁Associates	-11.4556
match	-11.4556
semble	-11.4556
feat	-11.4556
3004	-11.4557
accountancy	-11.4557
idence	-11.4557
manson	-11.4557
▁Kahne	-11.4557
-1993	-11.4558
Santa	-11.4558
/21|	-11.4558
▁Sept	-11.4559
=1987	-11.456
▁Worm	-11.456
▁princess	-11.456
507	-11.4562
▁overall	-11.4562
949	-11.4562
/72	-11.4563
▁mix	-11.4564
▁Devil	-11.4564
▁Urb	-11.4565
]]/[[	-11.4565
▁imagery	-11.4565
▁McC	-11.4565
JJ	-11.4565
▁Erd	-11.4566
▁(1984	-11.4566
blockbuster	-11.4567
crash	-11.4567
▁Wells	-11.4568
▁Gris	-11.4568
Sk	-11.4568
tub	-11.4569
▁emphasis	-11.4569
/20170628	-11.4569
▁arrangements	-11.4569
▁2009-12-	-11.4569
ovich	-11.457
walt	-11.457
▁Light	-11.457
Dathomirians	-11.4571
▁Lakes	-11.4572
▁Areas	-11.4572
Basic	-11.4574
Rosenberg	-11.4574
▁(1980)	-11.4576
▁tang	-11.4576
mean	-11.4577
Trust	-11.4577
–65	-11.4577
utti	-11.4578
rig	-11.4578
EMA	-11.458
revived	-11.458
▁Addi	-11.4581
hanna	-11.4581
TOC	-11.4581
▁teaching	-11.4582
Wheel	-11.4582
▁Nicks	-11.4582
gua	-11.4583
Jonas	-11.4584
gren	-11.4585
▁Perf	-11.4585
357	-11.4585
3.0	-11.4586
ival	-11.4586
▁Infl	-11.4586
▁Learn	-11.4587
rror	-11.4588
syfy	-11.4588
0455	-11.4588
▁Chap	-11.4589
20040	-11.4591
UC	-11.4592
idnight	-11.4593
01/	-11.4594
5284	-11.4595
▁admir	-11.4595
PER	-11.4596
-2000-	-11.4596
9}}<	-11.4596
▁Watt	-11.4597
221|	-11.4597
▁Simp	-11.4597
xton	-11.4598
▁Saba	-11.46
7-9|	-11.4601
everal	-11.4602
▁Tech	-11.4603
nmasked	-11.4603
7130	-11.4605
9-1	-11.4605
Clinton	-11.4605
▁''[	-11.4606
▁tough	-11.4606
▁Bren	-11.4606
Better	-11.4606
exterminat	-11.4607
▁conv	-11.4609
Format	-11.461
▁fighters	-11.4611
Awesome	-11.4611
Sterling	-11.4611
/64	-11.4612
{{{	-11.4615
fur	-11.4615
▁Writer	-11.4615
_19	-11.4616
elekinesis	-11.4617
ugged	-11.4617
symp	-11.4617
LB	-11.4618
Manufacturers	-11.4618
▁motor	-11.4619
094	-11.462
▁Oz	-11.462
Lily	-11.462
▁Source	-11.4621
▁shock	-11.4622
Gears	-11.4624
0914	-11.4625
▁(2003)	-11.4625
▁Leak	-11.4625
1995–	-11.4626
▁Barr	-11.4626
:10.	-11.4627
Dazed	-11.4627
670	-11.4628
-2095	-11.463
igne	-11.463
=2010|	-11.463
▁replace	-11.4634
temporar	-11.4635
▁discover	-11.4635
59/	-11.4635
Tami	-11.4636
InStyle	-11.4636
▁Spill	-11.4636
▁astro	-11.4637
Arnau	-11.4638
▁proce	-11.4638
ntifeminism	-11.4641
▁1995.	-11.4642
5142	-11.4642
▁Dyk	-11.4643
▁Cath	-11.4643
▁possible	-11.4646
Read	-11.4646
▁Shot	-11.4647
!"	-11.4647
/10-	-11.4649
_161	-11.4649
cord	-11.465
ears	-11.465
=38|	-11.4652
▁Dino	-11.4654
Naok	-11.4655
▁filmmaker	-11.4655
▁basic	-11.4655
026	-11.4656
pinoff	-11.4657
nervously	-11.466
=30|	-11.466
15}}	-11.4661
omplex	-11.4663
▁green	-11.4663
ays	-11.4664
Christi	-11.4666
▁minds	-11.4666
1906	-11.4666
Lyn	-11.4668
oudmouth	-11.4668
Harvey	-11.4671
▁Chil	-11.4671
▁demon	-11.4673
▁Berlin	-11.4674
▁results	-11.4677
INE	-11.4677
▁Recordings	-11.4678
▁pieces	-11.4678
mbling	-11.4678
▁manufacturers	-11.4679
▁Dragons	-11.4679
OT	-11.468
▁Ech	-11.4681
Songwriter	-11.4681
▁(1998)	-11.4681
▁Imme	-11.4683
-24	-11.4683
Seal	-11.4683
tual	-11.4684
ushed	-11.4684
/2/|	-11.4686
▁Mean	-11.4686
assword	-11.4686
exter	-11.4688
▁Glam	-11.469
▁advertised	-11.4691
ohn	-11.4691
▁front	-11.4692
▁elephant	-11.4693
▁Gen	-11.4693
▁Devaron	-11.4694
▁TIME	-11.4694
▁desert	-11.4694
▁eighteen	-11.4694
▁sue	-11.4694
▁flashy	-11.4695
▁budget	-11.4695
▁Stuart	-11.4695
▁Gordon	-11.4695
▁Dagobah	-11.4695
▁Business	-11.4696
▁Weekend	-11.4696
▁McCarthy	-11.4696
▁Montgomery	-11.4696
▁Gazette	-11.4696
▁Henderson	-11.4696
▁Minute	-11.4696
▁Godfather	-11.4697
rops	-11.4697
▁journey	-11.4697
▁Animation	-11.4697
▁Surprise	-11.4698
2318	-11.4699
PHO	-11.4701
/27	-11.4701
▁ABC	-11.4701
▁Advocate	-11.4702
▁Kick	-11.4703
▁Alp	-11.4703
▁Cooper	-11.4704
▁illusion	-11.4704
▁family	-11.4704
ATE	-11.4705
ugmented	-11.4705
▁Kelly	-11.4706
▁Treat	-11.4707
▁Brand	-11.4707
▁Greg	-11.4707
▁Denning	-11.4708
▁Punk	-11.4709
/201409	-11.471
▁service	-11.471
inces	-11.4711
-200|	-11.4712
▁food	-11.4713
▁airplay	-11.4713
283	-11.4713
ously	-11.4715
▁Sugar	-11.4715
vement	-11.4717
▁Harrison	-11.4717
hive	-11.4717
bigger	-11.4718
Manh	-11.4718
Protection	-11.4719
▁Finished	-11.4719
social	-11.472
▁trag	-11.4722
Olivi	-11.4722
▁Inside	-11.4726
▁propert	-11.4732
▁feminist	-11.4732
Bespin	-11.4734
POP	-11.4738
▁Monte	-11.4738
8&	-11.4739
bbcom	-11.4739
▁Part	-11.474
▁dress	-11.4741
▁school	-11.4742
-01-199	-11.4747
tereogum	-11.4748
Carter	-11.4748
▁im	-11.4751
▁dance	-11.4751
▁walking	-11.4752
moth	-11.4752
hihara	-11.4753
▁guards	-11.4754
▁Indian	-11.4754
corporated	-11.4755
-05	-11.4755
fem	-11.4755
346	-11.4755
|201	-11.4757
▁Glu	-11.4758
▁except	-11.4758
256	-11.4759
MET	-11.476
Dana	-11.476
loria	-11.4761
▁doesn	-11.4762
Ta	-11.4763
▁Ada	-11.4766
ransformation	-11.4766
Sp	-11.4768
▁196	-11.4769
unleash	-11.4773
?"''	-11.4773
Canada	-11.4773
hand	-11.4774
mystery	-11.4774
Vel	-11.4775
ertification	-11.4776
Slogan	-11.4778
682	-11.4778
0402	-11.4778
musical	-11.4779
16000	-11.478
zon	-11.478
▁Build	-11.478
quarte	-11.4783
▁slee	-11.4784
▁Holy	-11.4786
gles	-11.4786
▁Knows	-11.4789
lucasf	-11.479
▁#3	-11.479
▁remained	-11.479
▁Powers	-11.4791
knowle	-11.4791
▁Hori	-11.4791
PT	-11.4794
Hel	-11.4794
Alva	-11.4795
▁Frost	-11.4795
867	-11.4797
▁intend	-11.4798
vana	-11.48
▁miss	-11.48
dmiral	-11.4801
iped	-11.4802
ding	-11.4804
scher	-11.4807
▁Ax	-11.4807
grap	-11.4809
yet	-11.4809
pending	-11.4811
vived	-11.4812
week	-11.4814
▁Hunt	-11.4814
=37|	-11.4818
▁selecti	-11.4818
▁aunt	-11.4818
mazing	-11.4819
streaming	-11.482
5"	-11.4821
▁Dodger	-11.4822
Juli	-11.4822
▁Logan	-11.4824
redirect	-11.4826
▁Hal	-11.4826
Birther	-11.4827
6523	-11.4827
Instagram	-11.4828
Non	-11.4829
riday	-11.483
=0-52	-11.483
Barton	-11.4831
avid	-11.4832
AF	-11.4833
odgers	-11.4833
ions	-11.4834
▁intell	-11.4834
=17	-11.4835
]]<!--	-11.4838
▁Update	-11.4839
▁Creator	-11.484
Kita	-11.4841
▁Macke	-11.4841
91.	-11.4842
▁Door	-11.4843
ropped	-11.4844
wins	-11.4844
▁Hop	-11.4845
▁Kay	-11.4845
houses	-11.4846
spag	-11.4846
▁interested	-11.4848
independent	-11.4848
-20101	-11.485
▁Thorn	-11.485
07/	-11.4851
-07-	-11.4851
wikia	-11.4855
=1988	-11.4856
stract	-11.4857
ertz	-11.4858
▁power	-11.486
plied	-11.4861
Gardner	-11.4861
▁run	-11.4863
27/	-11.4864
▁Ash	-11.4866
scrapp	-11.4868
2324	-11.487
Mad	-11.4871
▁forc	-11.4871
/2012011	-11.4871
aniel	-11.4872
tory	-11.4872
dra	-11.4873
Studi	-11.4875
▁grand	-11.4875
5/1	-11.4876
353	-11.4878
Eve	-11.4881
▁call	-11.4883
1956	-11.4887
▁(1985	-11.4889
Bg	-11.4889
Hotten	-11.489
vie	-11.4891
eyer	-11.4895
lat	-11.4897
▁cars	-11.4897
und	-11.4898
▁clan	-11.4899
▁pay	-11.4899
eligib	-11.4899
0659	-11.49
▁discussions	-11.4902
biographi	-11.4903
burg	-11.4903
LP	-11.4904
struct	-11.4906
▁colors	-11.4906
Sher	-11.4906
Nels	-11.4907
-2012	-11.4911
offs	-11.4914
▁Mon	-11.4914
mes	-11.4917
Jun	-11.4922
13|	-11.4923
Greene	-11.4926
▁ru	-11.4926
Gian	-11.4928
▁Esh	-11.4929
▁Syd	-11.4935
Dom	-11.4938
Quin	-11.4938
iography	-11.4939
-1	-11.494
xpanded	-11.4941
webcast	-11.4942
▁Vint	-11.4942
Nic	-11.4946
1979–19	-11.4947
ban	-11.4947
▁Wil	-11.4947
▁buy	-11.4948
reality	-11.4948
bies	-11.4949
▁Nail	-11.4951
-6}}	-11.4951
819	-11.4953
▁Ori	-11.4953
Log	-11.4956
Celebr	-11.4958
educ	-11.4958
-03-0	-11.4958
ucks	-11.4959
Yas	-11.4961
▁jam	-11.4967
squa	-11.4972
vi	-11.4972
▁TO	-11.4972
▁18:	-11.4973
0804	-11.4976
Fu	-11.498
enning	-11.4981
-11	-11.4981
ichard	-11.4981
sed	-11.4985
▁guests	-11.4987
Ia	-11.4988
Phon	-11.4988
chord	-11.4991
▁Bio	-11.4992
Pez	-11.4993
confide	-11.4993
Mi	-11.4997
▁Krist	-11.5002
▁002	-11.5002
1979|	-11.5003
DES	-11.5003
▁Voice	-11.5003
▁Blood	-11.5005
dq	-11.5005
▁Duncan	-11.5006
▁Geonosi	-11.5007
▁marriage	-11.5007
▁Stewart	-11.5007
▁Niven	-11.5007
▁Twitter	-11.5007
▁Jakku	-11.5007
▁Margaret	-11.5007
▁black	-11.5008
▁rejoin	-11.5008
▁Buckethead	-11.5008
▁Lightsaber	-11.5008
▁Universal	-11.5009
▁sexuality	-11.5009
▁Wire	-11.5009
▁Shr	-11.501
▁roles	-11.5011
▁Mortis	-11.5011
▁raise	-11.5011
▁Saturday	-11.5012
oachella	-11.5012
ema	-11.5014
▁Kenneth	-11.5014
▁Movies	-11.5015
▁dra	-11.5015
▁White	-11.5017
arning	-11.5017
▁Nur	-11.5018
stat	-11.5019
▁ritual	-11.5019
vegan	-11.5019
1617	-11.5024
313	-11.5024
719|	-11.5025
alley	-11.5026
/20121110	-11.5026
abor	-11.5026
▁NPR	-11.5032
white	-11.5033
88.	-11.5038
=2017-09-2	-11.5039
▁spoken	-11.5046
▁print	-11.5048
▁VIII	-11.5048
edit	-11.5052
=2005-0	-11.5054
▁option	-11.5055
▁hearing	-11.5055
▁Burk	-11.5062
513	-11.5064
▁Pla	-11.5069
dler	-11.507
chann	-11.507
▁Droids	-11.5071
Nico	-11.5072
▁differences	-11.5072
▁Russ	-11.5079
dited	-11.5081
Arti	-11.5082
/0,	-11.5083
Mini	-11.5085
▁Web	-11.5085
hero	-11.5086
5144	-11.5088
▁horn	-11.509
akk	-11.5091
-05-0	-11.5092
2-28	-11.5095
▁soon	-11.5097
Bot	-11.51
Ward	-11.5101
did	-11.5101
810	-11.5102
rell	-11.5102
909	-11.5103
=124	-11.5103
elis	-11.5109
|}	-11.511
▁spot	-11.5112
choo	-11.5113
nnouncement	-11.512
▁Bust	-11.5122
=0|	-11.5122
▁Grus	-11.5127
▁contracts	-11.5128
▁shape	-11.5128
▁Charts	-11.513
▁humanoids	-11.5132
anse	-11.5133
▁appro	-11.5136
▁Mc	-11.5139
Kei	-11.5139
skin	-11.5152
acz	-11.5152
inehouse	-11.5166
▁longe	-11.5169
▁Thing	-11.5169
ress	-11.5176
▁Brooks	-11.5177
▁Hey	-11.5178
57/	-11.518
god	-11.5184
▁assist	-11.5191
▁Kirk	-11.5194
5">{{	-11.5194
▁hear	-11.5197
aga	-11.52
644/	-11.5202
▁Produce	-11.5203
/2015071	-11.5204
LZ	-11.5219
HO	-11.5219
Consid	-11.522
=2014	-11.5222
84}}	-11.5227
induction	-11.523
▁Narr	-11.5232
▁Sand	-11.5234
▁letters	-11.5241
gaming	-11.5241
▁Pipe	-11.5242
SI	-11.5242
▁seasons	-11.5243
▁Melv	-11.5247
2012]]	-11.5249
Outside	-11.5249
uined	-11.5251
retro	-11.5253
''<	-11.5254
▁fin	-11.5258
autobiography	-11.5261
▁ev	-11.5264
emi	-11.5265
▁managers	-11.5267
▁mind	-11.5274
▁German	-11.5275
▁sex	-11.5281
▁Jean	-11.5293
okken	-11.5294
813	-11.5294
▁Cult	-11.5298
NS	-11.5299
▁heat	-11.53
musi	-11.5302
▁Hage	-11.5303
▁Ker	-11.5304
13/	-11.5306
ession	-11.531
roll	-11.531
olloquial	-11.5313
▁master	-11.5313
|}}}}}	-11.5319
▁Risk	-11.5322
▁Eagles	-11.5324
▁novelization	-11.5326
yline	-11.5328
▁anthem	-11.5329
▁Loder	-11.5334
stru	-11.5335
apr	-11.5341
921	-11.5342
imon	-11.5344
27/|	-11.5344
▁names	-11.5346
Aman	-11.5348
Swi	-11.5352
]''	-11.5353
▁Sex	-11.5355
▁charit	-11.5359
iterat	-11.5363
/2018/03/	-11.5367
utc	-11.5368
▁15:	-11.5368
Miki	-11.5369
su	-11.537
ming	-11.5372
arist	-11.5375
remake	-11.5377
/201310	-11.5379
lib	-11.5379
ii	-11.538
Pers	-11.5386
finance	-11.5386
224	-11.5391
▁Wol	-11.5399
▁=[	-11.5399
paint	-11.54
ire	-11.5401
-2015	-11.5414
omi	-11.5417
novel	-11.5419
sen	-11.542
▁Jay	-11.5421
0918	-11.5429
ator	-11.5436
336	-11.5436
▁Jar	-11.5441
1933	-11.5441
233	-11.5449
rnish	-11.5453
apton	-11.5454
▁IN	-11.5454
onkey	-11.5455
ewok	-11.5456
Ci	-11.5458
▁crim	-11.5459
▁ship	-11.546
Dis	-11.5467
▁Justi	-11.5467
attach	-11.5468
▁(1999–200	-11.547
itbox	-11.5476
/201501	-11.5478
▁accu	-11.548
OP	-11.548
246/	-11.5492
civil	-11.5495
fortu	-11.5497
▁Joh	-11.5502
809	-11.5504
lotter	-11.5504
▁stra	-11.5506
nderrated	-11.5506
rockm	-11.5517
blast	-11.5518
▁1974	-11.5526
avo	-11.5529
▁123"	-11.5531
▁Bu	-11.5535
(1990–	-11.5538
▁bat	-11.554
▁Brun	-11.5543
tru	-11.5547
▁Crai	-11.5549
Uc	-11.5565
▁Previ	-11.5568
▁Pre	-11.557
27|	-11.5571
▁Note	-11.5578
nick	-11.5578
iko	-11.5578
ashing	-11.5578
2013	-11.5579
Nt	-11.5583
Scan	-11.5585
IT	-11.5587
▁cert	-11.5593
thal	-11.5596
▁Aid	-11.5599
Wol	-11.5604
2453	-11.5606
▁En	-11.561
▁Ger	-11.5612
/150	-11.5612
175	-11.5619
lish	-11.562
ider	-11.5639
Johan	-11.5641
▁double	-11.5644
257/	-11.5644
▁Ryan	-11.5648
▁Exclusive	-11.5649
▁Aga	-11.5651
Herman	-11.5664
acebook	-11.5673
102	-11.5674
118	-11.5681
Melt	-11.5681
Cli	-11.5684
edi	-11.5685
▁2000|	-11.5689
▁Marg	-11.5694
467	-11.5695
header	-11.5697
/61	-11.5701
Son	-11.5711
▁2011.<	-11.5714
etic	-11.572
lic	-11.5722
▁stead	-11.5722
716	-11.5725
sburg	-11.5728
Starwars	-11.5732
Hung	-11.5734
roposed	-11.5735
▁Make	-11.5737
praises	-11.5745
bushfires	-11.5762
▁pretens	-11.5767
Thanks	-11.5777
Lenn	-11.5781
▁Manufactur	-11.5783
unning	-11.5791
119/	-11.5791
brothers	-11.5791
▁bar	-11.5792
/201404	-11.5793
▁agreement	-11.5794
▁aid	-11.5801
▁1997.	-11.5801
rical	-11.5805
ongue	-11.5807
▁Chat	-11.5808
marked	-11.5809
▁Almo	-11.581
▁comb	-11.5811
edding	-11.5818
15-	-11.5819
llo	-11.5822
unveils	-11.5828
▁Orto	-11.5829
▁super	-11.5833
ility	-11.5839
▁#7	-11.5844
/200712	-11.5845
nstagram	-11.5846
▁Kn	-11.5853
2013|	-11.5859
▁Typical	-11.5861
2003|	-11.5863
▁Stat	-11.5869
▁cla	-11.5872
▁Cont	-11.5876
iles	-11.5878
▁exam	-11.5879
▁Spa	-11.5881
start	-11.5881
aobab	-11.5884
NGE	-11.5886
ylan	-11.5892
irthday	-11.5895
uzz	-11.5902
/20100	-11.5905
Polyg	-11.5906
Julia	-11.5908
▁starts	-11.5908
Krist	-11.5908
YE	-11.5909
balt	-11.5917
nell	-11.5918
▁Festivals	-11.5923
idscreen	-11.5924
once	-11.5925
4956	-11.593
rary	-11.5957
iva	-11.5958
▁2007.	-11.5959
564	-11.5963
omparison	-11.5964
shes	-11.5968
▁Arthur	-11.5969
▁Ford	-11.597
cap	-11.5975
artin	-11.5978
uding	-11.5981
RA	-11.5982
▁Walk	-11.5982
▁Tu	-11.5982
nvites	-11.5984
-2017	-11.5985
..."	-11.5986
dest	-11.5994
eastie	-11.5994
-02|	-11.5998
osen	-11.6
95	-11.6
02114	-11.6009
zy	-11.601
▁oppose	-11.6012
sual	-11.6013
silk	-11.6019
▁Class	-11.602
Sla	-11.602
▁Final	-11.6021
▁Har	-11.6026
358	-11.6035
▁Reviews	-11.6039
cted	-11.604
534	-11.6043
ial	-11.6045
▁clone	-11.6046
topping	-11.6047
▁House	-11.6049
otter	-11.605
ident	-11.6051
▁gross	-11.6063
▁158	-11.6069
ouch	-11.6086
▁Ne	-11.6088
▁RE	-11.6091
ateness	-11.6096
▁define	-11.6097
85/	-11.6103
ya	-11.6104
06-0	-11.6106
▁Johns	-11.6107
▁Subsequent	-11.6109
▁Bon	-11.611
Cri	-11.6114
▁35	-11.6119
▁Carr	-11.612
▁===201	-11.6121
ert	-11.6125
abe	-11.6132
▁test	-11.6134
Earle	-11.6134
ash	-11.6137
As	-11.6139
▁1985.	-11.6141
blaster	-11.6148
jack	-11.6148
▁1977.	-11.6153
▁Kli	-11.6155
2187	-11.6158
tsi	-11.6159
magic	-11.6162
Gr	-11.6163
300	-11.6166
-4	-11.617
▁===''	-11.6176
-6|	-11.6177
TO	-11.6178
emed	-11.6186
tag	-11.6189
70	-11.6197
zine	-11.6202
rmann	-11.6205
/2015/12/1	-11.6208
creativ	-11.6222
Jane	-11.623
▁signs	-11.6235
▁Hobb	-11.624
35|	-11.6255
tats	-11.626
=29	-11.6262
▁21:	-11.6263
/2017/	-11.6264
tta	-11.6267
▁Who	-11.6273
▁region	-11.6273
0543	-11.6282
HA	-11.6283
''')	-11.6289
▁moments	-11.6291
2019	-11.6299
▁Started	-11.6312
rd	-11.6315
=978-0-31	-11.632
▁cr	-11.6321
▁produc	-11.6331
/2015/01/0	-11.6331
volu	-11.6338
▁moon	-11.6339
ache	-11.634
/07/	-11.6343
Theme	-11.6346
▁sea	-11.635
ultan	-11.6356
▁reviewer	-11.6364
/11/20/	-11.6367
alter	-11.6374
▁[[#	-11.6387
▁Us	-11.6396
▁Exter	-11.6397
treaming	-11.64
Francis	-11.6405
Eric	-11.6408
368	-11.6409
broadcast	-11.6409
Communist	-11.641
Prior	-11.6418
Fired	-11.642
{{'	-11.6426
▁creativ	-11.6429
▁Sar	-11.6433
▁bust	-11.6448
mine	-11.6449
tin	-11.6459
oj	-11.6461
=2013	-11.6467
ourney	-11.6472
▁Lei	-11.6472
Mac	-11.6483
▁regi	-11.6483
opf	-11.6485
00/	-11.6491
aturn	-11.6501
▁Silve	-11.6507
0301	-11.651
2005–	-11.6516
▁Alg	-11.6526
/0,,	-11.6527
gue	-11.6529
ral	-11.6531
▁Inst	-11.654
unti	-11.6552
ot	-11.6555
Sevent	-11.6557
mni	-11.6569
▁clu	-11.6574
=175	-11.6585
tar	-11.6585
arly	-11.6585
▁Hear	-11.659
757	-11.6606
▁Eminem	-11.6608
tman	-11.6629
147	-11.663
0208	-11.6644
092	-11.6644
▁Pal	-11.6658
▁Spin	-11.666
2003	-11.6661
=12	-11.6662
▁Won	-11.6666
▁Ah	-11.6672
ustra	-11.6693
ise	-11.6706
045	-11.6708
nate	-11.6709
▁93	-11.6716
ists	-11.6721
ronic	-11.6723
▁ages	-11.6727
eb	-11.6734
stly	-11.6735
▁contr	-11.6748
▁Par	-11.6754
▁communicate	-11.6766
Lad	-11.6774
ura	-11.6777
HE	-11.6793
pc	-11.6794
/20141	-11.6803
▁Bac	-11.681
osed	-11.6812
las	-11.6821
rgin	-11.6826
▁purchas	-11.6834
▁1.	-11.6852
0000	-11.6852
/20150	-11.6855
Chad	-11.6859
songs	-11.6865
gent	-11.687
▁domin	-11.6881
▁Harlin	-11.6894
ombined	-11.6911
alm	-11.6912
let	-11.6917
ecki	-11.6917
ader	-11.6921
ox	-11.6923
|20	-11.6923
irage	-11.6927
81-	-11.693
EC	-11.6931
▁2010.<	-11.6933
999	-11.6933
prove	-11.6934
442	-11.6936
ence	-11.6939
=16	-11.694
ool	-11.6942
10311	-11.6943
116	-11.6957
attempted	-11.6957
▁Lisa	-11.6963
▁Davi	-11.6972
▁Ell	-11.6984
emorable	-11.6998
Whiley	-11.7
Int	-11.7001
5-	-11.7002
histori	-11.7006
▁Franke	-11.701
cker	-11.701
Pe	-11.7016
▁sole	-11.7025
▁Ward	-11.7033
pt	-11.7033
Us	-11.7047
Alli	-11.706
hman	-11.7064
6-8	-11.7065
utz	-11.7079
1430	-11.708
▁inten	-11.7082
assassins	-11.7084
Feder	-11.7085
▁Mu	-11.7088
ups	-11.71
=7	-11.7101
▁predat	-11.7108
▁reference	-11.7109
cons	-11.712
MA	-11.7124
▁forew	-11.7126
files	-11.7136
rawn	-11.7149
-2113	-11.7154
▁penn	-11.7157
▁Lun	-11.7157
/46	-11.7161
▁Em	-11.7162
522/	-11.7164
Jar	-11.7165
/86	-11.7166
fficiel	-11.7167
inspirations	-11.7178
gold	-11.718
insert	-11.7184
▁unders	-11.7201
ldridge	-11.722
▁Mos	-11.7221
▁Mora	-11.7222
251	-11.7225
5&	-11.7227
7020607	-11.7228
946	-11.7245
prophe	-11.7269
rner	-11.7271
2715	-11.7276
▁Chad	-11.7282
hallenges	-11.7301
0-38	-11.7303
elody	-11.7304
▁Cultur	-11.7308
▁scor	-11.731
glob	-11.7311
▁conta	-11.7313
035	-11.7313
ompanion	-11.733
▁fro	-11.7331
channels	-11.7345
mination	-11.7348
▁Seri	-11.735
eg	-11.7367
45|	-11.7369
ollege	-11.7387
Harr	-11.7413
Pin	-11.742
/20140	-11.7426
51210	-11.7444
▁sources	-11.7449
/06/	-11.7459
stormtrooper	-11.7468
▁ap	-11.7469
▁rad	-11.7476
uis	-11.7495
akis	-11.75
Red	-11.7514
▁employe	-11.7529
▁donat	-11.753
▁Hu	-11.7532
ibility	-11.7538
unction	-11.7545
▁pe	-11.7546
onic	-11.7555
458	-11.7558
ves	-11.756
Cav	-11.756
-3-	-11.7561
nfinished	-11.7563
nreleased	-11.7565
135|	-11.7579
inf	-11.7587
90-	-11.7591
▁sight	-11.7595
Sing	-11.7596
asier	-11.7607
promoter	-11.761
/2015/	-11.7612
egi	-11.7635
Whit	-11.764
2000–20	-11.7641
3-4	-11.7646
bon	-11.7667
▁Fre	-11.7668
tated	-11.7676
▁Ran	-11.7677
fast	-11.7696
▁Ang	-11.7697
2122	-11.772
East	-11.7724
ils	-11.7737
eady	-11.7742
sh	-11.7749
▁Arm	-11.7751
▁rej	-11.7756
loser	-11.7778
▁Bara	-11.779
▁spe	-11.7791
rament	-11.7797
▁1990.	-11.7812
0628	-11.782
ola	-11.7829
▁rep	-11.7832
0426	-11.7839
▁Tie	-11.7854
Kon	-11.7861
Mer	-11.7865
▁Fol	-11.7865
73-2	-11.7877
">	-11.788
elled	-11.788
ozen	-11.7885
40	-11.7924
▁Av	-11.7925
▁publishers	-11.7926
▁export	-11.7929
sibility	-11.7938
ples	-11.7948
639	-11.7951
Aust	-11.7951
/50	-11.7953
▁endors	-11.7961
▁Lor	-11.7962
ventually	-11.7963
1042	-11.797
695	-11.7973
02091	-11.7982
KR	-11.7986
▁Kash	-11.7987
amy	-11.7994
menti	-11.7997
mele	-11.8002
inc	-11.8009
roe	-11.8017
▁medi	-11.8023
tenstein	-11.8031
pal	-11.8039
cA	-11.8041
evolver	-11.8053
jo	-11.8068
/201606	-11.8069
9281	-11.8078
718	-11.8082
2)	-11.81
99%	-11.8101
Zel	-11.8116
poi	-11.8117
}}}	-11.8122
414	-11.8123
allies	-11.8125
doll	-11.8126
interviewer	-11.8132
1-59240-377-6	-11.8145
693	-11.816
▁relat	-11.817
Wong	-11.8172
enberg	-11.8187
957	-11.8197
10312	-11.8198
ica	-11.8201
▁Sea	-11.823
▁ultimate	-11.8235
▁compos	-11.824
▁journalis	-11.8244
lation	-11.8248
▁Asi	-11.8258
gal	-11.8272
ack	-11.8279
▁Burn	-11.8306
22-4	-11.8311
Pai	-11.8326
historic	-11.8331
▁los	-11.8331
neck	-11.8333
▁User	-11.8334
=978-	-11.8345
Nor	-11.8358
▁Wee	-11.8364
russ	-11.8367
0574	-11.8375
ivalry	-11.8376
▁sk	-11.8381
paste	-11.8386
relli	-11.8389
▁rival	-11.839
trick	-11.8392
-1.	-11.8394
/201706	-11.8394
▁2008.	-11.8395
lm	-11.8401
▁sens	-11.8421
▁compose	-11.8423
see	-11.8432
Aw	-11.8438
Mah	-11.8441
▁Tip	-11.8443
▁wo	-11.8445
652	-11.8451
–2010)	-11.8469
299	-11.8487
▁Pl	-11.8499
711	-11.8503
nner	-11.8509
lein	-11.8516
ans	-11.8518
arsen	-11.852
pan	-11.8528
gett	-11.8532
ano	-11.8558
▁forth	-11.856
).<	-11.857
1/08/	-11.8573
mw	-11.8575
▁dominan	-11.8578
]]).	-11.8579
▁Wom	-11.8602
aris	-11.8607
▁cal	-11.8618
Dall	-11.8618
2.	-11.8622
ajo	-11.8626
221	-11.8636
offey	-11.8636
mson	-11.865
yth	-11.8655
/62	-11.8657
ze	-11.8659
▁Carl	-11.8665
politic	-11.8674
Cu	-11.8695
/2016062	-11.8701
UR	-11.873
▁myster	-11.8734
member	-11.8743
Do	-11.8746
▁na	-11.8755
▁Tr	-11.8759
lend	-11.877
▁Aik	-11.877
095	-11.8774
eats	-11.8786
▁Mille	-11.8792
Dart	-11.8796
=978-1-	-11.8823
pit	-11.8824
titch	-11.8825
▁Shor	-11.8826
005	-11.8832
Kr	-11.8833
rogat	-11.8836
revolv	-11.8848
onel	-11.8849
rolls	-11.8859
posed	-11.8859
1524	-11.8869
aste	-11.8872
▁Wo	-11.8878
▁Bri	-11.8887
Earl	-11.8889
▁(2006–20	-11.8894
▁Dann	-11.8918
▁Return	-11.8921
65	-11.8925
erious	-11.8928
,0,	-11.8939
ole	-11.8939
ehman	-11.8968
lter	-11.8971
902	-11.898
322	-11.8981
sf	-11.8981
uxe	-11.8988
▁formation	-11.8988
hors	-11.8992
▁Yar	-11.8992
ustin	-11.8994
Amy	-11.9001
coffe	-11.9002
-200	-11.9002
▁endorse	-11.9003
▁Bad	-11.9021
▁Shi	-11.9037
Cal	-11.904
7}}	-11.9063
▁near	-11.9065
Jes	-11.9074
lley	-11.9081
▁Ric	-11.9081
ird	-11.9082
189	-11.9107
humans	-11.9107
receding	-11.9108
▁reveal	-11.9115
lass	-11.9116
ground	-11.9135
Yu	-11.9159
▁Cam	-11.916
▁sc	-11.9164
▁pol	-11.9165
person	-11.918
etting	-11.9186
▁Yuzzum	-11.9188
ends	-11.9189
▁Jonathan	-11.9204
1993)	-11.9213
=|	-11.9232
/2017020	-11.9236
nets	-11.924
}</	-11.9241
hb	-11.9243
8144	-11.9254
▁Cu	-11.9263
▁BAFTA	-11.9267
Stev	-11.9285
EN	-11.9303
gener	-11.9305
69	-11.9315
2018	-11.9318
wind	-11.9324
dden	-11.9347
conc	-11.9357
▁Win	-11.9362
Hisa	-11.9366
070	-11.937
Lo	-11.9375
valle	-11.9389
▁lists	-11.9391
umer	-11.9393
pass	-11.9402
revis	-11.9406
itman	-11.9417
▁Gas	-11.9428
ells	-11.9445
under	-11.9445
▁pl	-11.9454
▁Jim	-11.9459
▁Maria	-11.9474
anther	-11.9474
▁originals	-11.9485
avis	-11.9489
/2	-11.9489
2050	-11.9502
426	-11.9517
can	-11.9522
▁Rosen	-11.9522
886	-11.9554
challeng	-11.9555
hrawn	-11.9556
2014)	-11.9557
Eli	-11.956
-418	-11.9562
AT	-11.9564
▁(1991–199	-11.9569
ations	-11.96
bly	-11.9601
▁remov	-11.9607
Nin	-11.9614
temper	-11.9621
ppel	-11.9652
81	-11.966
Hoth	-11.9664
enstein	-11.9669
▁Mill	-11.9671
facts	-11.9673
pend	-11.9674
265	-11.9675
8)	-11.9676
▁locate	-11.9679
=135	-11.9684
ita	-11.9684
act	-11.969
182	-11.9691
▁Mans	-11.9697
2001|	-11.9699
site	-11.9703
764	-11.9718
282	-11.9719
18|	-11.972
Ger	-11.9727
/2012110	-11.9734
▁comme	-11.9739
09/	-11.9741
28.	-11.9745
▁Cinema	-11.9754
alla	-11.9755
Authors	-11.9758
Tro	-11.9759
md	-11.9769
030/	-11.9774
placed	-11.9781
614	-11.9782
hof	-11.9807
haz	-11.9808
ink	-11.9821
▁comed	-11.9831
Kh	-11.9834
rdell	-11.9837
than	-11.985
▁(1997	-11.9859
▁Pen	-11.9861
1987.	-11.9867
ning	-11.9872
0629	-11.9874
estructive	-11.9886
Bea	-11.9903
ample	-11.9913
▁Bel	-11.9917
Sid	-11.992
orge	-11.9929
tfield	-11.993
tain	-11.993
▁provide	-11.9942
nb	-11.9944
memorab	-11.9945
lett	-11.9965
▁Hef	-11.9968
1998)	-11.999
-288	-11.9993
rage	-11.9996
▁Angelo	-11.9997
arcelo	-11.9997
creat	-12.0018
ope	-12.0021
cert	-12.0023
▁bra	-12.0026
011	-12.0026
DD	-12.0027
lus	-12.0028
chievement	-12.0028
olds	-12.0029
tive	-12.003
nyl	-12.0031
chis	-12.0036
▁critic	-12.0038
uck	-12.004
irkus	-12.0042
iting	-12.0046
08,	-12.0058
▁Kor	-12.0065
▁Cap	-12.0074
03	-12.0074
5=	-12.0106
dala	-12.011
2000	-12.0115
Dr	-12.0131
pin	-12.0133
Stan	-12.0142
Contactmusic	-12.0154
618	-12.0165
/#	-12.0167
#/	-12.0169
▁ra	-12.0171
▁200.	-12.0173
▁session	-12.0188
▁nam	-12.0198
UL	-12.0206
ara	-12.024
▁Shadow	-12.0244
port	-12.0253
rove	-12.0258
▁201	-12.026
▁Legend	-12.0261
ou	-12.0261
/8	-12.0263
rily	-12.0267
▁Bar	-12.0269
▁195	-12.0272
obin	-12.0277
▁parodie	-12.0282
uster	-12.0283
programm	-12.0287
introduces	-12.0298
▁Tours	-12.03
//	-12.0318
?'	-12.0349
roadcasting	-12.0363
▁communicat	-12.0365
06300	-12.0373
ilia	-12.0386
430	-12.0405
988	-12.0411
hat	-12.0429
ylo	-12.0432
Kla	-12.0436
Rei	-12.0448
1,00	-12.046
Bobb	-12.0464
erton	-12.0473
Frederi	-12.0475
rik	-12.0487
▁reg	-12.0495
rbe	-12.0512
ER	-12.0521
care	-12.0524
zum	-12.0525
reaming	-12.0527
mell	-12.0529
2017	-12.0531
rated	-12.0531
▁Cop	-12.0531
506	-12.0549
Pad	-12.0582
▁Jank	-12.0592
wards	-12.0611
293	-12.0613
NL	-12.0614
tober	-12.0617
AR	-12.0619
▁Burne	-12.0632
▁Real	-12.0639
76	-12.0653
▁ar	-12.0666
▁Wilde	-12.0667
ale	-12.0675
Wilk	-12.0677
visit	-12.068
bc	-12.0681
▁Hav	-12.0697
gest	-12.07
▁Bla	-12.071
Shad	-12.071
llege	-12.0722
trap	-12.0723
Ph	-12.0729
div	-12.0729
Silver	-12.074
064	-12.0743
enet	-12.0743
▁Kan	-12.0748
▁fl	-12.0767
Nov	-12.0772
31}}	-12.078
evie	-12.0787
writers	-12.0818
/201702	-12.0849
▁notes	-12.0859
partial	-12.0862
arries	-12.0877
mmer	-12.0884
▁bid	-12.0888
fant	-12.0898
▁Franc	-12.0909
itt	-12.0913
gen	-12.0917
▁(195	-12.0918
▁Fel	-12.0933
Alleg	-12.0935
▁CE	-12.094
▁Tro	-12.0941
ucasfilm	-12.0947
trailblaz	-12.0952
lab	-12.0952
eir	-12.0957
ore	-12.0962
nish	-12.0962
ene	-12.0976
etween	-12.0993
=978-0-3	-12.0995
▁spen	-12.1008
▁Ski	-12.1035
obbit	-12.1047
1636	-12.1056
Ter	-12.1063
nnad	-12.1084
710	-12.1084
tro	-12.1087
sin	-12.1094
ties	-12.1096
▁cop	-12.1097
lum	-12.1107
Good	-12.1117
bau	-12.1117
Sav	-12.1126
/0,,2	-12.1126
fm	-12.1129
▁yes	-12.1142
▁recap	-12.1143
ks	-12.1144
vol	-12.1146
kes	-12.1155
▁tra	-12.1174
86/	-12.118
-1991	-12.119
6052	-12.1194
WI	-12.1203
=195	-12.1211
014	-12.1231
Wyn	-12.1237
727	-12.1243
-16	-12.1246
enburg	-12.125
ains	-12.1275
62	-12.1275
▁Thi	-12.1278
earns	-12.1296
stri	-12.1296
iere	-12.1297
llett	-12.1313
▁90	-12.1324
ilby	-12.1339
▁PS	-12.1343
▁3|	-12.1345
ichter	-12.1346
luxe	-12.1349
Hei	-12.1351
oba	-12.1375
2-0	-12.1395
/12/24/	-12.1398
▁Bour	-12.1403
qual	-12.1431
=1991	-12.1437
▁Rece	-12.1441
tivity	-12.1448
South	-12.1462
▁sh	-12.1476
/1991	-12.1479
▁Paul	-12.148
▁oppo	-12.1481
vote	-12.1483
135	-12.1488
▁differ	-12.15
▁Mus	-12.1506
graphy	-12.1512
-2014	-12.1528
clai	-12.1538
▁Natsu	-12.1542
Ste	-12.1548
2527	-12.1552
kie	-12.1559
ertical	-12.1572
83	-12.1581
4331	-12.1589
02-	-12.1593
owski	-12.16
Cultur	-12.1603
▁MA	-12.1604
ctor	-12.1611
!'	-12.1619
|1990]]	-12.1624
irs	-12.1637
270	-12.1637
appears	-12.1643
▁vo	-12.165
ards	-12.1651
rich	-12.1659
/20171	-12.1662
ux	-12.167
419	-12.167
Karl	-12.1671
fferson	-12.1685
/2007120	-12.1691
focus	-12.1699
▁va	-12.1706
olygon	-12.1723
ron	-12.1733
▁tale	-12.1736
▁inspir	-12.1744
loff	-12.175
wyn	-12.1763
region	-12.1775
Lind	-12.1777
raz	-12.1782
Clau	-12.1792
ock	-12.1804
ypically	-12.1806
Iris	-12.1808
areas	-12.1809
▁brother	-12.1822
ased	-12.1836
etfield	-12.1852
▁bushfire	-12.1856
stell	-12.1861
▁praise	-12.1878
▁Category	-12.1887
▁Thank	-12.1892
/12/16/	-12.1895
eaked	-12.1895
olver	-12.1904
92	-12.1907
▁Prime	-12.191
▁Gra	-12.1924
▁Reve	-12.1931
hly	-12.1938
beast	-12.1946
ights	-12.1946
aum	-12.1949
hc	-12.1952
▁Sou	-12.1958
4/05/	-12.1977
▁licens	-12.1979
ass	-12.1984
▁gi	-12.1994
reat	-12.2027
▁Arme	-12.203
TL	-12.2044
cl	-12.2049
eA	-12.2054
Bands	-12.2066
Anni	-12.2068
027	-12.2069
6204	-12.2085
143	-12.2089
▁collaborati	-12.2102
▁operati	-12.2107
orn	-12.2111
▁stop	-12.213
erchandising	-12.213
Member	-12.2138
Chr	-12.2138
1979	-12.2163
zo	-12.2167
2129	-12.2169
cu	-12.2186
▁Ag	-12.2201
▁boo	-12.2212
tsun	-12.222
dney	-12.222
1221	-12.2228
▁unveil	-12.2234
▁2.	-12.2234
▁indi	-12.2249
836	-12.225
falls	-12.2254
Mal	-12.226
ob	-12.2265
▁—	-12.2271
-11-20	-12.2274
▁merchandise	-12.2276
]]'':	-12.2282
▁Cla	-12.2291
easie	-12.2298
▁dial	-12.2318
8}}<	-12.2322
▁23	-12.2327
eadline	-12.2332
Nel	-12.2337
195	-12.2337
maker	-12.235
-1|	-12.2376
04/	-12.2384
Will	-12.2387
ctually	-12.2397
ET	-12.2411
▁exce	-12.2422
▁Si	-12.2423
8.	-12.2428
0607	-12.2429
versee	-12.2438
ase	-12.2438
▁star	-12.2439
rtis	-12.2452
▁acc	-12.246
nitially	-12.2465
Fi	-12.2473
ids	-12.2476
–2005)	-12.2483
0323	-12.2489
ribution	-12.2503
10/04	-12.2509
thu	-12.2513
214	-12.2527
▁Pru	-12.253
ached	-12.2534
TG	-12.2538
▁123	-12.255
▁Rel	-12.2569
nts	-12.2571
nder	-12.2571
/2018/03/0	-12.2577
unt	-12.2585
chris	-12.2592
1703	-12.2601
2002	-12.2611
rv	-12.2612
▁financ	-12.2631
erg	-12.2634
▁Peter	-12.2635
egan	-12.2639
▁(1999	-12.2652
je	-12.2659
rac	-12.2666
-30	-12.2684
arily	-12.2686
was	-12.2687
0901	-12.2728
▁fam	-12.2728
-2011	-12.2732
oko	-12.2733
▁bon	-12.2739
pps	-12.2742
295	-12.275
2032	-12.2752
verted	-12.276
658	-12.2767
hara	-12.2767
school	-12.2776
riet	-12.2777
▁Prom	-12.278
▁styli	-12.2787
Chi	-12.2801
pollo	-12.2802
Laure	-12.2806
▁voic	-12.2814
ivity	-12.2827
Ky	-12.283
cra	-12.2837
8-8	-12.2839
term	-12.2839
4776	-12.284
95|	-12.2842
/20170	-12.2845
str	-12.2857
wire	-12.289
=1999	-12.2894
▁Ry	-12.2898
Bri	-12.2898
/201507	-12.2904
card	-12.2918
1017	-12.2942
▁Ni	-12.2944
ato	-12.2953
03020	-12.2963
nchor	-12.2966
ev	-12.2981
823/	-12.2986
873-	-12.2991
TRA	-12.2994
▁expand	-12.2996
bes	-12.3
arth	-12.3007
▁fre	-12.3028
121	-12.303
ngu	-12.3032
▁alien	-12.3032
Kris	-12.304
arned	-12.304
Gus	-12.304
▁Att	-12.3049
locked	-12.3049
-2017-	-12.3052
Seven	-12.3067
▁0	-12.3067
9/1	-12.3069
acc	-12.3074
arret	-12.3079
Sha	-12.3111
/198	-12.3127
324	-12.3141
169	-12.3145
obab	-12.3147
Hit	-12.3151
duction	-12.3153
▁Cour	-12.3156
/1429	-12.3162
▁1992.	-12.317
255	-12.3174
Lib	-12.3175
don	-12.3182
pped	-12.3192
Anti	-12.3198
/08	-12.3199
▁ba	-12.3208
11-	-12.3216
lit	-12.322
eekly	-12.3243
Wam	-12.3246
rot	-12.3251
▁radi	-12.3254
Spo	-12.3259
nor	-12.3271
addition	-12.328
047	-12.329
Hu	-12.3294
Angelo	-12.3297
1)	-12.3303
rrows	-12.3303
▁Bant	-12.3303
cond	-12.3305
▁wor	-12.3307
johns	-12.3308
utobiography	-12.331
oring	-12.3312
▁Hir	-12.3314
ltern	-12.3316
egrouping	-12.332
▁Expan	-12.3321
DG	-12.3321
hicke	-12.3325
67	-12.3346
ohnston	-12.3356
00112	-12.3356
worm	-12.3358
ital	-12.3366
register	-12.338
amag	-12.3386
raw	-12.3386
policy	-12.3387
atches	-12.3393
Hi	-12.3394
dis	-12.3394
641	-12.3395
asy	-12.341
Shir	-12.3417
att	-12.3429
nners	-12.3431
bach	-12.3437
▁exten	-12.3447
▁Jacque	-12.3452
orb	-12.346
▁Appe	-12.3461
▁rose	-12.3468
uts	-12.3471
fun	-12.3484
rrupt	-12.3488
▁Ge	-12.3491
appear	-12.3492
opens	-12.3496
-27	-12.3502
▁Kno	-12.3503
87)	-12.3505
chael	-12.3512
0531	-12.3512
Pen	-12.3516
/28	-12.3516
958	-12.3518
▁pain	-12.3524
▁prote	-12.3536
0905	-12.3541
Oc	-12.3543
▁Ey	-12.3546
which	-12.3555
chel	-12.3556
urned	-12.3562
▁cit	-12.3564
ologi	-12.3587
▁Face	-12.3588
Hea	-12.3603
/2012111	-12.3613
Activ	-12.3616
▁Hous	-12.3618
elig	-12.3618
dance	-12.3622
0746	-12.3631
uke	-12.3632
Drum	-12.3637
581	-12.3637
2004	-12.3638
Step	-12.3645
Illusions	-12.3646
ference	-12.3649
▁(1987	-12.3649
feminism	-12.3656
wood	-12.3658
stock	-12.366
▁Dall	-12.367
▁nothin	-12.368
Joh	-12.3682
▁independen	-12.3683
Mos	-12.3685
7-	-12.3703
zu	-12.3705
unger	-12.3708
200	-12.3711
llaboration	-12.3712
/201210	-12.3716
lls	-12.3716
371	-12.3721
0–197	-12.3722
Devaronian	-12.3724
1998	-12.3726
Droid	-12.3727
rev	-12.373
▁auto	-12.373
dman	-12.3731
ef	-12.3739
▁Bab	-12.3746
performance	-12.3746
▁100]].	-12.3749
▁Dia	-12.3757
flu	-12.3758
nica	-12.3763
53/	-12.3767
ky	-12.3772
▁Lee	-12.3778
Ya	-12.3778
7-0	-12.3782
Shie	-12.3792
Amaz	-12.3795
miral	-12.3797
again	-12.3805
Indi	-12.3805
Defe	-12.3806
Open	-12.3809
ubb	-12.3813
second	-12.3816
owitz	-12.3817
trilogy	-12.382
please	-12.3822
Finish	-12.3824
2/04/	-12.3829
▁ran	-12.3829
▁quit	-12.3832
▁sorta	-12.3835
▁aggressi	-12.3835
ibl	-12.3838
86	-12.3844
Jacque	-12.3844
▁Buil	-12.385
▁Leg	-12.3859
▁Canad	-12.3865
Adventure	-12.3865
-07-0	-12.3867
=0-5	-12.3867
ification	-12.387
241	-12.3872
feminist	-12.3875
rup	-12.3878
▁unreleas	-12.388
0503	-12.388
unveil	-12.3882
Ewok	-12.3891
2011|	-12.3894
Cla	-12.3894
Rebel	-12.3896
dat	-12.3896
uned	-12.3901
▁proper	-12.3902
needed	-12.3905
ingdom	-12.3906
▁Sal	-12.3913
ities	-12.3914
▁fil	-12.3914
363	-12.3916
▁Ann	-12.3919
▁count	-12.3919
number	-12.392
ition	-12.3925
produce	-12.3926
copy	-12.3927
Talk	-12.3932
Agenc	-12.3939
▁1995	-12.3943
Auto	-12.3943
94	-12.3945
Lake	-12.3949
Tu	-12.395
lie	-12.3953
Ri	-12.3954
Zeppelin	-12.3964
▁Levi	-12.3967
Dashade	-12.3967
McK	-12.3968
Back	-12.3969
editor	-12.3971
signs	-12.3974
After	-12.3979
Kash	-12.398
Fire	-12.3981
adventure	-12.3982
Giv	-12.3983
Vader	-12.3987
1966	-12.3987
Syd	-12.3989
embe	-12.3989
Album	-12.399
tress	-12.3995
arner	-12.3996
Burk	-12.3997
Brad	-12.3998
▁exact	-12.3998
▁Ros	-12.4002
service	-12.4006
Europe	-12.4009
160	-12.401
call	-12.401
Record	-12.401
Skywalker	-12.4011
illusion	-12.4012
California	-12.4016
Harv	-12.4017
festival	-12.4017
received	-12.4019
Short	-12.4024
were	-12.4025
promote	-12.4027
–2007	-12.4027
Merce	-12.4028
Lead	-12.4029
Order	-12.403
eat	-12.403
Picture	-12.403
Festival	-12.4031
Montgomery	-12.4031
Animation	-12.4032
Henderson	-12.4032
McCarthy	-12.4032
Business	-12.4032
Sugar	-12.4032
Weekend	-12.4033
Mak	-12.4033
Dagobah	-12.4033
journey	-12.4033
Minute	-12.4033
Devaron	-12.4034
Gordon	-12.4034
agent	-12.4034
budget	-12.4035
Godfather	-12.4035
Gazette	-12.4035
flashy	-12.4036
office	-12.4036
TIME	-12.4037
Stuart	-12.4037
Greg	-12.4038
expect	-12.4039
elephant	-12.404
desert	-12.404
Dragon	-12.4041
Review	-12.4041
Surprise	-12.4042
believ	-12.4044
advertised	-12.4044
direction	-12.4045
Advocate	-12.4045
eighteen	-12.4045
Speak	-12.4046
Palpatine	-12.4047
rg	-12.4047
machine	-12.4047
remaster	-12.4049
xes	-12.405
Series	-12.405
Burt	-12.4051
Foster	-12.4052
topic	-12.4052
Biography	-12.4053
TH	-12.4054
ABC	-12.4055
Glam	-12.4056
Weekly	-12.4057
Score	-12.4057
exp	-12.4057
Moore	-12.4057
airplay	-12.4058
wanted	-12.4059
Kick	-12.4059
Monster	-12.4059
together	-12.4059
Doug	-12.406
Break	-12.4061
accept	-12.4062
Yuzzum	-12.4062
Production	-12.4063
Composer	-12.4063
children	-12.4064
Gross	-12.4064
!!]]''	-12.4064
Sith	-12.4064
Phillips	-12.4064
recap	-12.4064
Print	-12.4065
Tribune	-12.4065
Israel	-12.4066
Gatsby	-12.4066
Drummer	-12.4066
Driven	-12.4066
Desire	-12.4066
instrument	-12.4067
INTER	-12.4067
royalties	-12.4067
Morgan	-12.4068
Zahn	-12.4069
Celebrity	-12.4069
Folk	-12.4069
Species	-12.4069
partner	-12.407
Kelly	-12.407
Morris	-12.4071
Studios	-12.4072
Doyle	-12.4072
▁modul	-12.4073
Metallica	-12.4074
Politic	-12.4074
Tatooine	-12.4074
Kennedy	-12.4074
Treat	-12.4074
1997.	-12.4075
contain	-12.4075
Gabriel	-12.4075
Reagan	-12.4075
Channel	-12.4076
President	-12.4076
Cohen	-12.4076
uctor	-12.4076
Result	-12.4076
Inside	-12.4076
Litera	-12.4076
canceled	-12.4077
Street	-12.4078
Stinson	-12.4078
Jungle	-12.4078
Logan	-12.4078
Naboo	-12.4078
destroy	-12.4078
Harrison	-12.4078
Blaster	-12.4078
Cooper	-12.4078
vinyl	-12.408
PETA	-12.408
total	-12.408
Parker	-12.408
lyrics	-12.4081
drums	-12.4081
technology	-12.4081
Soul	-12.4082
Girl	-12.4082
Fest	-12.4082
Movie	-12.4082
Trank	-12.4083
drug	-12.4083
decade	-12.4083
702	-12.4084
career	-12.4084
Wood	-12.4084
realize	-12.4085
effects	-12.4085
piano	-12.4085
screenplay	-12.4086
navbox	-12.4086
North	-12.4087
prequels	-12.4087
highest	-12.4088
Hotel	-12.4089
Lifetime	-12.409
Gaga	-12.409
Two	-12.409
scale	-12.409
Super	-12.4091
Nash	-12.4093
Alternative	-12.4093
Punk	-12.4094
period	-12.4094
Reader	-12.4096
Duke	-12.4097
Perry	-12.4097
Boys	-12.4099
Starkiller	-12.4099
Fett	-12.41
160105	-12.41
Cover	-12.4101
Evil	-12.4102
5045	-12.4103
Trunk	-12.4103
exist	-12.4103
advance	-12.4103
More	-12.4105
China	-12.4105
McD	-12.4105
recordings	-12.4106
Finished	-12.4106
walking	-12.4107
;4	-12.4107
Songs	-12.4107
radic	-12.4107
Mother	-12.4109
ncorporated	-12.4109
Recording	-12.4111
Rev	-12.4115
yday	-12.4116
826	-12.4116
III	-12.4117
Donald	-12.4117
mater	-12.4119
pkin	-12.4119
Macon	-12.4119
168	-12.412
Box	-12.4121
ranged	-12.4122
collaborate	-12.4123
Search	-12.4124
logans	-12.4124
heav	-12.4124
Scott	-12.4124
▁Outp	-12.4124
Denning	-12.4127
usin	-12.4129
Mind	-12.4129
Quest	-12.4131
Angel	-12.4134
prise	-12.4135
producer	-12.4135
254	-12.4136
Cool	-12.4138
Home	-12.4138
acy	-12.4139
Maria	-12.4139
▁Mik	-12.414
family	-12.4146
Grant	-12.4146
▁generate	-12.4146
Indian	-12.415
demo	-12.4152
▁dramati	-12.4154
towards	-12.4156
introduce	-12.4156
does	-12.4157
Wax	-12.4163
▁nervous	-12.4163
hope	-12.4164
VII	-12.4168
11120	-12.4168
Kell	-12.4172
green	-12.4172
basic	-12.4173
Thal	-12.4174
Songwrit	-12.4175
continue	-12.4175
made	-12.4182
tely	-12.4182
030	-12.4183
▁Gru	-12.4183
venue	-12.4184
Stop	-12.4185
▁overs	-12.4186
Anders	-12.4187
arm	-12.4188
ince	-12.4189
jon	-12.4189
Britt	-12.419
meaning	-12.4191
favorite	-12.4191
0206	-12.4194
Kat	-12.4195
Chart	-12.4196
City	-12.4196
rous	-12.4198
▁complet	-12.4199
Post	-12.4199
lar	-12.4199
bbie	-12.4201
Qu	-12.4205
since	-12.4205
▁drive	-12.4212
food	-12.4213
serve	-12.4218
poll	-12.4218
Myth	-12.4219
Lando	-12.4222
wide	-12.4222
fan	-12.4222
▁Terr	-12.4223
lau	-12.4223
▁(198	-12.4224
mov	-12.4224
kinesis	-12.4225
eemingly	-12.4228
▁Rona	-12.4228
model	-12.4231
osz	-12.4232
vo	-12.4233
1401	-12.4233
pho	-12.4235
mando	-12.4236
0-553-	-12.4238
trans	-12.4238
Leak	-12.4239
694	-12.4242
Four	-12.4243
▁Thor	-12.4244
01015	-12.4244
nberg	-12.4244
wesome	-12.4249
0818	-12.425
Rebels	-12.4251
▁democra	-12.4254
2977	-12.4255
/2013/	-12.4256
Clawdites	-12.4257
Writer	-12.4257
▁organiz	-12.4258
Knight	-12.4263
Ash	-12.4267
Dale	-12.4269
summer	-12.427
Devaronians	-12.427
"[	-12.4271
ni	-12.4276
induct	-12.4277
)''}}	-12.4278
GN	-12.428
positi	-12.4281
escent	-12.4282
_5	-12.4282
▁typ	-12.4284
Band	-12.4284
award	-12.4285
studio	-12.4287
He	-12.4288
Imperial	-12.4289
Johnson	-12.4289
Rain	-12.4291
Transform	-12.4291
BB	-12.4293
789	-12.4293
mperialis	-12.4296
▁Za	-12.4296
Part	-12.4296
Digi	-12.4303
Rio	-12.4305
assis	-12.4306
reminde	-12.4306
Adventures	-12.4311
Su	-12.4314
OTO	-12.4315
egular	-12.4315
Clawdite	-12.4316
Chapter	-12.4318
▁inclu	-12.4318
commun	-12.4323
tandalone	-12.4324
/05/	-12.433
buy	-12.4331
Histor	-12.4331
Dathomirian	-12.4338
Manufacturer	-12.4339
liv	-12.4341
giv	-12.4342
▁Harve	-12.4342
▁emphasi	-12.4343
▁vocal	-12.4347
lockbuster	-12.4348
▁releas	-12.435
009	-12.435
Dressellian	-12.4352
Bouncer	-12.4353
performances	-12.4353
gmented	-12.4354
Barr	-12.4356
1403561	-12.4357
ickets	-12.4357
Last	-12.4358
▁Guid	-12.4358
▁Animal	-12.4359
▁Mer	-12.4359
Lord	-12.436
▁starfighter	-12.4362
▁Zolander	-12.4362
▁Brother	-12.4362
Brand	-12.4363
▁Chronicle	-12.4364
▁skill	-12.4366
erlind	-12.4366
Bone	-12.4367
▁detail	-12.4368
24–	-12.437
▁effect	-12.4372
exuality	-12.4372
0-8	-12.4374
blo	-12.4374
Rec	-12.4375
▁Session	-12.4375
iamonds	-12.4375
▁creature	-12.4376
▁accomp	-12.4376
▁Tak	-12.4384
▁Darling	-12.4386
nterlude	-12.4386
019	-12.4386
yfy	-12.4386
underst	-12.4387
enforc	-12.4389
=978-0-	-12.439
tresses	-12.4391
▁Ur	-12.4395
plans	-12.4396
arricade	-12.4396
locks	-12.4398
Gi	-12.44
▁(2002	-12.44
elo	-12.4402
rticles	-12.4404
ukkelpop	-12.4404
rrangement	-12.4405
Celegia	-12.4405
za	-12.4406
evolv	-12.4409
Argazda	-12.441
mil	-12.441
adventur	-12.4414
Kay	-12.4415
ocumentation	-12.4416
Pub	-12.4416
▁difference	-12.4418
=38	-12.4418
Sho	-12.4419
gro	-12.4421
ppetite	-12.4421
xactly	-12.4422
7).	-12.4423
539	-12.4423
pulate	-12.4424
6282	-12.4424
endors	-12.4425
▁trail	-12.4425
540	-12.4426
1999–200	-12.4427
▁Animat	-12.4427
478	-12.4427
▁Glas	-12.4428
2-50	-12.4432
dvance	-12.4433
Poe	-12.4433
doi	-12.4434
▁0-345-	-12.4436
▁(2009–201	-12.4436
rophe	-12.4436
liott	-12.4437
pprentice	-12.4437
709	-12.4437
Stra	-12.4438
▁arrangement	-12.4442
ttractions	-12.4442
orne	-12.4442
Berlin	-12.4443
atural	-12.4444
▁licen	-12.4445
goes	-12.4446
launche	-12.4448
054	-12.4448
lectronic	-12.4449
Actress	-12.445
▁episod	-12.4452
(2006–	-12.4453
▁increas	-12.4453
▁incredibl	-12.4455
▁worri	-12.4455
rphan	-12.4455
▁anima	-12.4456
▁cancell	-12.4457
pokes	-12.4457
ngineer	-12.4457
sequently	-12.4458
Poly	-12.4458
train	-12.4458
ervously	-12.4459
/20130828	-12.4461
800	-12.4461
03|	-12.4462
▁emerge	-12.4462
ynamite	-12.4462
atience	-12.4463
mpire	-12.4466
ventures	-12.4466
▁manufacture	-12.4467
705010	-12.4467
Beginn	-12.4467
Bette	-12.4469
ccompani	-12.4469
Elliot	-12.447
▁rebellio	-12.447
Dug	-12.4471
Coope	-12.4472
lva	-12.4472
Zola	-12.4474
valu	-12.4474
roduction	-12.4475
makers	-12.4475
▁Write	-12.4476
dvocate	-12.4476
oval	-12.4476
fully	-12.4476
Christophe	-12.4477
crimony	-12.4478
▁possibilit	-12.4478
▁imag	-12.4478
Categor	-12.4479
pocalyptic	-12.4481
Phil	-12.4481
nounced	-12.4481
erosmith	-12.4482
▁Blu	-12.4482
Total	-12.4483
▁administrat	-12.4483
▁Scot	-12.4484
cademy	-12.4484
aturday	-12.4484
-85	-12.4485
Natali	-12.4487
2008–201	-12.4488
▁immediate	-12.4488
RZ	-12.4489
▁Colomb	-12.4489
tempo	-12.449
201112	-12.4491
ovelization	-12.4492
alpatine	-12.4492
strange	-12.4493
500	-12.4495
ubsidiar	-12.4495
ignature	-12.4495
hoenixville	-12.4496
efinitely	-12.4496
▁Cl	-12.4496
wakens	-12.4496
sychedelic	-12.4496
Academi	-12.4497
aramanica	-12.4497
heard	-12.4497
rchestra	-12.4498
▁Lux	-12.4498
mmediate	-12.4498
avreau	-12.4498
maidens	-12.4498
663	-12.4498
ystem	-12.4498
▁Galax	-12.4499
▁Add	-12.45
haracter	-12.45
velope	-12.45
68709	-12.4501
1106	-12.4501
Pete	-12.4501
▁Databa	-12.4501
2792	-12.4501
▁influen	-12.4501
/2018/0	-12.4501
Product	-12.4502
imberlake	-12.4502
▁Over	-12.4502
McN	-12.4502
Tyl	-12.4502
azette	-12.4502
(2002–	-12.4503
ilburn	-12.4503
eapons	-12.4503
raffiti	-12.4503
▁slave	-12.4503
0-978	-12.4504
▁Entertain	-12.4504
▁Alternat	-12.4504
ranchise	-12.4504
importan	-12.4504
▁Dathomir	-12.4504
▁scien	-12.4504
troopers	-12.4504
oitalic	-12.4504
Storm	-12.4504
associate	-12.4504
▁controvers	-12.4504
hronicle	-12.4504
nstead	-12.4505
Trilog	-12.4505
chicago	-12.4505
Phoenix	-12.4505
steroid	-12.4505
ecutive	-12.4505
9798	-12.4505
Jonath	-12.4505
Psych	-12.4505
▁Glenn	-12.4505
discog	-12.4505
▁electr	-12.4505
2/18/	-12.4505
ago	-12.4505
cular	-12.4505
Epic	-12.4505
spectac	-12.4505
Foot	-12.4505
incide	-12.4505
4022	-12.4505
celeb	-12.4505
idiom	-12.4505
iarmid	-12.4506
Wookiee	-12.4506
lliam	-12.4506
proj	-12.4506
▁construct	-12.4506
odfather	-12.4506
synth	-12.4506
aterials	-12.4506
▁langu	-12.4506
Yea	-12.4506
spective	-12.4506
28173	-12.4507
ficant	-12.4507
▁suppl	-12.4507
OWN	-12.4507
/2013060	-12.4507
roblem	-12.4507
01309	-12.4507
Nomination	-12.4508
boy	-12.4508
▁Dressel	-12.4508
=67	-12.4508
eppard	-12.4508
▁Jakk	-12.4509
lific	-12.4509
uctions	-12.4509
igures	-12.4509
-06-13	-12.451
▁Eng	-12.451
antifeminis	-12.4511
-11-28	-12.4511
▁McCart	-12.4511
7_1	-12.4511
240-3	-12.4511
enioff	-12.4511
eminist	-12.4511
ndefinitely	-12.4511
annigan	-12.4512
▁Schwar	-12.4512
rrang	-12.4512
merican	-12.4512
Holly	-12.4513
667	-12.4513
Skywalk	-12.4513
=978-1-8	-12.4513
0214	-12.4513
▁Chron	-12.4514
=978-1-5	-12.4515
947	-12.4515
▁Flor	-12.4515
nswer	-12.4516
ovic	-12.4516
GRA	-12.4516
2011–201	-12.4517
Milli	-12.4517
▁tenta	-12.4517
2/06/	-12.4518
984.	-12.4518
1208	-12.4518
HAN	-12.4518
depart	-12.4519
12/06/	-12.452
Graff	-12.452
▁addict	-12.4521
1-01	-12.4521
layer	-12.4523
▁revol	-12.4523
▁Offic	-12.4523
71202	-12.4523
cusse	-12.4524
/2018/	-12.4525
shima	-12.4525
/201604	-12.4525
Demo	-12.4525
deadli	-12.4527
5452	-12.4527
effen	-12.4527
nimals	-12.4527
merged	-12.4528
Senti	-12.4528
ROW	-12.4528
zler	-12.4529
Ross	-12.4529
anoids	-12.453
▁fighter	-12.453
6091	-12.4531
965	-12.4531
Barne	-12.4531
quez	-12.4532
theatr	-12.4532
7321	-12.4532
▁Dasha	-12.4533
198	-12.4534
2237	-12.4534
agge	-12.4534
2002)	-12.4534
figure	-12.4535
▁marri	-12.4536
ameron	-12.4537
▁polic	-12.4537
ishworld	-12.4537
eppers	-12.4537
▁mig	-12.4537
liano	-12.4538
arriors	-12.4539
▁frei	-12.454
06301	-12.4541
Trade	-12.4541
TER	-12.4542
▁Weis	-12.4542
▁whil	-12.4542
raham	-12.4543
usness	-12.4543
Spec	-12.4544
▁Febr	-12.4545
1/17	-12.4545
heide	-12.4545
▁Week	-12.4546
essful	-12.4547
IMA	-12.4548
480	-12.4548
8024	-12.455
1306	-12.455
ovation	-12.4551
013	-12.4551
dium	-12.4553
▁intro	-12.4553
▁Guar	-12.4554
{{'}}	-12.4554
▁Guard	-12.4555
Alter	-12.4556
natha	-12.4558
ential	-12.4558
▁(1993	-12.4559
–2014)===	-12.4559
603	-12.4559
ensus	-12.456
▁Philli	-12.456
anceled	-12.4562
mmuni	-12.4562
▁Toda	-12.4563
▁relation	-12.4563
▁Dress	-12.4565
▁yea	-12.4565
strial	-12.4565
ristopher	-12.4565
▁suppo	-12.4566
aged	-12.4566
ville	-12.4566
positions	-12.4567
kett	-12.4567
enovo	-12.4567
vious	-12.4568
creator	-12.4569
sequel	-12.4569
'"	-12.4571
▁Maste	-12.4574
Trop	-12.4574
gram	-12.4575
▁Manda	-12.4577
▁978-	-12.4577
365	-12.4577
Ski	-12.4578
mode	-12.4578
chase	-12.4579
asino	-12.4579
360	-12.458
Patric	-12.4581
989.	-12.4582
▁Reag	-12.4582
vola	-12.4584
252	-12.4584
▁gues	-12.4585
eauty	-12.4585
Musicians	-12.4586
cule	-12.4586
▁opi	-12.4586
Tru	-12.4587
751	-12.4587
ouble	-12.4588
▁cinemat	-12.4588
ospital	-12.4589
▁McCa	-12.459
5013	-12.459
Gram	-12.4591
354	-12.4591
ywood	-12.4593
▁barri	-12.4594
Lou	-12.4594
1308	-12.4595
1930	-12.4596
ization	-12.4599
Camp	-12.4599
▁Elom	-12.46
▁Well	-12.4601
▁unde	-12.4602
tent	-12.4604
▁Conti	-12.4605
dramas	-12.4605
rave	-12.4606
Mala	-12.4606
Person	-12.4606
Goin	-12.4607
▁Rosenb	-12.4609
stimate	-12.4612
916	-12.4613
Vang	-12.4613
ssembl	-12.4616
▁pian	-12.4617
diaries	-12.4619
ffrey	-12.4621
Sci	-12.4623
▁focuse	-12.4623
roup	-12.4624
nveil	-12.4624
Spag	-12.4624
entine	-12.4625
Nig	-12.4625
Sky	-12.4626
Pan	-12.4627
870	-12.4628
▁orig	-12.4629
Glob	-12.4631
▁Jag	-12.4632
4132	-12.4632
▁Trail	-12.4632
lake	-12.4633
▁Liz	-12.4633
Hag	-12.4633
▁popula	-12.4633
994/	-12.4634
appened	-12.4634
nel	-12.4635
Toy	-12.4636
883	-12.4636
Wil	-12.4636
▁receive	-12.4638
2014071	-12.4638
08231	-12.4638
akers	-12.4639
892	-12.464
Works	-12.464
ordin	-12.4643
young	-12.4644
4_1	-12.4646
wenty	-12.4646
ruth	-12.4647
ildes	-12.465
Chew	-12.465
19091	-12.4651
ORI	-12.4653
-1403561	-12.4653
State	-12.4656
Steph	-12.4664
Gran	-12.4664
ania	-12.4665
0–2	-12.4667
Cere	-12.4669
Sim	-12.467
such	-12.467
ects	-12.467
400	-12.4672
imed	-12.4672
Note	-12.4672
▁Fish	-12.4675
▁Area	-12.4677
eunion	-12.4678
"[[	-12.4679
978-0	-12.4679
▁Poll	-12.4679
xter	-12.4679
ages	-12.4681
▁shapes	-12.4684
▁Fla	-12.4685
essage	-12.4685
inkle	-12.4686
ledge	-12.4686
▁Event	-12.4689
78.	-12.469
ible	-12.4691
kel	-12.4692
matic	-12.4697
▁Record	-12.4698
00-6	-12.4698
▁Meta	-12.4702
ularly	-12.4703
urprise	-12.4703
748	-12.4704
minut	-12.4704
▁Kra	-12.4708
cious	-12.4709
Mille	-12.4709
▁Schro	-12.471
Bang	-12.4711
▁2008}}	-12.4715
Junk	-12.4715
Para	-12.4717
olic	-12.4717
attles	-12.4717
apol	-12.472
ually	-12.4721
tracks	-12.4724
vity	-12.4724
prises	-12.4725
Smo	-12.4726
py	-12.4727
fight	-12.4727
unhouse	-12.4728
▁hol	-12.4728
shadow	-12.473
gami	-12.4732
▁Fire	-12.4735
289	-12.4738
twent	-12.4738
▁Mass	-12.4738
ourage	-12.4739
fortun	-12.474
ouston	-12.474
quem	-12.4743
guards	-12.4746
eigh	-12.4746
▁Schm	-12.4746
Date	-12.4748
alact	-12.4752
▁Aug	-12.4753
▁4"	-12.4753
Books	-12.4754
voc	-12.4754
ffici	-12.4756
larke	-12.4759
FM	-12.4762
616	-12.4764
200808	-12.4766
88)	-12.4768
ppi	-12.4769
07)	-12.4771
abies	-12.4773
▁Skin	-12.4776
GO	-12.4776
▁(2004	-12.4777
36}}	-12.4777
007|	-12.4778
|0-553-	-12.4778
NM	-12.4779
ELLE	-12.478
▁Sche	-12.4781
▁sor	-12.4782
=0-8	-12.4782
99}}	-12.4783
oh	-12.4786
2013100	-12.4788
▁Emm	-12.4793
127	-12.4793
sters	-12.4794
Cad	-12.4795
iscl	-12.4797
TB	-12.4798
26}}	-12.4802
onsters	-12.4804
=198	-12.4807
-19	-12.4808
▁appare	-12.4809
cqu	-12.4812
1987-1	-12.4813
entative	-12.4813
kell	-12.4813
igi	-12.4814
▁tim	-12.4814
ingham	-12.4816
nivers	-12.4817
witt	-12.4819
hinese	-12.482
pril	-12.4821
eel	-12.4821
nova	-12.4823
franchises	-12.4827
▁subj	-12.483
Ni	-12.4831
20160	-12.4831
▁gran	-12.4831
▁Lie	-12.4834
oleman	-12.4835
Boo	-12.4835
Yo	-12.4835
orous	-12.4836
ckag	-12.4838
chard	-12.4839
hour	-12.4839
▁Late	-12.4842
|19	-12.4842
Ana	-12.4849
Lin	-12.4851
perto	-12.4851
BC	-12.4853
▁Monk	-12.4854
▁Beni	-12.4857
dyna	-12.4859
▁Rebe	-12.4859
Bell	-12.4859
bone	-12.4866
Mur	-12.4871
imited	-12.4878
zett	-12.4879
logan	-12.4881
▁Rollin	-12.4884
▁mo	-12.4885
affi	-12.4886
chron	-12.4891
▁Harv	-12.4893
Barto	-12.4893
▁mont	-12.4893
ouris	-12.4893
Conte	-12.4897
bject	-12.4903
998	-12.4904
nyone	-12.4905
▁Lon	-12.4906
ikely	-12.4908
rrors	-12.4909
▁atten	-12.4911
Hal	-12.4912
▁Qu	-12.4913
lp	-12.4913
ootball	-12.4913
spel	-12.4913
EF	-12.4916
manage	-12.4919
105_	-12.4926
rsig	-12.4927
unc	-12.4928
Hil	-12.4932
▁represent	-12.4936
511	-12.4937
Dia	-12.4939
▁Auto	-12.494
2006	-12.4942
Alexa	-12.4942
▁Stradl	-12.4943
road	-12.4945
▁Brow	-12.495
riff	-12.4951
projects	-12.4953
pills	-12.4954
gency	-12.4957
▁bind	-12.4961
ross	-12.4964
ckup	-12.4966
NO	-12.4971
Kl	-12.4971
2006-	-12.4971
2003–200	-12.4972
Sac	-12.4974
80)	-12.4974
Per	-12.4975
▁Ark	-12.4976
▁Devaronian	-12.4978
Hammers	-12.4987
▁bran	-12.4989
rising	-12.4994
emb	-12.4994
▁Droid	-12.4995
Uta	-12.4995
mony	-12.4996
zel	-12.4997
1511	-12.4997
917	-12.5001
▁spee	-12.5001
87.	-12.5003
▁Mag	-12.5004
▁Open	-12.5005
Alb	-12.5007
▁Came	-12.5008
stranged	-12.5009
gist	-12.5011
EG	-12.5014
▁Lake	-12.5016
▁Phi	-12.5018
cant	-12.5019
ott	-12.5023
=0	-12.5028
▁distribute	-12.503
mf	-12.5032
pay	-12.5033
Sup	-12.5035
hold	-12.5035
/53	-12.5035
164	-12.5042
sche	-12.5043
elebrities	-12.5044
/65	-12.5044
▁pack	-12.5045
▁Boun	-12.5046
94/	-12.5049
nyt	-12.5051
-95	-12.5057
11}}	-12.506
Rol	-12.506
2009)	-12.5064
009,	-12.5065
ov	-12.5069
esses	-12.5069
▁McD	-12.5073
/01/	-12.5074
93)	-12.5074
whi	-12.5074
inematography	-12.5082
run	-12.5084
▁Hone	-12.5084
enu	-12.5084
▁Forb	-12.5086
.1	-12.5091
▁McK	-12.5091
oung	-12.5092
▁Finish	-12.5095
▁sever	-12.5095
agno	-12.5099
say	-12.5103
ED	-12.5104
hose	-12.5105
▁Kell	-12.5113
1974	-12.5114
iley	-12.5115
35/	-12.5116
fund	-12.5116
abc	-12.5117
▁2010}}	-12.5118
moves	-12.5124
ppen	-12.5126
2010|	-12.5135
ration	-12.5143
inks	-12.5146
Manufactur	-12.5146
AY	-12.515
roller	-12.515
▁mater	-12.5151
Reed	-12.5153
illion	-12.5153
=200	-12.5154
-047	-12.5154
CN	-12.5156
Forces	-12.5158
urv	-12.516
▁accompan	-12.5161
▁(1980	-12.5164
341	-12.5167
Spe	-12.5167
▁Gard	-12.5168
Gre	-12.517
avi	-12.5171
vani	-12.5176
/2011/1	-12.5178
spect	-12.5181
orph	-12.5182
]]"''	-12.5185
015.	-12.5188
ians	-12.5189
▁Fil	-12.5192
thick	-12.52
Ti	-12.5201
pers	-12.5201
6–	-12.5205
Vin	-12.5208
2502	-12.521
unica	-12.5213
othership	-12.5215
▁Brad	-12.5217
Bl	-12.522
▁Min	-12.522
1987	-12.5221
▁stock	-12.5224
intend	-12.5224
▁Pu	-12.5228
alt	-12.5228
▁//	-12.5232
terlude	-12.5234
1-3	-12.5237
wear	-12.5239
=[	-12.524
flo	-12.5243
3120	-12.5244
0107	-12.5244
next	-12.5248
aki	-12.5248
iel	-12.5248
▁Rom	-12.5248
132	-12.5251
Def	-12.5253
▁Form	-12.5254
-02-	-12.5261
030207	-12.5263
/1988	-12.5265
▁lif	-12.5271
rrier	-12.5276
tari	-12.5285
83,	-12.5287
Att	-12.529
Videos	-12.5291
dia	-12.5292
zh	-12.5294
▁acro	-12.5295
11-0	-12.5295
dence	-12.531
|47	-12.5311
▁Step	-12.5313
2]	-12.5314
6).	-12.5314
ager	-12.5315
ram	-12.5315
871	-12.5316
soundtracks	-12.5318
▁Ord	-12.5319
▁bas	-12.5325
▁Dale	-12.5329
▁captur	-12.533
iti	-12.5331
Rad	-12.5333
1-84	-12.5334
Tan	-12.5334
rowitz	-12.5335
agni	-12.5337
▁res	-12.534
▁(2009	-12.5349
88/	-12.5351
Trad	-12.5351
ything	-12.5352
rez	-12.5352
-59	-12.5353
uels	-12.5357
50/	-12.5364
▁Hom	-12.5366
With	-12.5371
▁Sug	-12.5376
ails	-12.5379
▁Stop	-12.5382
op	-12.5382
olly	-12.5384
808	-12.5384
mani	-12.5385
fill	-12.5387
▁(2013	-12.5387
depende	-12.5391
▁prem	-12.5397
takes	-12.5397
tiful	-12.5398
▁cro	-12.5399
6)	-12.54
feb	-12.5403
Aus	-12.5403
0,00	-12.5404
homi	-12.5408
ork	-12.5412
▁Bak	-12.5417
Arc	-12.5418
yk	-12.542
Mika	-12.5421
enni	-12.5452
Bow	-12.5453
▁Kin	-12.5455
ancy	-12.5457
stated	-12.5463
▁Sup	-12.5464
Gone	-12.5464
aders	-12.5464
▁Lip	-12.547
98/	-12.5471
Macke	-12.5471
-1999	-12.5473
ea	-12.5475
13-	-12.5475
hba	-12.5479
icke	-12.548
mental	-12.5483
10058	-12.5483
▁Mala	-12.5484
rtens	-12.5487
motor	-12.5489
▁Indi	-12.5497
Scr	-12.5499
deal	-12.5499
rans	-12.55
domina	-12.55
-167	-12.5502
bson	-12.5503
enson	-12.5506
▁Austr	-12.551
▁Gou	-12.5519
ocked	-12.5521
/67	-12.5522
gang	-12.5522
▁mani	-12.5525
every	-12.5526
tab	-12.5532
▁Sna	-12.5537
▁Holl	-12.5539
▁char	-12.554
Hann	-12.554
▁Fest	-12.5554
icus	-12.5557
psy	-12.5564
▁Lenn	-12.5568
Geek	-12.5572
pital	-12.5574
▁styl	-12.5576
dyn	-12.5579
▁Federa	-12.5583
▁care	-12.5588
rship	-12.5589
Reis	-12.5605
Critic	-12.5608
){{	-12.5611
▁(2017	-12.5611
ichael	-12.5618
annah	-12.5624
ilyn	-12.5625
▁Alexand	-12.5626
randerson	-12.563
Way	-12.563
dur	-12.5634
7232	-12.5636
Fir	-12.5644
Seb	-12.5645
wants	-12.5647
▁Histori	-12.5648
▁ali	-12.565
quare	-12.5651
14)	-12.5656
istan	-12.5656
rvin	-12.5657
tured	-12.5663
▁drama	-12.5666
adis	-12.5668
1501	-12.567
▁Tri	-12.5672
verybody	-12.5677
vist	-12.5689
▁Vid	-12.5693
11)	-12.5694
3]	-12.5697
▁Way	-12.5699
olog	-12.5703
eneral	-12.5707
rative	-12.5708
_20	-12.571
▁inform	-12.5711
gn	-12.5715
erm	-12.572
sounds	-12.572
cut	-12.5722
rak	-12.5724
igh	-12.5724
sition	-12.5735
ampa	-12.5736
cie	-12.5737
rists	-12.574
riting	-12.574
▁epi	-12.5743
-04	-12.5745
wo	-12.5751
uko	-12.5751
ummer	-12.5759
zation	-12.5761
tu	-12.5763
inate	-12.5767
plays	-12.5769
Mat	-12.5772
ceived	-12.5772
▁Ele	-12.5781
▁Ku	-12.5785
nti	-12.5787
pitch	-12.5791
5-49	-12.5794
▁Ep	-12.5797
2002-	-12.5799
-221	-12.5806
▁Deb	-12.5824
▁twee	-12.5826
▁(2012	-12.5834
reach	-12.5836
▁dec	-12.5839
Goodw	-12.584
1984	-12.5842
▁Art	-12.5844
reschool	-12.5851
▁da	-12.5864
Edm	-12.5873
arch	-12.5878
cher	-12.5889
nter	-12.589
Arm	-12.5899
/24	-12.59
King	-12.5903
2623	-12.5911
Cha	-12.5915
oc	-12.5922
1]	-12.5922
▁extensi	-12.5924
▁wis	-12.5926
351	-12.5928
▁Kend	-12.5933
Hunt	-12.5945
tions	-12.5946
ement	-12.595
▁syn	-12.595
itter	-12.5956
!!	-12.5968
Men	-12.5969
3-	-12.5976
▁glo	-12.5978
85	-12.5978
pol	-12.5979
sex	-12.5979
lude	-12.598
rise	-12.5983
[	-12.782
