<unk>	0
<s>	0
</s>	0
▁	-3.38786
.	-3.55208
=	-3.83504
▁|	-3.93356
▁the	-3.93942
-	-3.96062
,	-3.99106
▁[[	-4.09107
s	-4.16998
|	-4.22165
/	-4.35049
▁of	-4.36533
]]	-4.36769
▁and	-4.57521
▁in	-4.75017
ref	-4.75609
▁to	-4.89371
▁a	-4.95254
://	-5.18876
▁(	-5.19468
:	-5.25436
ing	-5.35891
http	-5.39909
▁=	-5.43006
▁*	-5.44728
ed	-5.45313
>	-5.51114
'	-5.52685
d	-5.62595
)	-5.64048
title	-5.68579
}}</	-5.68755
www	-5.69447
com	-5.69993
url	-5.7202
]],	-5.72797
date	-5.74525
▁is	-5.77853
▁be	-5.78408
▁The	-5.79286
_	-5.79436
cite	-5.87968
>{{	-5.88229
▁Wikipedia	-5.88247
▁for	-5.95773
e	-5.96257
▁name	-6.03465
▁was	-6.09935
▁as	-6.12914
.<	-6.13262
▁Ireland	-6.13322
}}	-6.16418
▁{{	-6.18236
▁web	-6.1832
▁on	-6.20716
="	-6.20842
publisher	-6.21739
▁with	-6.21875
▁Galway	-6.24739
ly	-6.27117
;	-6.28268
accessdate	-6.3089
▁that	-6.31324
&	-6.31373
▁are	-6.32557
▁by	-6.33866
t	-6.34244
web	-6.40836
"	-6.43282
▁Sun	-6.43382
▁"	-6.43443
▁you	-6.4388
▁this	-6.45385
from	-6.46768
▁not	-6.48736
)|	-6.50043
org	-6.56976
The	-6.58712
▁will	-6.61834
▁an	-6.63025
▁Wars	-6.65162
archive	-6.66133
a	-6.70156
first	-6.70671
▁''	-6.71055
▁C	-6.71971
last	-6.72861
Sun	-6.73353
ie	-6.74387
''	-6.74604
y	-6.74649
n	-6.76167
▁In	-6.78778
news	-6.79167
▁or	-6.8229
▁.	-6.83182
▁http	-6.85631
▁at	-6.86114
acy	-6.87032
r	-6.8731
c	-6.87592
m	-6.89397
▁Priv	-6.90751
—	-6.9154
▁which	-6.91571
work	-6.94229
▁D	-6.94656
▁You	-6.96305
uk	-6.97256
▁terms	-6.97597
html	-6.97893
▁any	-6.99352
▁Edit	-6.99959
A	-7.01835
▁''[[	-7.02261
▁log	-7.0234
C	-7.02533
?	-7.02703
]].	-7.02841
▁A	-7.03517
–	-7.05035
<	-7.07973
▁has	-7.08137
2	-7.08207
▁can	-7.08971
▁it	-7.09324
Star	-7.11151
th	-7.11422
▁S	-7.12553
section	-7.13511
w	-7.13551
▁edits	-7.13569
▁were	-7.13932
▁first	-7.13939
Galway	-7.14738
▁used	-7.15404
▁other	-7.15784
▁may	-7.16488
▁Inc	-7.16765
nbsp	-7.20817
able	-7.21063
1	-7.21394
S	-7.21981
▁its	-7.22038
▁'''[[	-7.22204
]]'''	-7.22678
on	-7.27055
▁register	-7.27146
▁I	-7.27406
anuary	-7.2825
▁Irish	-7.28866
en	-7.30163
▁re	-7.30805
yes	-7.30815
▁also	-7.30893
the	-7.32791
▁2011	-7.34137
June	-7.34154
▁city	-7.3503
April	-7.35085
▁About	-7.35204
archivedate	-7.35731
in	-7.35993
+	-7.36006
▁news	-7.36061
archiveurl	-7.36141
]]''	-7.36945
▁one	-7.37887
▁non	-7.38125
3	-7.38154
▁W	-7.38433
▁United	-7.38979
▁2007	-7.39997
▁SPARC	-7.40223
▁title	-7.40393
▁|-	-7.40442
▁2015	-7.40461
al	-7.40867
▁Kingdom	-7.41387
▁have	-7.41675
▁2008	-7.42249
using	-7.42573
▁address	-7.43175
!	-7.43364
▁2010	-7.43466
▁Contact	-7.44256
File	-7.44415
▁Microsystems	-7.45543
">{{	-7.45844
▁It	-7.459
access	-7.46156
sun	-7.46246
Category	-7.46935
▁view	-7.47446
jpg	-7.48514
E	-7.48666
▁site	-7.49186
tion	-7.49212
▁By	-7.49564
by	-7.5001
▁if	-7.50146
D	-7.50573
no	-7.5066
▁page	-7.52323
Cit	-7.52462
▁content	-7.53156
▁statement	-7.5317
▁agree	-7.53544
▁de	-7.5369
J	-7.53708
▁Page	-7.54165
p	-7.54173
▁N	-7.54709
▁===	-7.54737
▁Rey	-7.54848
▁make	-7.5499
▁policy	-7.55085
er	-7.551
thumb	-7.55492
▁your	-7.55853
▁Star	-7.5594
deadurl	-7.56061
▁Policy	-7.56519
▁Del	-7.56592
le	-7.57058
=[[	-7.57111
profit	-7.57374
▁Foundation	-7.57439
dditional	-7.57459
▁but	-7.57926
▁trademark	-7.57931
g	-7.58089
If	-7.58089
▁url	-7.58336
▁account	-7.58409
▁organization	-7.5852
▁book	-7.58613
ged	-7.58788
▁Use	-7.58879
▁Developer	-7.58937
▁user	-7.5903
▁This	-7.5914
▁Mobil	-7.5947
▁Term	-7.59927
▁T	-7.60178
▁been	-7.60369
isclaimer	-7.60418
▁Content	-7.60458
▁create	-7.60507
▁apply	-7.60943
▁edited	-7.61199
®	-7.61449
▁naviga	-7.6145
▁!	-7.61497
▁==	-7.61832
▁Do	-7.61991
4	-7.62197
co	-7.63043
search	-7.63399
f	-7.634
▁P	-7.65519
ted	-7.65715
▁two	-7.65783
i	-7.6622
▁public	-7.66395
▁Jump	-7.667
0	-7.66824
▁J	-7.68301
▁vi	-7.68761
▁fill	-7.68891
▁2012	-7.69053
▁2017	-7.69108
▁among	-7.69432
><	-7.69717
▁more	-7.69999
id	-7.70183
▁[	-7.7026
▁August	-7.71077
5	-7.71178
Northern	-7.71722
===	-7.72226
pdf	-7.72293
▁1	-7.72783
SPARC	-7.72873
R	-7.73603
▁mus	-7.74281
▁0	-7.74514
▁p	-7.74548
▁notice	-7.74553
▁check	-7.74653
had	-7.74691
Irish	-7.74723
galway	-7.74934
▁City	-7.75708
▁conditions	-7.75806
▁2009	-7.76118
Ireland	-7.76554
▁Work	-7.76945
distributed	-7.77525
▁certain	-7.78108
subject	-7.78113
▁copyright	-7.78184
▁anyone	-7.78745
o	-7.79229
▁submit	-7.79479
▁most	-7.79493
T	-7.79591
1=	-7.79879
▁2013	-7.7992
8	-7.80014
▁UK	-7.8004
to	-7.80581
▁IP	-7.80668
▁album	-7.81116
▁Anti	-7.81294
of	-7.81406
7	-7.81511
and	-7.81647
st	-7.81786
spa	-7.81989
b	-7.82339
▁attribute	-7.82433
ikimedia	-7.82474
64	-7.8256
▁verifi	-7.83062
▁bene	-7.83101
es	-7.83101
I	-7.83384
▁Encyclopedi	-7.83575
fits	-7.83699
leted	-7.83727
▁M	-7.84268
olates	-7.84485
isbn	-7.85544
July	-7.86916
▁V	-7.87027
",	-7.87488
▁November	-7.87964
▁Roses	-7.88074
▁F	-7.88359
▁film	-7.8927
▁date	-7.89514
▁visib	-7.89675
]].<	-7.90455
▁<	-7.90689
▁under	-7.91699
▁include	-7.91739
▁||	-7.91886
author	-7.93221
▁2016	-7.93467
▁her	-7.93471
▁L	-7.93691
February	-7.93982
▁R	-7.94288
page	-7.94677
location	-7.9469
6	-7.94929
▁who	-7.96692
df	-7.97413
▁follow	-7.97498
]	-7.97515
▁software	-7.97563
▁all	-7.97786
▁release	-7.98686
▁article	-7.99434
▁September	-8.0083
citation	-8.03172
▁band	-8.03223
),	-8.03281
▁high	-8.0359
▁March	-8.03837
▁last	-8.03987
====	-8.04412
▁century	-8.04722
▁year	-8.05009
▁over	-8.05027
l	-8.05093
]]{{·	-8.05241
9	-8.06314
▁February	-8.06338
▁2	-8.0637
).	-8.06492
▁"[[	-8.06595
▁time	-8.06627
rey	-8.06922
▁+	-8.07062
▁O	-8.07283
V	-8.08187
▁such	-8.08321
▁released	-8.08708
ir	-8.08873
▁2014	-8.0905
year	-8.09085
del	-8.09401
▁British	-8.09855
▁B	-8.10055
"/>	-8.10404
index	-8.10648
▁December	-8.1066
▁than	-8.10848
▁New	-8.10938
▁his	-8.1101
▁into	-8.11069
August	-8.11559
▁work	-8.1176
▁only	-8.11989
▁file	-8.12066
music	-8.12582
▁add	-8.13185
N	-8.13275
▁E	-8.13568
▁May	-8.14106
John	-8.1415
left	-8.14198
M	-8.14777
}}||{{	-8.14948
lana	-8.14971
▁some	-8.15082
County	-8.15083
net	-8.15108
many	-8.15266
php	-8.15826
▁2006	-8.16031
▁number	-8.16236
▁====	-8.16258
▁including	-8.16386
▁population	-8.16672
▁October	-8.17003
List	-8.17808
Main	-8.17847
▁systems	-8.18411
is	-8.18729
▁company	-8.19061
gov	-8.19391
▁would	-8.19554
#	-8.19661
ookie	-8.20196
</	-8.20402
▁100	-8.20544
▁19	-8.2073
▁new	-8.21058
▁links	-8.21146
▁we	-8.21616
▁system	-8.21932
or	-8.22007
November	-8.22629
March	-8.22635
▁Republic	-8.22695
▁r	-8.23356
▁language	-8.23975
▁2005	-8.24105
sunflash	-8.24124
▁music	-8.24889
▁University	-8.25167
G	-8.25303
F	-8.25346
▁Music	-8.25429
▁use	-8.25693
▁based	-8.26065
▁July	-8.2609
B	-8.26105
▁series	-8.26746
▁species	-8.27186
books	-8.27861
▁Solaris	-8.28767
between	-8.30287
x	-8.3031
us	-8.30372
their	-8.30835
▁through	-8.3118
star	-8.31514
Lana	-8.31801
▁(1	-8.3191
▁3	-8.3206
▁since	-8.32105
▁Britain	-8.32427
▁Guns	-8.32539
v	-8.3278
▁both	-8.33128
▁win	-8.33459
▁Pink	-8.33621
h	-8.3426
▁x	-8.34663
▁after	-8.34677
none	-8.34927
▁style	-8.34949
▁they	-8.35279
'''	-8.35506
▁original	-8.35564
▁list	-8.35815
May	-8.3613
▁source	-8.3659
▁/>	-8.36618
▁known	-8.36888
▁there	-8.37206
website	-8.37264
▁Rose	-8.3729
an	-8.37709
British	-8.38448
ndash	-8.38471
re	-8.38547
L	-8.3861
▁History	-8.38914
▁Cook	-8.38955
December	-8.39598
▁Talk	-8.3968
▁song	-8.40559
]]'',	-8.40681
▁announced	-8.40889
articles	-8.41081
▁Film	-8.41526
city	-8.41877
based	-8.41962
u	-8.42175
▁changes	-8.42677
article	-8.42783
P	-8.4291
▁second	-8.43006
ation	-8.43054
%20	-8.43187
▁later	-8.43256
▁well	-8.4347
▁List	-8.43479
▁On	-8.43988
sparc	-8.44149
▁World	-8.44175
▁world	-8.44175
|[[	-8.44207
W	-8.44805
▁open	-8.45
▁10	-8.45045
▁England	-8.45067
▁out	-8.45099
▁main	-8.45162
composer	-8.45375
▁needed	-8.45453
.{{	-8.45698
2=	-8.45907
▁17	-8.4625
align	-8.46617
▁part	-8.47176
{	-8.47242
oracle	-8.47724
▁she	-8.47744
▁no	-8.47877
United	-8.48049
=12	-8.48223
ve	-8.48296
right	-8.48983
▁'	-8.49182
▁4,	-8.49759
}	-8.49927
▁16	-8.4995
▁'''	-8.49978
during	-8.50032
▁Wiki	-8.50494
▁pages	-8.5061
▁up	-8.50623
list	-8.50898
]]"	-8.51318
▁0000	-8.51502
▁&	-8.51542
Billboard	-8.51702
September	-8.51884
▁about	-8.52186
U	-8.52341
▁Festival	-8.52364
▁architecture	-8.52902
film	-8.52966
se	-8.53201
about	-8.53206
▁group	-8.53556
O	-8.53863
▁G	-8.5423
▁press	-8.55143
▁![[	-8.5528
▁when	-8.55395
St	-8.56329
▁years	-8.56916
▁Awards	-8.56963
▁U	-8.57186
Michael	-8.57192
media	-8.57236
Pink	-8.5725
▁News	-8.57344
▁20	-8.58157
▁Europe	-8.58295
▁then	-8.5836
round	-8.58485
BBC	-8.58539
▁b	-8.58609
Guns	-8.5864
▁12,	-8.58773
▁history	-8.58792
ce	-8.58941
group	-8.59144
led	-8.59335
▁people	-8.59892
▁record	-8.59935
Java	-8.60038
▁do	-8.60522
▁per	-8.61215
▁end	-8.61305
bit	-8.61393
▁4	-8.61718
▁being	-8.61726
▁Re	-8.61841
▁English	-8.62018
bbc	-8.62066
▁again	-8.62161
▁station	-8.62208
'',	-8.62255
span	-8.6231
,<	-8.62621
▁Times	-8.62669
il	-8.62892
z	-8.63323
▁Award	-8.63334
▁Press	-8.63387
▁2002	-8.63435
igation	-8.63623
▁publisher	-8.63695
▁For	-8.63968
▁low	-8.64049
▁servers	-8.64231
all	-8.64266
UltraSPARC	-8.64375
October	-8.64398
▁several	-8.64897
▁H	-8.64926
▁Lucas	-8.65076
wars	-8.65827
▁he	-8.65995
▁processor	-8.66322
▁access	-8.66368
el	-8.66514
▁Union	-8.66525
▁companies	-8.66599
(	-8.67072
came	-8.6741
▁Nav	-8.67742
nowrap	-8.67791
oogle	-8.67887
▁2004	-8.6795
▁Oracle	-8.68136
▁so	-8.68758
small	-8.68906
Oracle	-8.68935
▁Great	-8.69065
htm	-8.69252
for	-8.69252
▁6,	-8.69279
▁Corporation	-8.69284
From	-8.6934
▁each	-8.6946
▁There	-8.70034
▁mean	-8.70441
Fujitsu	-8.7048
▁late	-8.7061
fujitsu	-8.70798
▁available	-8.70799
▁stroke	-8.70799
br	-8.70903
ite	-8.71123
convert	-8.71608
▁8	-8.71943
UK	-8.72045
▁popular	-8.72337
PDF	-8.72352
est	-8.72356
▁before	-8.7237
▁license	-8.72387
▁11	-8.72426
▁developed	-8.72462
▁three	-8.72529
▁instruction	-8.72572
▁version	-8.72612
▁Empire	-8.72904
▁Islands	-8.7311
▁large	-8.73791
xml	-8.739
▁System	-8.74186
▁Club	-8.7431
▁18	-8.74403
▁single	-8.74516
▁Jedi	-8.74531
▁services	-8.74718
▁like	-8.75183
National	-8.75308
▁author	-8.76446
ers	-8.76482
▁major	-8.77125
▁II	-8.77166
riev	-8.77265
▁events	-8.77439
▁{{{	-8.77464
▁films	-8.77618
▁Commons	-8.77632
All	-8.77761
▁2000	-8.77875
▁edit	-8.77995
k	-8.78086
▁15	-8.78344
▁million	-8.78441
▁1,	-8.78554
census	-8.78664
time	-8.78673
world	-8.78697
▁Ret	-8.7898
▁appear	-8.79078
▁Wales	-8.79234
▁island	-8.79444
▁West	-8.79762
ion	-8.79838
new	-8.79919
▁2,	-8.80093
▁War	-8.80224
%2	-8.80261
▁line	-8.80335
BAFTA	-8.80406
London	-8.80407
upright	-8.80422
railway	-8.80442
▁began	-8.80445
▁Systems	-8.80511
guns	-8.80552
pages	-8.80575
▁No	-8.80984
data	-8.81008
▁File	-8.81048
▁Java	-8.81152
▁support	-8.81667
ikipedia	-8.8209
Press	-8.82249
px	-8.82324
▁States	-8.82581
roses	-8.82773
▁these	-8.83552
|}}}	-8.83552
▁made	-8.8398
▁}}	-8.84016
▁four	-8.8417
▁products	-8.84293
▁What	-8.844
▁23,	-8.84891
▁14,	-8.84912
▁Man	-8.85178
▁Scotland	-8.85192
▁here	-8.8557
▁York	-8.85733
▁team	-8.85877
K	-8.86134
▁image	-8.86726
mm	-8.87
▁accessdate	-8.87027
▁Creat	-8.87051
ic	-8.87246
billboard	-8.87362
▁License	-8.87368
▁could	-8.87402
▁13,	-8.8742
Emmy	-8.87483
Dublin	-8.87622
Great	-8.87644
▁set	-8.87763
▁16,	-8.87901
▁found	-8.88269
▁42	-8.88273
▁see	-8.88303
dead	-8.88733
▁much	-8.89222
ireland	-8.89263
▁c	-8.89324
▁industry	-8.89471
million	-8.89519
oldi	-8.89742
▁Not	-8.90039
out	-8.90238
▁2017|	-8.90394
▁24,	-8.90405
▁national	-8.90732
▁unt	-8.91105
David	-8.91202
."<	-8.91212
▁market	-8.91613
▁information	-8.91719
ern	-8.91964
▁government	-8.91969
/?	-8.92054
▁home	-8.92129
▁col	-8.92697
▁just	-8.92962
ive	-8.93061
▁College	-8.93075
▁produced	-8.93138
▁current	-8.93287
background	-8.93321
James	-8.9338
▁link	-8.93794
▁early	-8.93889
▁At	-8.94027
ies	-8.94521
▁Tour	-8.94718
▁i	-8.94762
▁With	-8.94911
one	-8.95124
lineto	-8.95367
ten	-8.95647
]]<	-8.95653
▁20,	-8.95676
q	-8.95702
▁where	-8.95755
:#	-8.95962
▁free	-8.96033
▁28	-8.96128
at	-8.96914
▁start	-8.96929
▁([[	-8.96931
▁Help	-8.9698
km	-8.96992
▁west	-8.97101
European	-8.97422
off	-8.97765
▁2012|	-8.9825
H	-8.98256
▁video	-8.9826
▁lead	-8.99147
history	-8.99539
William	-8.99713
▁Be	-8.99721
▁They	-8.99777
▁still	-9.00956
▁More	-9.01004
▁total	-9.01188
▁All	-9.01402
times	-9.01414
man	-9.01544
▁View	-9.01773
▁bot	-9.01897
▁US	-9.02086
om	-9.02116
up	-9.02451
▁shows	-9.02968
▁established	-9.02998
▁Community	-9.03042
▁category	-9.03146
▁6	-9.03378
▁them	-9.03401
▁result	-9.03495
▁platform	-9.03604
▁8,	-9.03731
▁change	-9.03758
American	-9.0381
▁long	-9.04182
=1	-9.0436
×	-9.04511
▁...	-9.05077
▁An	-9.05101
info	-9.05158
▁tools	-9.05187
▁Statistics	-9.05249
▁while	-9.0526
▁abbr	-9.05261
▁now	-9.05614
▁next	-9.0562
▁Template	-9.0562
▁move	-9.05929
ty	-9.0598
▁Unix	-9.05997
▁10,	-9.06369
top	-9.06396
language	-9.06677
▁Dublin	-9.06919
▁Al	-9.0715
▁acquire	-9.07152
▁games	-9.07169
▁data	-9.07177
▁please	-9.07274
▁Special	-9.07348
▁X	-9.07358
▁hardware	-9.075
''.	-9.07717
▁Print	-9.07744
side	-9.07788
pg	-9.08278
magazine	-9.08292
▁area	-9.08303
▁21	-9.08318
X	-9.08356
▁place	-9.08365
Wikipedia	-9.08371
▁come	-9.08529
▁power	-9.0879
▁5,	-9.09005
▁cover	-9.09369
West	-9.09497
precipitation	-9.09556
▁7,	-9.09635
▁2003	-9.09777
▁Park	-9.09791
▁She	-9.10266
>[	-9.10334
▁9	-9.104
ry	-9.10451
Richard	-9.10565
ch	-9.10589
like	-9.10655
▁na	-9.11026
song	-9.11187
▁Council	-9.11876
10	-9.1194
▁Records	-9.11963
▁back	-9.12062
▁off	-9.12089
=9	-9.12167
▁called	-9.12172
▁29,	-9.12391
▁journal	-9.12496
▁26,	-9.12516
stone	-9.12581
mi	-9.12603
▁top	-9.12663
▁1990	-9.1276
▁1999	-9.13265
name	-9.13389
▁European	-9.13485
20	-9.13583
though	-9.1369
1.	-9.13726
▁form	-9.13776
album	-9.13852
note	-9.13881
▁example	-9.14052
cso	-9.14073
▁particular	-9.14098
12	-9.14292
▁Theatre	-9.1434
▁international	-9.14343
▁League	-9.14422
▁seen	-9.1451
▁Court	-9.1459
▁Lana	-9.14638
’	-9.14832
▁code	-9.14978
]]).	-9.15053
▁2015|	-9.15277
text	-9.1543
History	-9.15474
▁3,	-9.1581
-100	-9.15833
ar	-9.15937
▁American	-9.15959
▁tour	-9.15981
▁International	-9.16078
▁un	-9.1641
▁modified	-9.16433
Central	-9.16451
▁California	-9.1648
▁provide	-9.16494
▁When	-9.16565
▁state	-9.16587
▁server	-9.17082
▁IV	-9.17276
'')	-9.17376
▁Force	-9.17494
▁Video	-9.17519
▁members	-9.17569
▁local	-9.1766
▁7	-9.17805
story	-9.18059
▁St	-9.18092
▁product	-9.18375
▁moveto	-9.18642
▁25,	-9.18645
▁Axl	-9.18712
▁trilogy	-9.1892
▁13	-9.19061
▁However	-9.19089
▁Free	-9.1927
▁own	-9.19325
▁Software	-9.19433
86	-9.19817
ous	-9.19984
▁Current	-9.2001
▁Enterprise	-9.20079
▁show	-9.20194
Robert	-9.20321
MTV	-9.2049
Royal	-9.21408
▁Technology	-9.21507
hi	-9.21623
smi	-9.21665
▁mid	-9.21852
▁75	-9.21863
▁format	-9.21869
▁Rugby	-9.22303
▁largest	-9.22467
▁law	-9.22519
▁Other	-9.22572
▁direct	-9.22594
1/	-9.2271
▁followed	-9.22867
IFMCA	-9.22914
▁Name	-9.22965
22,	-9.23562
style	-9.23727
▁live	-9.23806
▁London	-9.23936
most	-9.24212
▁*[[	-9.24318
portal	-9.24326
▁e	-9.24368
ian	-9.24404
▁musical	-9.24408
▁Young	-9.24655
▁countries	-9.24983
▁store	-9.25126
▁Interacti	-9.25338
▁reference	-9.25488
cause	-9.25801
George	-9.25806
software	-9.25878
register	-9.2588
▁side	-9.26019
▁2018	-9.26115
▁storage	-9.26548
irish	-9.26575
▁t	-9.26697
▁give	-9.26702
▁Company	-9.2671
▁National	-9.26832
▁Station	-9.26833
▁Institute	-9.26895
▁third	-9.27081
▁along	-9.2733
em	-9.2744
28,	-9.27476
▁UltraSPARC	-9.27504
▁co	-9.27544
▁Championship	-9.27628
ment	-9.2768
▁what	-9.27828
=28	-9.28027
▁short	-9.28113
▁CPU	-9.2815
▁;	-9.28166
▁1997	-9.28225
ent	-9.28334
▁festival	-9.2848
▁22	-9.28481
Celtic	-9.28579
pink	-9.28747
▁As	-9.28773
▁remain	-9.28938
▁5	-9.29185
▁<!--	-9.29204
▁country	-9.29334
end	-9.29338
▁modern	-9.29353
panish	-9.29359
▁string	-9.29361
▁Personal	-9.29407
▁|[[	-9.29415
▁same	-9.29484
Share	-9.29765
▁planet	-9.29824
▁Fujitsu	-9.29845
▁building	-9.29912
New	-9.29917
via	-9.30051
fn	-9.30053
▁Bo	-9.30186
ism	-9.30338
show	-9.30406
▁Languages	-9.30428
▁songs	-9.30442
▁control	-9.30623
▁River	-9.30652
PA	-9.30662
▁Museum	-9.30931
▁Main	-9.30951
Frank	-9.31049
ons	-9.3113
▁project	-9.31386
musician	-9.31396
500	-9.31411
format	-9.3147
with	-9.31549
doc	-9.31677
▁left	-9.31683
ra	-9.3171
ng	-9.31836
▁1998	-9.31916
asp	-9.31957
▁performance	-9.31991
▁north	-9.32018
▁class	-9.32026
▁Square	-9.32048
spaces	-9.32212
▁Luke	-9.32297
▁Read	-9.32338
=26	-9.32354
▁9,	-9.32435
▁right	-9.32461
▁Search	-9.32495
▁Bay	-9.32548
▁Linux	-9.32591
▁Éireann	-9.32591
=19	-9.32671
▁Architecture	-9.32888
OS	-9.32999
18	-9.3311
day	-9.33269
▁men	-9.33317
▁Australia	-9.33372
▁implementation	-9.33374
▁Government	-9.33483
▁centre	-9.3364
Norman	-9.33841
▁label	-9.33984
▁Views	-9.34176
▁K	-9.34401
▁al	-9.34425
▁languages	-9.34459
age	-9.34488
▁Ó	-9.34573
▁best	-9.34613
CNET	-9.34905
encyclopedia	-9.34905
Tools	-9.34916
jsp	-9.3492
▁specification	-9.34922
▁agent	-9.35024
dmy	-9.35046
▁Cup	-9.35088
▁traditional	-9.35157
▁contain	-9.35164
col	-9.3526
▁Fol	-9.35349
Y	-9.35561
▁Rand	-9.35721
quote	-9.35816
▁-->	-9.35938
▁Rock	-9.3603
▁f	-9.36152
won	-9.36325
=5	-9.36364
▁Parliament	-9.3638
as	-9.36505
Office	-9.36651
▁cite	-9.36708
▁To	-9.36714
rock	-9.36842
be	-9.36875
▁Airport	-9.36935
Paul	-9.36947
▁design	-9.37015
▁]	-9.37184
▁2014|	-9.37215
▁y	-9.37375
▁provid	-9.37387
Online	-9.3739
North	-9.37474
University	-9.3748
▁Log	-9.37592
cent	-9.376
pr	-9.37706
▁neg	-9.37845
▁Joyce	-9.37849
▁Contribution	-9.37852
tech	-9.3786
="2"	-9.37862
nior	-9.37864
▁Street	-9.37905
▁recent	-9.3791
OpenSolaris	-9.37943
▁Dur	-9.37971
reative	-9.37978
▁2016|	-9.38094
▁Fleadh	-9.38109
▁those	-9.38109
▁every	-9.38145
▁due	-9.38237
▁Office	-9.38274
▁processors	-9.38293
▁Business	-9.38422
▁above	-9.38527
▁Corrib	-9.38527
j	-9.38738
▁m	-9.38883
chart	-9.38922
▁base	-9.39112
▁64-	-9.39283
eu	-9.39291
▁Development	-9.39371
▁groups	-9.39469
land	-9.3954
▁times	-9.39572
content	-9.39581
▁artists	-9.39636
▁town	-9.3971
▁14	-9.39797
=4	-9.39816
▁Hall	-9.3984
▁James	-9.40141
▁return	-9.40197
...	-9.40233
▁Best	-9.40345
▁areas	-9.40373
JPS	-9.40388
Mark	-9.40451
very	-9.40459
Claddagh	-9.40497
Scottish	-9.40521
rugby	-9.40527
abbr	-9.40592
▁features	-9.40631
▁computer	-9.40759
ally	-9.40821
ariants	-9.40824
tribution	-9.40856
entertainment	-9.40876
eval	-9.40909
aspx	-9.40925
▁III	-9.41031
▁John	-9.41038
▁North	-9.4105
▁Download	-9.41148
au	-9.41287
▁cities	-9.41366
=15	-9.41874
▁accessed	-9.41897
processor	-9.41964
▁development	-9.42015
▁story	-9.42031
▁12	-9.42065
▁pre	-9.42313
▁acquisition	-9.42576
▁final	-9.42615
tv	-9.42696
pload	-9.42821
Gaelic	-9.42828
▁First	-9.42889
type	-9.42894
▁He	-9.42908
export	-9.43472
▁Life	-9.43764
▁2013|	-9.43803
See	-9.43841
ermanent	-9.43862
▁Slash	-9.4399
▁poly	-9.44007
▁Kern	-9.44019
▁2001	-9.44352
more	-9.44451
▁designed	-9.44499
▁stated	-9.44542
▁culture	-9.44549
City	-9.44634
▁Playskool	-9.44726
▁Text	-9.44745
▁30,	-9.44986
▁Green	-9.45191
▁TV	-9.45286
References	-9.45455
▁Encyclopedia	-9.45467
journal	-9.4552
Q	-9.45596
▁Island	-9.45744
]]'	-9.45807
▁separate	-9.45816
▁(''	-9.45992
▁interview	-9.46071
US	-9.46081
▁run	-9.4611
▁take	-9.46275
▁40	-9.46617
volume	-9.46623
Chinese	-9.46764
▁talk	-9.4684
son	-9.46877
buys	-9.46944
green	-9.47064
billion	-9.47067
width	-9.47101
▁sea	-9.47106
Rock	-9.47131
country	-9.47136
World	-9.47162
▁art	-9.47196
Citation	-9.47383
▁Research	-9.47406
▁said	-9.47408
ac	-9.47444
▁Relat	-9.47576
ca	-9.4759
la	-9.47699
▁"[	-9.47706
▁Mar	-9.47712
▁requests	-9.4788
▁addressing	-9.47993
▁written	-9.48092
▁offset	-9.48096
Rolling	-9.48258
▁note	-9.48348
▁One	-9.48387
=8	-9.48522
▁Stone	-9.48987
▁help	-9.49025
ny	-9.49444
▁Clone	-9.49469
Use	-9.4979
▁me	-9.49799
▁become	-9.49958
house	-9.50057
▁hav	-9.50116
Connacht	-9.50435
English	-9.5055
Cork	-9.50553
▁Cemetery	-9.50561
▁different	-9.50562
▁management	-9.50568
Slash	-9.50582
storage	-9.50586
today	-9.50599
▁complete	-9.50608
▁Categories	-9.50627
▁After	-9.50629
png	-9.50639
▁Back	-9.50652
stk	-9.5068
▁contributors	-9.50699
▁built	-9.50742
▁articles	-9.50762
▁small	-9.5092
que	-9.51016
▁bn	-9.51039
▁highest	-9.51048
▁official	-9.5117
▁mode	-9.51355
▁fiction	-9.51455
▁Castle	-9.51456
▁former	-9.51474
▁reg	-9.51513
▁Earl	-9.51665
▁Church	-9.5169
▁land	-9.51794
ach	-9.51961
over	-9.52076
<!--	-9.52271
Z	-9.52304
▁towns	-9.52491
▁franchise	-9.52552
▁operat	-9.52687
network	-9.53171
▁Co	-9.53346
▁De	-9.53532
▁Time	-9.53608
urban	-9.54009
[2]	-9.54011
▁game	-9.54027
▁1980	-9.54028
lang	-9.54044
newspaper	-9.54064
starwars	-9.54152
Services	-9.54238
SME	-9.54296
▁sub	-9.54337
▁32	-9.54533
▁hard	-9.54563
▁memory	-9.54571
▁introduced	-9.54621
stm	-9.54642
]"	-9.54659
▁cinema	-9.54672
line	-9.5468
▁We	-9.54786
|0|	-9.54809
▁published	-9.54865
=2	-9.54873
▁supported	-9.54906
▁general	-9.55186
▁artist	-9.5531
▁period	-9.55515
▁magazine	-9.55851
▁road	-9.55899
item	-9.56217
▁wins	-9.5625
▁rock	-9.56273
▁200	-9.56406
30	-9.56426
2.	-9.56532
▁brand	-9.56769
▁club	-9.56832
=3	-9.56938
▁Computer	-9.57339
Stephen	-9.57349
▁#	-9.5745
▁And	-9.57522
pop	-9.57544
▁reflect	-9.57581
MySQL	-9.57586
▁binary	-9.57586
harles	-9.57587
▁successful	-9.57618
▁itself	-9.57624
3;"	-9.57647
▁racing	-9.57651
▁value	-9.57652
▁25	-9.57707
Dark	-9.57765
center	-9.57768
▁family	-9.57776
▁1987	-9.57777
▁sold	-9.57824
government	-9.57834
▁lo	-9.57893
Axl	-9.5791
▁---	-9.57925
awards	-9.57927
▁football	-9.58029
|''	-9.58034
▁six	-9.58038
▁Love	-9.58041
▁Democracy	-9.58157
▁Of	-9.58497
related	-9.58518
▁Arts	-9.58692
▁computing	-9.58707
▁27	-9.58795
▁Feature	-9.58944
servers	-9.59414
▁added	-9.59443
">	-9.59496
▁error	-9.59654
▁Mos	-9.59795
Image	-9.59944
server	-9.60068
▁Act	-9.6021
▁life	-9.607
nd	-9.6089
8/	-9.60934
▁perform	-9.61157
Jonathan	-9.61197
Peter	-9.61214
=30	-9.61257
Ross	-9.61258
[1]	-9.61285
▁south	-9.61286
Saint	-9.6129
▁1996	-9.61293
▁Arch	-9.61347
▁important	-9.61377
▁census	-9.61398
Project	-9.61404
mtv	-9.61405
▁GDP	-9.61487
▁Dead	-9.6149
▁consist	-9.61501
class	-9.61559
▁fully	-9.61597
state	-9.6163
▁near	-9.61643
▁making	-9.61644
▁level	-9.61709
▁limit	-9.61713
moveto	-9.61718
▁coast	-9.6174
▁Higgins	-9.6175
ter	-9.61766
"|[[	-9.61808
life	-9.61865
▁Public	-9.61868
▁played	-9.61881
band	-9.61977
▁VI	-9.61983
▁McKagan	-9.62016
▁di	-9.62066
▁location	-9.62075
Social	-9.62088
▁Index	-9.62149
less	-9.62279
▁Books	-9.62282
▁allow	-9.6242
▁{	-9.62682
▁rank	-9.62707
source	-9.62749
-3	-9.62806
-2018	-9.62843
]]}}	-9.6285
▁con	-9.62898
ity	-9.62932
▁clubs	-9.62939
▁close	-9.63189
▁network	-9.63198
{{·	-9.63333
main	-9.63501
-->	-9.6412
▁day	-9.64205
lowing	-9.64233
▁shift	-9.64543
▁union	-9.64593
=20	-9.64666
▁Open	-9.64767
▁23	-9.64875
▁Agreement	-9.65131
▁message	-9.65132
svg	-9.65133
Official	-9.65138
▁resolution	-9.65162
▁does	-9.65175
rolling	-9.6519
▁across	-9.65206
▁considered	-9.65234
▁Sith	-9.65237
▁continued	-9.65302
▁Famine	-9.65341
here	-9.65392
bus	-9.65434
▁browser	-9.65478
▁hit	-9.65533
▁without	-9.65562
lo	-9.65588
▁identity	-9.65615
▁Adler	-9.65618
Census	-9.65654
Episode	-9.65679
culture	-9.65687
International	-9.65712
í	-9.65903
Del	-9.65913
size	-9.6593
ec	-9.6614
ist	-9.66299
▁community	-9.66304
▁HPC	-9.66314
events	-9.66357
21,	-9.66372
onate	-9.66405
▁1993	-9.66486
action	-9.66748
▁{|	-9.66843
▁did	-9.6703
online	-9.67215
▁offer	-9.67229
▁Category	-9.67257
]])	-9.67278
%	-9.67463
▁division	-9.67472
▁season	-9.67628
>[[	-9.67705
▁speed	-9.67727
referred	-9.67976
=23	-9.67992
direct	-9.68138
▁numbers	-9.68151
South	-9.68225
elected	-9.68249
[7:0]	-9.68409
▁size	-9.68543
▁Science	-9.68564
▁down	-9.68665
▁operate	-9.68799
ary	-9.68844
▁contribut	-9.68846
▁America	-9.69009
▁Technologies	-9.69131
[3]	-9.69131
▁success	-9.69135
▁significant	-9.69142
],	-9.69152
▁Publishing	-9.69161
▁track	-9.69205
▁Register	-9.69211
▁width	-9.69271
"2018	-9.69284
▁writing	-9.69383
▁another	-9.69452
rather	-9.69558
▁Hot	-9.6958
=27	-9.69639
statistics	-9.69642
▁!!	-9.69683
▁great	-9.69702
▁native	-9.69783
Ulster	-9.69828
national	-9.69864
people	-9.69884
▁Please	-9.69923
▁Windows	-9.69943
▁applications	-9.70073
▁addition	-9.70089
▁old	-9.70117
▁registers	-9.70197
▁technology	-9.70212
row	-9.70228
=21	-9.70241
▁OR	-9.70257
▁full	-9.70532
49	-9.7056
▁Mayor	-9.70693
▁play	-9.708
ical	-9.70833
▁Martin	-9.71233
▁array	-9.71339
west	-9.71542
▁too	-9.71582
▁debut	-9.71597
link	-9.71716
▁leader	-9.71757
▁k	-9.71781
▁business	-9.71817
▁Census	-9.71818
▁war	-9.72013
▁court	-9.72056
▁precision	-9.72258
▁feature	-9.72365
▁medi	-9.7253
present	-9.72543
edu	-9.72694
▁bus	-9.72766
OF	-9.72988
▁buy	-9.73068
▁Over	-9.73181
ily	-9.73243
▁rights	-9.73297
▁Anakin	-9.73297
▁prevent	-9.73297
▁wait	-9.73299
11	-9.73325
should	-9.73326
▁try	-9.73348
▁build	-9.7335
Salthill	-9.73404
▁political	-9.73424
▁element	-9.73433
ton	-9.73469
▁Me	-9.73495
▁Since	-9.73526
▁various	-9.73529
▁Some	-9.73545
▁Row	-9.73546
▁bit	-9.73586
Open	-9.73674
held	-9.73678
▁~	-9.73712
=17	-9.73726
blogs	-9.73799
▁five	-9.73853
Brian	-9.73867
Alan	-9.73921
▁logo	-9.73997
Education	-9.7403
Solaris	-9.74104
▁arts	-9.74147
Music	-9.74153
Black	-9.74168
Limerick	-9.74174
population	-9.74199
Scotland	-9.74236
▁never	-9.74238
England	-9.74245
Best	-9.74297
▁/><	-9.74502
un	-9.7457
▁program	-9.74627
▁way	-9.74633
ersion	-9.74793
▁developers	-9.74807
▁climate	-9.75184
▁Group	-9.75207
▁bits	-9.75278
27,	-9.75398
▁event	-9.75465
500]]	-9.75785
▁CPUs	-9.75789
▁item	-9.75817
am	-9.76161
tag	-9.76614
▁arc	-9.76858
webarchive	-9.76977
rose	-9.76984
▁Episode	-9.77027
Grammy	-9.7703
▁others	-9.77062
hell	-9.77318
▁Network	-9.77384
watch	-9.7747
▁even	-9.77526
[0]	-9.77645
▁Acquire	-9.77645
▁Acquisition	-9.77645
ISBN	-9.77645
wikitable	-9.77645
▁avoid	-9.77645
▁Performance	-9.77645
▁strong	-9.77645
▁Center	-9.77646
▁mul	-9.77666
▁instructions	-9.77669
▁seven	-9.77728
Original	-9.77736
▁Her	-9.77759
▁Nations	-9.77768
daily	-9.778
▁participate	-9.77895
▁ever	-9.7799
▁far	-9.78039
▁||{{	-9.78123
▁See	-9.78227
documents	-9.78257
▁launch	-9.78274
▁quarter	-9.78356
▁county	-9.78378
entry	-9.78381
|''[[	-9.78389
Outer	-9.78426
▁dark	-9.78509
te	-9.78588
▁average	-9.78605
▁wide	-9.78644
BSD	-9.78724
precision	-9.78742
series	-9.7879
=14	-9.78927
her	-9.78927
Regional	-9.78957
▁cases	-9.7896
▁rule	-9.78965
▁plans	-9.79015
▁common	-9.79169
▁Fire	-9.79186
▁us	-9.7929
▁how	-9.79509
________________	-9.79673
▁takes	-9.79889
ner	-9.7992
▁Town	-9.79938
=11	-9.8001
stories	-9.8012
▁2007|	-9.80133
▁2018|	-9.8015
▁though	-9.80162
=10	-9.80448
red	-9.80507
▁passenger	-9.80548
facts	-9.80632
-1	-9.80672
▁production	-9.80686
he	-9.81424
arry	-9.81487
key	-9.81586
15	-9.81628
▁word	-9.81858
▁1995	-9.81935
div	-9.82125
Kevin	-9.82191
▁Among	-9.82191
epartment	-9.82191
Motorola	-9.82192
▁buri	-9.82194
▁him	-9.82194
Golf	-9.82206
nytimes	-9.82207
▁grow	-9.82249
▁Tribune	-9.82282
▁Zeppelin	-9.82282
▁studio	-9.82283
▁index	-9.82324
TOP	-9.82349
▁write	-9.82493
▁below	-9.82535
▁islands	-9.82542
▁Edition	-9.8258
▁literature	-9.82932
▁limited	-9.8314
▁space	-9.83185
▁details	-9.83205
selling	-9.83344
Cray	-9.83385
global	-9.83408
protected	-9.83457
Belfast	-9.8347
mdy	-9.83506
use	-9.8372
▁cache	-9.83759
▁initial	-9.83788
it	-9.83846
os	-9.83881
▁Sea	-9.83886
▁media	-9.84208
▁nations	-9.84293
▁2008|	-9.84439
▁character	-9.84459
16	-9.84578
▁order	-9.84616
▁King	-9.84643
ta	-9.84663
▁Road	-9.84757
arts	-9.84782
Mick	-9.84972
▁2015}}	-9.85115
▁Server	-9.85206
na	-9.85234
▁Album	-9.85366
▁Review	-9.85617
▁Mac	-9.85818
▁1994	-9.85913
▁albums	-9.85936
{{	-9.86339
▁type	-9.86374
▁previous	-9.86758
▁Con	-9.86759
open	-9.86811
▁begin	-9.86887
▁Strike	-9.86952
▁centuries	-9.86952
[4]	-9.86953
false	-9.86954
▁host	-9.86954
▁France	-9.86954
▁together	-9.87049
▁Vader	-9.87052
▁worldwide	-9.87055
▁1982	-9.87082
▁point	-9.87146
▁Channel	-9.87215
▁vote	-9.87248
▁received	-9.87257
▁reported	-9.87313
publications	-9.87376
▁Cathedral	-9.87443
▁extend	-9.87497
▁Illusion	-9.87508
▁children	-9.87558
▁Nicholas	-9.87565
ST	-9.87569
19,	-9.87572
▁came	-9.87648
▁Association	-9.87732
▁completed	-9.87754
▁Show	-9.87761
▁clients	-9.87771
▁Literature	-9.87904
▁Atlantic	-9.88078
▁website	-9.881
▁Minister	-9.88258
way	-9.88285
▁houses	-9.88334
Commonwealth	-9.88397
▁AMD	-9.88425
Steven	-9.88436
▁Ray	-9.88466
independent	-9.88468
House	-9.88501
)<	-9.88554
century	-9.88558
▁records	-9.88585
▁€	-9.88625
▁Disney	-9.88775
▁look	-9.88797
▁recorded	-9.88954
▁born	-9.89126
▁issue	-9.89195
''===	-9.89207
Re	-9.89233
▁Microsoft	-9.89306
▁en	-9.89379
▁days	-9.89407
34	-9.89501
▁Roman	-9.89875
▁need	-9.89959
▁Web	-9.89971
▁Se	-9.90164
▁share	-9.9021
▁House	-9.90368
▁Day	-9.9037
▁machine	-9.90439
charts	-9.90808
▁Service	-9.90821
-34	-9.90853
▁Pop	-9.91467
ept	-9.91558
▁Super	-9.9156
issue	-9.91611
xternal	-9.91651
▁Game	-9.91748
▁spo	-9.91778
▁copy	-9.91851
2012	-9.91887
television	-9.91952
▁dolor	-9.91954
▁think	-9.91957
▁RFC	-9.91965
▁31	-9.91971
▁Cork	-9.91989
In	-9.91995
Ennis	-9.91998
da	-9.92012
ley	-9.92024
▁Division	-9.92054
▁parallel	-9.92054
▁commercial	-9.92076
▁Final	-9.92092
interview	-9.92095
Ceannt	-9.92102
▁suite	-9.9214
down	-9.92158
▁+------+-----	-9.92168
▁Year	-9.92197
▁Grammy	-9.92226
ship	-9.92234
sport	-9.92241
=16	-9.92357
▁race	-9.92426
cm	-9.92505
▁vocals	-9.92517
et	-9.92537
▁Top	-9.9258
▁Two	-9.92594
▁box	-9.92603
buy	-9.92679
▁EU	-9.92712
▁multi	-9.92734
▁week	-9.92911
semi	-9.92941
▁Intel	-9.92947
▁Series	-9.92955
▁RISC	-9.92959
17	-9.93181
▁Civil	-9.93184
▁programming	-9.93239
▁purchase	-9.93294
▁Hollywood	-9.9332
00.	-9.9334
▁started	-9.93359
Joe	-9.9347
ting	-9.93484
▁parts	-9.93562
▁sign	-9.93586
▁today	-9.93607
Welsh	-9.93631
▁radio	-9.9369
Mary	-9.93748
Queen	-9.93755
business	-9.93767
First	-9.93788
▁School	-9.93813
▁MTV	-9.93816
Live	-9.93817
gone	-9.93858
bi	-9.93933
▁High	-9.94024
▁post	-9.94036
▁Population	-9.94057
▁OS	-9.94144
-32	-9.94189
products	-9.94196
formed	-9.94388
▁1988	-9.94465
▁package	-9.94498
ul	-9.94756
ia	-9.94806
▁Ma	-9.94979
▁eventual	-9.9506
▁Guide	-9.95117
00&	-9.95285
▁Queen	-9.9535
▁my	-9.95367
▁states	-9.95418
No	-9.95552
ruid	-9.95588
▁unit	-9.95665
▁}	-9.95709
▁Power	-9.95769
▁case	-9.96074
▁Artist	-9.96153
▁tend	-9.96246
▁term	-9.96278
/>	-9.96608
▁Mo	-9.96666
▁Up	-9.96675
▁projects	-9.96847
ure	-9.96919
other	-9.9695
-2	-9.96998
▁produce	-9.97062
▁26	-9.97208
[5]	-9.97216
[6]	-9.97216
[7]	-9.97216
▁recommend	-9.97216
▁integer	-9.97216
library	-9.97217
▁however	-9.97217
president	-9.97218
MHz	-9.97221
▁regard	-9.97222
▁alliance	-9.97222
▁Story	-9.97231
▁guitarist	-9.97232
▁theatre	-9.97326
company	-9.97346
big	-9.9735
▁arcn	-9.97365
Sport	-9.97413
▁status	-9.97507
▁protection	-9.97518
▁Fox	-9.9752
▁divide	-9.97521
]]".	-9.97734
▁Economic	-9.97892
▁civil	-9.97893
▁know	-9.97966
An	-9.98025
▁either	-9.98071
▁once	-9.9808
▁Journal	-9.98081
▁Society	-9.98097
Lust	-9.98144
▁THE	-9.98281
HAL	-9.98423
▁go	-9.98608
▁regional	-9.98621
Chris	-9.98641
▁George	-9.98777
display	-9.98832
view	-9.98854
▁inter	-9.98884
park	-9.98906
▁Games	-9.99017
NUI	-9.99061
Atlas	-9.99066
ble	-9.99144
KB	-9.99198
Duff	-9.99233
free	-9.99287
▁1977	-9.99301
▁sports	-9.99314
Post	-9.99315
outhern	-9.99319
▁reminde	-9.99345
)}}	-9.9936
▁Media	-9.99383
including	-9.99386
ID	-9.99472
Bill	-9.99502
▁1991	-9.99571
▁Un	-9.99574
/1/	-9.99582
ors	-9.99596
▁1985	-9.99609
▁round	-9.9963
▁La	-9.99636
bar	-9.99641
▁fall	-9.99694
12/	-9.99791
art	-9.99868
24	-10.001
▁Michael	-10.0022
Pá	-10.0045
▁Connacht	-10.0046
▁interest	-10.0061
▁While	-10.008
▁symbol	-10.0106
▁Region	-10.0111
▁8-	-10.0117
▁template	-10.0118
9/	-10.012
▁Source	-10.0121
▁hand	-10.0123
ated	-10.0135
▁role	-10.0142
▁lineto	-10.0146
▁estimate	-10.0157
▁Limerick	-10.0161
▁pop	-10.018
▁Ulster	-10.0181
▁2016}}	-10.0182
ol	-10.0199
ually	-10.0207
▁member	-10.0213
▁concert	-10.0226
ine	-10.0251
cient	-10.0263
▁Ko	-10.027
JPG	-10.0277
▁Stadium	-10.0277
▁associated	-10.0277
whitepaper	-10.0277
▁Request	-10.0277
europa	-10.0277
▁Angeles	-10.0277
▁basis	-10.0278
▁similar	-10.0278
▁office	-10.0279
Anglo	-10.028
hind	-10.0282
enforce	-10.0282
▁giv	-10.0284
▁delay	-10.0286
▁ceremonial	-10.0288
▁describe	-10.0292
▁Last	-10.0297
maker	-10.0298
▁Short	-10.0301
▁reached	-10.0306
▁joined	-10.0307
▁Executive	-10.0308
ight	-10.031
▁Johnston	-10.0324
▁ten	-10.0327
▁diocese	-10.0328
▁Bridge	-10.0328
▁singer	-10.0331
▁agreement	-10.0339
▁annual	-10.0345
▁stack	-10.0348
▁Bodkin	-10.0349
▁cultural	-10.0349
▁social	-10.0351
ft	-10.0354
ized	-10.0363
northern	-10.0368
▁Han	-10.0375
AR	-10.0377
▁Ages	-10.0396
ne	-10.0403
32	-10.0406
live	-10.0419
field	-10.042
▁Celtic	-10.0423
▁East	-10.0436
▁writers	-10.0437
if	-10.0446
unning	-10.045
▁29	-10.0458
go	-10.0466
▁Internet	-10.0472
migration	-10.0476
chip	-10.0479
▁0;	-10.0498
frame	-10.05
▁field	-10.0502
authorlink	-10.0505
Culture	-10.0507
▁Scots	-10.0512
Independent	-10.0515
Home	-10.0517
President	-10.0517
▁2007}}	-10.0519
short	-10.0523
Kingdom	-10.0526
found	-10.0528
▁process	-10.054
▁science	-10.06
TP	-10.0607
▁get	-10.0628
▁24	-10.0632
▁1992	-10.0634
ology	-10.0635
ED	-10.0644
ham	-10.0646
▁Report	-10.0667
2/	-10.0668
17,	-10.0685
▁house	-10.0696
xx	-10.0698
▁east	-10.0708
▁sequel	-10.0711
▁developer	-10.0713
▁Dec	-10.0713
▁scale	-10.0722
▁settlement	-10.0732
▁novel	-10.0734
ocal	-10.0736
▁geograph	-10.0749
▁32-	-10.0754
▁Area	-10.0756
▁report	-10.077
old	-10.0773
de	-10.0776
▁Port	-10.0778
=24	-10.078
")	-10.0787
▁teams	-10.0796
▁service	-10.0813
ga	-10.0814
▁Catholic	-10.0815
performance	-10.0825
nfobox	-10.083
Roman	-10.0847
gate	-10.0847
ey	-10.0854
head	-10.0862
▁employ	-10.0864
hollywood	-10.0865
disney	-10.0865
▁extensions	-10.0865
▁Agency	-10.0865
Geography	-10.0865
▁little	-10.0866
Christopher	-10.0866
▁minister	-10.0866
▁Quay	-10.0866
Appetite	-10.0867
▁function	-10.087
light	-10.087
▁dup	-10.0871
▁represent	-10.0872
▁Germany	-10.0875
▁Skywalker	-10.0877
▁Moore	-10.0878
reporter	-10.0878
▁generation	-10.0878
▁person	-10.0878
▁church	-10.0879
▁Yes	-10.0881
Information	-10.0883
▁effective	-10.0884
▁Magazine	-10.0898
▁campaign	-10.0898
▁Burgh	-10.0898
▁Cache	-10.0898
▁present	-10.0899
Another	-10.0902
▁actors	-10.0905
▁guitar	-10.0907
buse	-10.0909
02/	-10.091
▁few	-10.0917
▁figures	-10.0919
Schem	-10.0919
▁galaxy	-10.092
▁writer	-10.0929
▁rugby	-10.0935
▁Nov	-10.0935
▁purposes	-10.0938
▁further	-10.0941
▁Desp	-10.095
100	-10.0951
▁====''	-10.0956
point	-10.0958
▁Storage	-10.0963
▁screen	-10.0963
editor	-10.0964
▁closed	-10.098
▁oil	-10.0981
ilicon	-10.0984
▁Economy	-10.0984
video	-10.0986
space	-10.1004
▁IN	-10.1016
▁Out	-10.1025
ill	-10.103
Bor	-10.1033
signed	-10.1055
▁pro	-10.1055
▁ended	-10.1063
ur	-10.1066
▁Reed	-10.1067
Wan	-10.1071
dh	-10.1076
▁My	-10.1081
▁Networks	-10.1086
=29	-10.1091
Kaminski	-10.1099
erry	-10.1109
2|	-10.1113
▁enterprise	-10.1116
int	-10.1119
Thomas	-10.112
harv	-10.1125
=1&	-10.1125
People	-10.1129
coming	-10.1136
Joseph	-10.1136
animated	-10.1138
Wars	-10.114
Hasbro	-10.1141
Road	-10.1144
level	-10.1149
Republic	-10.1151
known	-10.1153
/2007/	-10.1158
▁force	-10.1166
▁Ey	-10.1167
▁So	-10.1171
=6	-10.1173
zzy	-10.1186
rated	-10.1196
It	-10.1202
long	-10.1204
▁South	-10.1205
▁light	-10.1209
0||	-10.1211
56	-10.122
▁President	-10.1226
38	-10.1228
2011	-10.1228
▁2017}}	-10.1243
headquarters	-10.1248
▁Accordi	-10.1252
▁big	-10.1255
19	-10.1256
Time	-10.1264
features	-10.1267
▁center	-10.1275
▁invasion	-10.1281
▁independent	-10.1296
PR	-10.1303
▁Belfast	-10.1316
▁competition	-10.1319
ial	-10.1322
,000	-10.1323
▁material	-10.1325
ip	-10.1327
▁microprocessor	-10.1341
".	-10.1345
its	-10.1353
▁draft	-10.1359
▁Black	-10.1361
▁Girl	-10.1361
----------------	-10.1387
▁less	-10.1393
/5	-10.1408
itially	-10.1431
Ken	-10.1432
pa	-10.1438
▁special	-10.1442
games	-10.1445
ro	-10.1449
128	-10.1457
▁ex	-10.1462
▁GAA	-10.1467
▁1.	-10.1477
▁achieve	-10.149
LEON	-10.149
Climate	-10.149
Paradise	-10.149
[13:3]	-10.149
▁appeal	-10.149
Máir	-10.149
▁Children	-10.149
central	-10.149
▁Coast	-10.149
boost	-10.149
▁literary	-10.1491
draic	-10.1491
▁Ocean	-10.1491
download	-10.1491
image	-10.1491
▁Later	-10.1493
wales	-10.1493
Energy	-10.1494
Jeff	-10.1494
▁professional	-10.1494
ffff	-10.1494
▁AND	-10.1495
gcc	-10.1495
metric	-10.1497
▁sales	-10.1498
▁retain	-10.1499
▁numer	-10.15
FileEnglish	-10.1502
▁else	-10.1503
▁Heritage	-10.1503
virtualization	-10.1504
venge	-10.1504
31,	-10.1505
Mike	-10.1507
GalwayCity	-10.1507
ogue	-10.1513
onaire	-10.1517
▁replaced	-10.1518
▁branch	-10.152
▁Bechtolsheim	-10.1525
prime	-10.1526
▁labor	-10.1527
▁Feb	-10.1532
▁Gaillimhe	-10.154
▁decide	-10.1545
inspired	-10.1545
▁collection	-10.1549
▁future	-10.1551
▁VII	-10.1552
io	-10.1554
▁Box	-10.1555
▁fourth	-10.1556
▁addresses	-10.1563
Co	-10.1565
▁Scottish	-10.1566
ning	-10.157
▁Sparc	-10.1571
▁Champions	-10.1571
▁Trust	-10.1571
▁Rahoon	-10.1572
▁primar	-10.1574
Our	-10.1582
Common	-10.1585
map	-10.159
▁remained	-10.1595
nme	-10.16
▁musicians	-10.16
met	-10.1601
▁Party	-10.1602
sible	-10.1617
▁financial	-10.1618
▁revealed	-10.1619
▁Jan	-10.1628
ck	-10.164
▁reason	-10.1641
▁featur	-10.1647
pp	-10.1651
file	-10.1654
▁energy	-10.1662
ok	-10.1672
▁Fly	-10.1683
▁font	-10.1687
]]</	-10.1689
edition	-10.1693
▁cause	-10.17
post	-10.1723
▁programs	-10.173
ade	-10.1735
Steve	-10.1735
▁plays	-10.1739
Honeymoon	-10.1741
ran	-10.1752
ating	-10.1756
ate	-10.1769
▁AD	-10.1774
NUIG	-10.179
23/	-10.1791
reports	-10.1792
2048||	-10.1792
▁Go	-10.1792
50	-10.1792
rank	-10.1793
izzy	-10.1797
Jack	-10.1799
early	-10.1801
white	-10.1806
Patrick	-10.1806
read	-10.1807
Martin	-10.1812
Development	-10.1814
Government	-10.1814
Parliament	-10.1815
local	-10.1818
after	-10.1819
arch	-10.1821
xl	-10.1824
ady	-10.1828
Neil	-10.1829
▁Jun	-10.1833
▁locat	-10.1836
▁computers	-10.1839
San	-10.1858
▁Home	-10.1877
▁past	-10.1879
10/	-10.1889
ka	-10.1906
▁Die	-10.1932
order	-10.1949
▁position	-10.1952
reflist	-10.1962
▁PC	-10.1964
4/	-10.1966
Fred	-10.1969
ín	-10.1979
▁good	-10.1985
▁jurisdiction	-10.1989
▁Railway	-10.1997
▁application	-10.2
didn	-10.2005
[	-10.2034
iam	-10.2041
14	-10.2059
um	-10.2063
225	-10.2084
3=	-10.2086
standing	-10.2096
▁turn	-10.2097
▁Ba	-10.21
cc	-10.2101
Los	-10.2102
▁implement	-10.2111
▁digit	-10.2117
▁train	-10.2124
▁State	-10.2131
▁v	-10.2139
▁focus	-10.2144
emale	-10.2151
cne	-10.2154
▁scope	-10.2157
▁licensing	-10.2157
Sligo	-10.2157
▁copies	-10.2157
Netscape	-10.2157
▁half	-10.2157
▁Destruction	-10.2157
SUNW	-10.2158
▁father	-10.2158
▁appearance	-10.2158
statue	-10.2158
▁Stradlin	-10.2158
fastest	-10.2159
▁approximate	-10.216
▁rare	-10.216
Geology	-10.2162
summary	-10.2164
religious	-10.2165
Lego	-10.2165
aveset	-10.2168
devolved	-10.2168
▁rail	-10.2169
▁smaller	-10.2169
biz	-10.217
▁economy	-10.2171
▁museum	-10.2171
▁Blade	-10.2171
▁Order	-10.2171
▁lost	-10.2174
jhtml	-10.218
▁workstation	-10.2185
▁compete	-10.2189
▁legal	-10.2192
▁done	-10.2194
▁eight	-10.2196
▁grant	-10.2196
▁Hope	-10.2197
21	-10.2198
Mari	-10.2199
fx	-10.2199
▁wanted	-10.22
▁lines	-10.2201
▁rest	-10.2202
▁dis	-10.2202
▁organisations	-10.2207
25	-10.2213
▁complex	-10.2217
▁Gaelic	-10.2217
▁Death	-10.2219
computer	-10.222
ps	-10.223
▁*{{	-10.2231
▁specific	-10.2233
▁campus	-10.2239
07.	-10.2241
▁director	-10.2245
▁visit	-10.2246
alt	-10.2247
▁Date	-10.2248
▁Grid	-10.225
4]]	-10.2258
▁Finn	-10.226
im	-10.2261
▁serve	-10.2261
▁Online	-10.2268
▁Elizabeth	-10.2268
▁floating	-10.2268
▁previously	-10.2271
Me	-10.2281
confirmed	-10.2284
79	-10.2292
▁claims	-10.2296
idden	-10.2297
▁stage	-10.2308
▁changed	-10.2317
nt	-10.2335
▁Jul	-10.2336
▁Bypass	-10.2344
3.	-10.2351
▁templates	-10.2353
▁update	-10.2354
▁going	-10.2355
▁Services	-10.2356
▁Williams	-10.2365
▁units	-10.2366
Computer	-10.2369
archives	-10.2375
▁develop	-10.2378
▁rowing	-10.2385
Return	-10.239
tical	-10.239
▁Radio	-10.2393
▁multiple	-10.2393
east	-10.2408
▁Project	-10.2413
▁water	-10.2417
win	-10.2425
▁specializ	-10.2446
Walter	-10.2456
We	-10.2463
▁Pro	-10.2465
131	-10.2468
0&	-10.2468
1&	-10.2474
Funhouse	-10.2481
Transport	-10.2506
▁acquisitions	-10.2512
package	-10.2525
29	-10.2525
Microsoft	-10.2526
Other	-10.2529
what	-10.253
bot	-10.2534
where	-10.2536
▁Hasbro	-10.2545
▁rate	-10.2569
▁2.	-10.2571
▁$1	-10.2587
2016	-10.2596
▁park	-10.2598
ound	-10.2598
▁pp	-10.2604
this	-10.2606
De	-10.2642
▁quote	-10.2655
▁Gold	-10.2677
▁dp	-10.2682
Edward	-10.2686
▁key	-10.2695
▁river	-10.27
66	-10.2704
▁Vocal	-10.2704
▁protected	-10.2705
▁mission	-10.271
Don	-10.2711
▁background	-10.2718
▁Horse	-10.2735
▁maker	-10.2743
▁section	-10.2747
▁output	-10.2766
93	-10.2781
VI	-10.2785
Marc	-10.28
corporate	-10.282
nnual	-10.2823
ardner	-10.283
▁task	-10.2839
aught	-10.2854
Ron	-10.2859
▁dates	-10.287
▁prior	-10.2871
Ultraviolence	-10.2871
flatlist	-10.2871
▁increasing	-10.2871
8192||	-10.2871
▁motorway	-10.2871
VirtualBox	-10.2872
ACE	-10.2872
folk	-10.2872
▁Territories	-10.2872
living	-10.2872
▁nice	-10.2873
▁Sorum	-10.2874
▁parish	-10.2874
responsible	-10.2875
▁tourist	-10.2875
▁possible	-10.2876
▁30	-10.2877
▁powerful	-10.2877
▁Too	-10.2881
▁peak	-10.2883
military	-10.2885
▁Assembly	-10.2886
▁independence	-10.2886
▁Featur	-10.2887
2010	-10.2888
▁Book	-10.289
▁1950	-10.2894
▁annually	-10.2897
28	-10.29
▁2011|	-10.2905
▁billion	-10.2909
Former	-10.2911
▁Travel	-10.2911
▁Century	-10.2912
▁Market	-10.2912
▁toys	-10.2912
Dave	-10.2913
▁devices	-10.2913
hree	-10.2914
}}{{	-10.2917
▁Christmas	-10.2917
▁implemented	-10.2919
▁generated	-10.2922
▁gas	-10.2923
▁range	-10.2925
▁whole	-10.2926
So	-10.293
▁find	-10.2935
holds	-10.2938
▁Football	-10.2938
▁description	-10.2939
▁Flag	-10.2939
Pro	-10.2941
▁Qui	-10.2943
game	-10.2943
▁joint	-10.2953
uardian	-10.2954
95	-10.2954
GL	-10.2956
▁expanded	-10.2956
▁load	-10.2956
▁model	-10.2959
▁performed	-10.2961
▁economic	-10.2965
▁Aug	-10.2966
▁defined	-10.2972
6"	-10.2977
▁threads	-10.298
▁solutions	-10.2982
▁parliament	-10.2989
▁Solo	-10.2991
▁immigration	-10.2991
].	-10.2996
▁AT	-10.3009
orbes	-10.3018
misc	-10.3019
13/	-10.3028
Releases	-10.3035
▁(2	-10.3038
▁promote	-10.3038
▁Today	-10.3048
rd	-10.3054
▁Change	-10.3062
gnr	-10.3062
StarOffice	-10.3066
▁Canada	-10.3072
▁Mayo	-10.3072
▁mayor	-10.3075
▁caption	-10.3077
▁Ho	-10.3082
▁wiki	-10.3083
▁Modern	-10.3099
180	-10.31
pub	-10.3111
▁nominations	-10.3113
▁characters	-10.3121
▁$	-10.3126
project	-10.3129
book	-10.3133
▁titled	-10.3133
Tim	-10.3142
=13	-10.3145
Map	-10.3147
▁issues	-10.315
620	-10.3151
Forbes	-10.3164
▁William	-10.3189
▁text	-10.3204
▁Lynch	-10.3208
ll	-10.3217
espec	-10.322
ai	-10.3225
▁Na	-10.3234
▁playing	-10.3243
famine	-10.3249
Jaguar	-10.325
▁Richard	-10.3254
ially	-10.3258
▁Patrick	-10.3262
Pop	-10.3264
education	-10.3279
5;	-10.328
part	-10.3284
▁BC	-10.3289
Lynch	-10.329
▁implementations	-10.3291
born	-10.3293
Out	-10.3293
climate	-10.3295
self	-10.33
Sa	-10.33
Unix	-10.3301
architecture	-10.3301
▁("	-10.3302
This	-10.3303
scale	-10.3307
▁Red	-10.3314
digital	-10.3315
▁Independent	-10.3318
"]	-10.3337
prints	-10.3338
sand	-10.335
King	-10.335
Nun	-10.3351
Acts	-10.3352
▁uses	-10.3362
▁Live	-10.339
▁powers	-10.3413
▁2013,	-10.3424
▁wars	-10.3426
ang	-10.3428
▁mdy	-10.3429
BC	-10.3431
▁1983	-10.3433
▁request	-10.3439
▁read	-10.3447
▁conflict	-10.3456
▁capital	-10.3458
▁Age	-10.3464
▁loop	-10.3465
▁temperature	-10.3469
▁forms	-10.3475
tt	-10.3475
▁exist	-10.3481
▁decade	-10.3492
▁push	-10.3494
11/	-10.3505
nk	-10.3508
31	-10.3513
▁female	-10.3536
▁600	-10.3538
ather	-10.3555
▁claim	-10.3555
Nor	-10.3557
▁0000000	-10.3559
spin	-10.3565
=2006	-10.3586
▁archive	-10.3588
releases	-10.359
▁wall	-10.36
▁se	-10.3601
▁executive	-10.3602
Total	-10.3616
Ben	-10.3617
00	-10.3621
=18	-10.3622
▁cap	-10.3629
▁earlie	-10.363
▁princip	-10.3631
▁learn	-10.3631
▁adapt	-10.3635
ffective	-10.3639
▁Ch	-10.3639
▁experience	-10.3641
▁technologies	-10.3641
Swimming	-10.3641
▁bodies	-10.3641
▁taking	-10.3641
▁Schwartz	-10.3641
▁multiply	-10.3641
Echani	-10.3641
▁introduction	-10.3641
▁Valley	-10.3641
▁Francisco	-10.3642
▁runway	-10.3642
Latin	-10.3643
biggest	-10.3643
▁ANY	-10.3643
latimes	-10.3644
▁majority	-10.3644
▁trade	-10.3644
▁put	-10.3646
tan	-10.3646
agency	-10.3648
Monopoly	-10.3648
▁respectively	-10.3649
▁Cross	-10.3649
▁birth	-10.3649
ster	-10.3651
Companies	-10.3652
▁govern	-10.3655
▁manufacturing	-10.3657
▁Rule	-10.3657
▁territories	-10.3657
▁categories	-10.3657
GNU	-10.3659
▁really	-10.3663
▁Sep	-10.3665
▁loss	-10.3672
▁Language	-10.3672
Publications	-10.3676
▁required	-10.3677
▁green	-10.3685
▁1970	-10.3686
▁Fair	-10.3686
As	-10.3687
▁spoken	-10.3688
▁sporting	-10.369
united	-10.3691
▁Perry	-10.3691
▁German	-10.3701
▁don	-10.3703
▁concept	-10.3708
▁battle	-10.3709
▁Micro	-10.3713
▁whiskey	-10.3713
▁That	-10.3713
▁Scientific	-10.3715
▁Oct	-10.3716
▁sit	-10.3724
40	-10.3724
politics	-10.3725
87.	-10.3726
saw	-10.3731
ded	-10.3737
▁Isles	-10.3738
▁Claddagh	-10.374
▁Foster	-10.3742
▁Expand	-10.3742
▁wife	-10.3742
]],<	-10.3742
▁death	-10.3743
=2001	-10.3745
▁heat	-10.3747
went	-10.3754
▁theory	-10.3755
News	-10.3756
ba	-10.3756
▁fi	-10.3761
▁regions	-10.3765
release	-10.3767
▁Brown	-10.3773
galwayc	-10.3774
stern	-10.3799
▁electricity	-10.3799
▁theme	-10.3811
▁Y	-10.3822
ó	-10.3827
▁core	-10.3835
how	-10.3849
Video	-10.3851
▁Author	-10.3865
▁workstations	-10.387
▁singers	-10.3871
▁son	-10.3874
▁documentation	-10.3888
▁sort	-10.3889
ew	-10.3895
core	-10.3895
▁Lucasfilm	-10.3899
▁resources	-10.3907
ld	-10.3908
▁Hotel	-10.392
▁Years	-10.3935
▁Global	-10.3946
65	-10.3957
movie	-10.3957
Rose	-10.3958
Jon	-10.3964
▁Band	-10.3965
▁bank	-10.397
▁sport	-10.3973
4%	-10.3973
feature	-10.3974
▁Cambridge	-10.3975
see	-10.3978
-4	-10.3979
CI	-10.3991
iate	-10.3994
▁$2	-10.3996
well	-10.4006
wind	-10.4006
sites	-10.4014
246	-10.4017
ance	-10.4021
▁45	-10.404
office	-10.4058
▁white	-10.4065
hl	-10.4067
Tom	-10.4079
83	-10.4086
▁locate	-10.4087
/6	-10.4088
amous	-10.4094
ought	-10.4096
ultimate	-10.4096
Daniel	-10.4098
union	-10.4101
Entertainment	-10.4104
operat	-10.4105
height	-10.411
▁young	-10.4111
Stanford	-10.4113
Big	-10.4113
do	-10.4115
mo	-10.4115
poet	-10.412
Lord	-10.412
Board	-10.4121
Cambridge	-10.4122
parliament	-10.4123
High	-10.4124
enterprise	-10.4126
Population	-10.4127
▁gate	-10.4127
countries	-10.4131
▁Base	-10.4131
press	-10.4133
largest	-10.4133
Jedi	-10.4134
Scots	-10.4134
▁(3	-10.4145
single	-10.4145
▁Night	-10.4149
▁references	-10.4149
pl	-10.415
▁Post	-10.4156
_1_	-10.4157
▁Africa	-10.4171
ext	-10.4173
|150	-10.4225
tour	-10.4234
han	-10.4238
▁ve	-10.425
rights	-10.425
Non	-10.4252
ER	-10.4283
everal	-10.4291
my	-10.4301
frastructure	-10.4302
upreme	-10.4303
▁paper	-10.4305
▁standard	-10.4306
▁nation	-10.4311
tage	-10.4314
oral	-10.4317
▁province	-10.4318
code	-10.4335
obil	-10.4344
▁plan	-10.4353
▁distribution	-10.4354
80	-10.4361
▁images	-10.4364
nui	-10.4379
▁Bank	-10.4381
ts	-10.4402
bank	-10.4403
▁Art	-10.441
Media	-10.4413
ff	-10.4424
▁join	-10.4427
▁Nor	-10.4434
igital	-10.4437
▁require	-10.4442
▁TO	-10.4444
law	-10.4451
▁farm	-10.4455
7/	-10.4467
▁sound	-10.447
▁connect	-10.4472
why	-10.4473
pitchfork	-10.4474
anagement	-10.4474
fleadh	-10.4474
/2100-1001_3-9	-10.4474
Kilmacduagh	-10.4474
Routledge	-10.4474
▁optimiz	-10.4474
/2100-1001_3-24	-10.4474
Anthony	-10.4474
Clifden	-10.4474
Gridware	-10.4474
Kilfenora	-10.4474
StorageTek	-10.4474
▁Committee	-10.4474
▁McNealy	-10.4474
▁automation	-10.4474
▁college	-10.4474
▁constituency	-10.4474
Navbox	-10.4474
▁Centre	-10.4474
▁aspect	-10.4474
▁flights	-10.4474
▁memorial	-10.4474
EFA	-10.4474
classicrock	-10.4474
▁route	-10.4474
Health	-10.4474
oecd	-10.4474
▁Revival	-10.4474
▁68000	-10.4474
▁Ltd	-10.4475
▁script	-10.4475
Province	-10.4475
▁Like	-10.4475
ulca	-10.4475
▁Choir	-10.4476
▁Coach	-10.4476
▁decision	-10.4476
URL	-10.4477
▁something	-10.4477
6828.	-10.4477
ave	-10.4477
▁Clarke	-10.4477
lustra	-10.4477
/1997-0	-10.4478
.970	-10.4479
Gobus	-10.4482
ube	-10.4483
unt	-10.4483
▁bring	-10.4485
▁variant	-10.4489
]]''.	-10.449
▁growth	-10.449
afx	-10.449
▁Opteron	-10.4491
▁Survey	-10.4491
▁Keane	-10.4491
▁Palpatine	-10.4492
▁Kennedy	-10.4492
She	-10.4493
▁workers	-10.4493
▁settle	-10.4494
▁Guardian	-10.4494
Voltage	-10.4496
nial	-10.4496
gave	-10.4499
-19	-10.4508
rian	-10.4515
▁passed	-10.4515
▁critical	-10.4516
▁LLC	-10.4518
▁variety	-10.4522
▁Fortus	-10.4523
▁Apr	-10.4525
▁reach	-10.4525
alia	-10.4527
▁FM	-10.453
▁amount	-10.4536
90||	-10.4544
yout	-10.4544
stats	-10.4544
fb	-10.4552
▁xVM	-10.4553
▁Smith	-10.4553
▁Cobalt	-10.4553
/2008/	-10.4557
Tourism	-10.4559
▁Director	-10.4559
▁50	-10.4561
▁tri	-10.4563
po	-10.4565
Citylink	-10.4567
61	-10.4575
bb	-10.4578
▁Commission	-10.4584
▁Visual	-10.4584
▁solo	-10.459
▁stations	-10.4593
▁users	-10.4595
▁90	-10.4601
▁recording	-10.4602
▁natural	-10.4608
are	-10.4611
▁Summer	-10.4616
▁historical	-10.4617
▁our	-10.4619
▁Traditional	-10.4622
shows	-10.4629
▁map	-10.4631
ara	-10.4633
ised	-10.4633
▁taken	-10.4634
▁winners	-10.4638
/15	-10.4638
Bob	-10.4644
▁length	-10.4647
verseas	-10.4648
▁integration	-10.4648
▁lies	-10.4657
81	-10.466
Mac	-10.4674
▁alt	-10.4675
▁Railways	-10.468
▁Ky	-10.469
ge	-10.4699
▁novels	-10.4709
▁blog	-10.471
▁Academy	-10.4711
▁Scott	-10.4712
guitar	-10.4712
▁officially	-10.473
▁lower	-10.4732
=25	-10.4733
▁Law	-10.4738
▁2014.<	-10.4742
▁Henry	-10.4743
Net	-10.4759
▁General	-10.4775
southern	-10.4775
water	-10.4785
▁OpenSPARC	-10.4786
rought	-10.4786
▁Archive	-10.4798
▁Studies	-10.4808
roy	-10.481
▁books	-10.4815
sq	-10.4821
Red	-10.4829
Year	-10.4831
/2100-101	-10.4831
▁Board	-10.4839
0"|	-10.4857
thing	-10.4859
hr	-10.4872
system	-10.4879
▁red	-10.4881
upload	-10.489
-20	-10.4902
▁partial	-10.491
Andrew	-10.4915
tic	-10.4918
sp	-10.4926
stream	-10.4936
▁l	-10.4961
EC	-10.4964
Josh	-10.497
Dáil	-10.4971
▁Pri	-10.4974
▁olde	-10.4982
hot	-10.4992
▁performances	-10.4994
me	-10.5005
Waterford	-10.5006
playing	-10.5011
color	-10.5016
travel	-10.5018
shtml	-10.5019
region	-10.5021
▁age	-10.5022
Further	-10.5022
Religion	-10.5025
50&	-10.5026
Treaty	-10.5028
Oxford	-10.5029
full	-10.503
Studies	-10.503
development	-10.503
Global	-10.5031
debut	-10.5036
Disney	-10.5037
Rugby	-10.5041
look	-10.5041
information	-10.5042
mode	-10.5042
Empire	-10.5043
Britain	-10.5043
án	-10.5046
run	-10.5058
▁Bot	-10.5064
singer	-10.5077
inal	-10.5083
={{	-10.5087
124	-10.5088
plit	-10.5099
▁2007.<	-10.5099
64-	-10.5106
SW	-10.5107
Wiki	-10.5112
El	-10.5115
▁Mc	-10.5128
rect	-10.5131
You	-10.5132
Air	-10.5133
7)	-10.5151
▁%	-10.5164
▁festivals	-10.5179
08	-10.5182
▁tradition	-10.5185
ard	-10.5188
=2007	-10.519
Hibern	-10.5192
▁newspaper	-10.5193
▁Is	-10.5195
59	-10.5199
5.8	-10.52
▁advance	-10.5202
▁Men	-10.5203
paghetti	-10.5205
grammy	-10.5212
▁Processor	-10.5214
▁Olympic	-10.522
▁Norman	-10.5222
▁client	-10.5225
projects	-10.5232
39	-10.5233
▁attempt	-10.5234
-----------+	-10.5239
ke	-10.5241
▁results	-10.5267
▁influence	-10.527
393	-10.5274
cy	-10.5285
ack	-10.5292
ental	-10.5297
▁Data	-10.53
▁sing	-10.5306
▁offering	-10.5311
start	-10.5315
6&	-10.5325
ell	-10.5329
+-----+-----+	-10.5331
51	-10.5343
▁reduce	-10.5349
▁But	-10.5357
=2008	-10.5358
▁Colleg	-10.5358
▁increase	-10.5364
▁qui	-10.5365
Alex	-10.5367
▁1986	-10.5367
ful	-10.5371
▁Air	-10.5374
ovie	-10.5376
europe	-10.538
prnewswire	-10.5382
▁hear	-10.5382
zeppelin	-10.5383
Timothy	-10.5383
britain	-10.5383
▁Barnacle	-10.5383
▁Computing	-10.5383
▁Pennsylvania	-10.5383
▁Zealand	-10.5383
▁revenue	-10.5383
▁keep	-10.5383
▁merchant	-10.5383
Quote	-10.5383
▁private	-10.5383
▁subsequent	-10.5383
▁mild	-10.5383
▁vector	-10.5383
=1.15|[[	-10.5383
▁Friday	-10.5383
scotland	-10.5383
▁Plus	-10.5383
▁Desktop	-10.5384
Eamon	-10.5384
▁supply	-10.5384
|2007|	-10.5384
ipsum	-10.5385
▁kind	-10.5385
▁Corridor	-10.5385
plus	-10.5386
▁dominate	-10.5387
▁Incident	-10.5388
▁authority	-10.5388
NME	-10.5388
grid	-10.5389
medium	-10.5391
▁Darlings	-10.5392
cfm	-10.5392
▁proba	-10.5392
▁earlier	-10.5396
GUST	-10.5396
▁construct	-10.5401
▁nine	-10.5402
▁Biography	-10.5402
Ma	-10.5402
▁relationship	-10.5402
▁woman	-10.5402
▁conquest	-10.5403
▁NO	-10.5404
▁datacenter	-10.5405
▁Johnson	-10.5405
▁Falls	-10.5406
▁Communications	-10.5407
pair	-10.5407
▁scene	-10.5408
▁Lies	-10.5409
▁Weekly	-10.5411
▁personal	-10.5412
▁action	-10.5413
Gon	-10.5413
▁coin	-10.5413
▁Morris	-10.5416
▁enter	-10.5418
18,	-10.5421
rural	-10.5425
MC	-10.5434
▁Kasdan	-10.5435
▁evidence	-10.5435
▁secret	-10.5435
▁input	-10.5436
▁Complete	-10.5436
▁step	-10.5436
▁requested	-10.5437
▁Set	-10.544
▁works	-10.5447
▁draw	-10.5464
▁environments	-10.5468
▁operations	-10.5469
▁plot	-10.547
▁method	-10.547
gets	-10.5473
▁Ca	-10.5478
▁months	-10.5484
Logic	-10.5488
000	-10.549
▁Davis	-10.5493
).<	-10.5493
▁Rail	-10.5495
▁Process	-10.5501
▁capita	-10.5501
▁quad	-10.5503
▁university	-10.5504
▁arms	-10.5506
▁occur	-10.5506
▁clock	-10.5507
eán	-10.5511
▁({{	-10.5517
▁ethnic	-10.5521
▁34	-10.5531
▁UNIX	-10.5539
▁minim	-10.5542
▁Dar	-10.5546
split	-10.5549
▁Facts	-10.555
▁Tribes	-10.5557
▁UNESCO	-10.5574
aigh	-10.5574
▁Middle	-10.5574
Ian	-10.5578
áin	-10.5582
▁fell	-10.5589
event	-10.56
-16	-10.5603
▁Welcome	-10.5609
Sir	-10.5612
per	-10.5612
▁aim	-10.5617
cd	-10.5633
▁deal	-10.5638
▁Geffen	-10.5644
▁ac	-10.5647
▁76	-10.5647
sys	-10.5652
eX	-10.5655
▁How	-10.5655
CT	-10.5657
▁concerts	-10.5658
▁ME	-10.5658
▁influences	-10.5669
▁Politics	-10.5679
▁Washington	-10.5679
▁Old	-10.5683
▁machines	-10.5689
ut	-10.5693
▁execute	-10.5695
▁Note	-10.5696
▁EP	-10.57
ative	-10.5702
latest	-10.5702
▁collaborat	-10.5704
orry	-10.5707
▁transport	-10.5715
55	-10.5716
▁capture	-10.5721
VIS	-10.5722
▁acts	-10.5722
writer	-10.5723
ates	-10.5727
▁God	-10.5734
▁protect	-10.5742
▁User	-10.5743
ittle	-10.5745
▁Oxford	-10.5751
cording	-10.5751
Pre	-10.5762
Jim	-10.5767
earnings	-10.5773
home	-10.5785
▁poet	-10.5785
▁contemporar	-10.5799
▁levels	-10.5802
]</	-10.581
▁self	-10.5815
2005	-10.5828
FX	-10.5829
'']	-10.5835
eachta	-10.584
00||	-10.5844
rel	-10.5847
speak	-10.5851
mara	-10.5859
actic	-10.586
TV	-10.586
iest	-10.5862
common	-10.5865
River	-10.5869
artist	-10.5869
68	-10.5871
tra	-10.5872
Note	-10.5886
Size	-10.5911
hurling	-10.5913
pool	-10.5917
Classic	-10.5918
▁Ear	-10.5925
▁BBC	-10.5925
▁Joseph	-10.593
Pa	-10.5935
▁55	-10.5936
0.	-10.5943
2009	-10.5947
Multi	-10.5949
▁Li	-10.5952
▁Ro	-10.5953
▁$3	-10.5961
5,000	-10.5969
▁premiere	-10.597
Type	-10.5972
ct	-10.5983
Lawrence	-10.5994
tor	-10.5995
rs	-10.5997
guide	-10.6006
▁score	-10.6008
_3-57	-10.6008
FT	-10.6016
▁Sport	-10.6016
airport	-10.6017
Fort	-10.6024
transport	-10.6029
Prime	-10.6029
Grand	-10.6029
week	-10.603
536	-10.6031
Hotel	-10.6033
multiple	-10.6033
Internet	-10.6035
Radio	-10.6036
cache	-10.6037
radio	-10.6038
Church	-10.6039
Current	-10.604
general	-10.604
OpenSPARC	-10.6041
What	-10.6042
high	-10.6044
About	-10.6044
▁2018}}	-10.6051
Dan	-10.6054
240	-10.606
Wall	-10.6064
Mayor	-10.6073
8-	-10.6075
General	-10.6082
▁1)	-10.6094
SV	-10.61
Philip	-10.6101
▁Roll	-10.6113
▁global	-10.6118
Men	-10.6127
▁Reference	-10.614
▁sp	-10.6143
▁BSD	-10.615
▁wind	-10.6157
▁want	-10.6162
▁review	-10.6179
▁Building	-10.6181
bs	-10.6182
pictures	-10.6187
ward	-10.6191
▁00	-10.6193
▁1984	-10.6194
▁mass	-10.6195
oth	-10.6213
▁Studio	-10.6219
▁manufacturer	-10.6223
ants	-10.6224
ull	-10.6225
▁elect	-10.6227
▁wave	-10.6229
ua	-10.623
▁destination	-10.6233
5%	-10.6236
bio	-10.6244
/2011	-10.6246
=22	-10.6263
ORT	-10.6269
-4}}	-10.6272
▁Hill	-10.6274
ide	-10.6287
▁sector	-10.6287
▁2012.	-10.6291
▁g	-10.6291
▁condition	-10.6296
▁70	-10.6297
inside	-10.63
▁horse	-10.6308
mount	-10.631
;"	-10.6311
▁supercomputer	-10.6311
▁fetch	-10.6315
▁broadcast	-10.6321
Ey	-10.6322
SunOS	-10.6326
float	-10.6331
▁fight	-10.6338
1">{{	-10.6341
▁describ	-10.6357
rill	-10.6357
athedral	-10.636
▁8.	-10.6367
}{	-10.6372
historic	-10.6376
▁except	-10.638
||128||128||	-10.6383
É	-10.6383
gaelic	-10.6383
england	-10.6383
Athenry	-10.6383
Eddie	-10.6383
factbook	-10.6383
INCLUDING	-10.6383
companion	-10.6383
hyperSPARC	-10.6383
orizontal	-10.6383
▁Apostolic	-10.6383
▁District	-10.6383
▁Hospital	-10.6383
▁Quarter	-10.6383
▁parameter	-10.6383
▁populous	-10.6383
junction	-10.6383
flip	-10.6383
drummer	-10.6383
▁Clara	-10.6383
▁aircraft	-10.6383
Waterways	-10.6383
tennis	-10.6383
▁aliqu	-10.6383
/20110719102	-10.6383
▁fifth	-10.6383
▁chose	-10.6383
▁Redistribution	-10.6383
Malley	-10.6383
healthcare	-10.6383
▁permission	-10.6383
Numero	-10.6383
Facebook	-10.6383
visual	-10.6384
▁Awakens	-10.6384
▁capabilities	-10.6384
Connor	-10.6384
cropped	-10.6384
ROI	-10.6384
▁McKen	-10.6384
▁Machine	-10.6384
/2002/	-10.6384
▁Fame	-10.6384
ABILITY	-10.6385
▁necessary	-10.6385
▁PRO	-10.6385
handball	-10.6386
▁/*	-10.6386
▁Charter	-10.6386
Xeon	-10.6387
▁percent	-10.6387
Bruce	-10.6389
▁62	-10.639
▁engineering	-10.639
▁lineup	-10.6391
▁carrie	-10.6393
▁representation	-10.6394
▁Leia	-10.6395
▁channel	-10.6396
48	-10.6397
▁shifter	-10.6398
▁singles	-10.6398
ped	-10.6399
▁GP	-10.6401
default	-10.6401
Brenda	-10.6402
▁already	-10.6404
▁Telegraph	-10.6404
▁Support	-10.6404
8||199	-10.6405
▁mention	-10.6405
▁substantial	-10.6405
▁bishop	-10.6405
▁rise	-10.6406
▁broad	-10.6406
-17	-10.6408
13	-10.6409
▁Le	-10.6411
▁Com	-10.6413
▁direction	-10.6414
covered	-10.643
▁Design	-10.6431
ultural	-10.6433
Gary	-10.6434
NU	-10.6436
▁Land	-10.6438
▁thousand	-10.6441
▁golf	-10.6441
▁slot	-10.6441
▁heritage	-10.6441
▁Wilson	-10.6441
▁fourteen	-10.6442
Derry	-10.6442
▁Truth	-10.6442
CSO	-10.6443
▁xor	-10.6443
▁relations	-10.6444
▁Miller	-10.6444
dy	-10.6444
hamber	-10.6446
▁heard	-10.6448
▁Metropoli	-10.645
eia	-10.645
Images	-10.6452
creative	-10.6454
▁reduced	-10.6454
▁Seven	-10.6456
▁training	-10.6459
/2006-11	-10.6459
UA	-10.6459
▁Rights	-10.6461
▁connections	-10.6461
gb	-10.6471
▁musician	-10.6474
400||	-10.6478
▁Hardiman	-10.6479
▁constant	-10.6479
▁Application	-10.6479
▁genre	-10.6479
▁dependencies	-10.6479
337	-10.6487
▁Reporter	-10.6489
▁Ke	-10.6494
▁38	-10.6499
EB	-10.65
ailing	-10.6502
▁Crim	-10.6504
01	-10.6505
Sea	-10.651
▁venues	-10.6513
▁typical	-10.6517
Code	-10.6518
▁summer	-10.6518
classical	-10.6518
▁Galaxy	-10.6518
▁laws	-10.6521
▁empire	-10.6521
▁metal	-10.6523
]].{{	-10.6526
▁fa	-10.6527
▁sixth	-10.6543
Chips	-10.6544
ritannica	-10.6547
ney	-10.655
rah	-10.655
▁GPL	-10.6559
▁true	-10.6561
▁channels	-10.6565
wp	-10.6566
cn	-10.6567
▁Take	-10.6568
Nick	-10.6571
/2/	-10.6573
▁FOR	-10.6575
▁audio	-10.658
inancial	-10.6586
dq	-10.6589
▁effects	-10.659
▁body	-10.6593
▁wrote	-10.6595
▁merger	-10.6595
▁Santa	-10.6597
▁region	-10.6599
▁Long	-10.66
1|	-10.6602
▁Part	-10.6609
ling	-10.661
2011|	-10.6614
▁ut	-10.6633
▁movie	-10.6645
Cen	-10.6645
bly	-10.6657
▁linking	-10.666
Earl	-10.667
▁microprocessors	-10.6674
7.	-10.6676
ha	-10.668
Her	-10.6708
▁Photo	-10.6715
sure	-10.6718
To	-10.672
▁weeks	-10.6721
42	-10.673
▁Get	-10.674
hall	-10.6749
▁Grand	-10.6751
▁Prime	-10.6752
moving	-10.6752
▁fire	-10.6755
▁speak	-10.6756
Bus	-10.6762
African	-10.6762
/2014/	-10.6773
PC	-10.6783
03/	-10.6788
▁Treaty	-10.6794
▁earn	-10.6803
▁courts	-10.6815
Lo	-10.6826
ni	-10.683
▁=====	-10.6833
▁41	-10.685
/2010/	-10.685
urke	-10.6854
gh	-10.6861
▁double	-10.6863
spring	-10.6869
ected	-10.6878
Forte	-10.688
7%	-10.6881
75	-10.69
|2|	-10.69
▁Clones	-10.6903
tive	-10.6907
▁compil	-10.6913
▁San	-10.6922
record	-10.6933
▁66	-10.6937
▁2009|	-10.6941
▁Event	-10.6944
/2007-0	-10.6952
▁digital	-10.6953
▁arm	-10.6955
area	-10.6958
▁face	-10.696
▁Bru	-10.6961
computing	-10.6965
rt	-10.6969
zd	-10.6972
science	-10.6974
Te	-10.6975
26.	-10.6975
Report	-10.6975
▁EE	-10.6984
festival	-10.6984
46/	-10.7004
Class	-10.7007
amp	-10.7008
earce	-10.7012
ization	-10.7023
Glasgow	-10.7026
Tudor	-10.7029
doi	-10.7039
▁RT	-10.7044
ough	-10.7045
▁edition	-10.7051
auto	-10.7057
ife	-10.7061
▁Duff	-10.7069
Member	-10.7073
▁555	-10.7081
Arthur	-10.7083
erra	-10.7087
normal	-10.7088
od	-10.7088
change	-10.7097
special	-10.7099
Country	-10.7105
▁gone	-10.711
For	-10.7117
Berkeley	-10.7117
▁origin	-10.7123
NetDynamics	-10.7125
Bermuda	-10.7125
Tarantella	-10.7125
▁|{{	-10.7126
▁-17	-10.7128
Douglas	-10.713
▁Bill	-10.713
Good	-10.7132
Environment	-10.7133
Lough	-10.7136
UltraSparc	-10.7136
White	-10.7138
Green	-10.7138
Politics	-10.714
Washington	-10.714
139	-10.714
ad	-10.7141
says	-10.7142
Henry	-10.7142
Data	-10.7142
resources	-10.7143
documentation	-10.7143
Old	-10.7143
Modern	-10.7144
founder	-10.7144
Lucasfilm	-10.7144
men	-10.7144
find	-10.7145
food	-10.7147
font	-10.7148
label	-10.7151
Architecture	-10.7151
Europe	-10.7151
AMD	-10.7152
community	-10.7152
market	-10.7152
024	-10.7154
Wales	-10.7155
Ray	-10.7155
HPC	-10.7156
which	-10.7156
Microsystems	-10.7157
70	-10.7158
▁Commonwealth	-10.7158
two	-10.7158
God	-10.7161
Not	-10.7163
Network	-10.7165
Con	-10.7166
▁pass	-10.7166
29/	-10.7168
▁Mary	-10.7173
Land	-10.7177
putation	-10.7188
Announces	-10.7193
sub	-10.7194
▁Pre	-10.7195
best	-10.7199
▁2006|	-10.7219
=2011	-10.7219
511	-10.7225
▁net	-10.7265
beat	-10.7268
▁creator	-10.7278
▁hir	-10.7286
▁collaboration	-10.7286
▁select	-10.7287
▁21-	-10.7295
EP	-10.7296
▁effect	-10.7299
ounties	-10.73
▁brief	-10.7301
;<	-10.7303
groups	-10.731
ns	-10.7314
▁Song	-10.732
Sam	-10.7333
MT	-10.7333
arna	-10.7335
our	-10.7341
BM	-10.7348
ana	-10.7349
ambl	-10.7351
▁religion	-10.7352
Roses	-10.738
we	-10.7388
Normans	-10.7389
lists	-10.739
ven	-10.7397
aid	-10.7402
▁port	-10.7408
/2005	-10.7413
▁card	-10.7414
▁Rain	-10.7426
▁block	-10.743
);	-10.7432
lin	-10.7434
▁Mark	-10.7435
▁endorse	-10.7436
videos	-10.7437
▁stop	-10.7437
Uni	-10.7438
Commons	-10.7438
▁specifi	-10.7447
):	-10.7455
▁improve	-10.746
ered	-10.7461
▁Even	-10.7464
ish	-10.7471
erial	-10.7472
▁**	-10.7474
▁broke	-10.748
▁chart	-10.748
▁exp	-10.7483
ogg	-10.7483
▁heav	-10.7484
BA	-10.7485
sumption	-10.7486
▁favor	-10.7492
sa	-10.7493
Cloud	-10.7494
SERVICES	-10.7494
unesco	-10.7494
snags	-10.7494
/2100-1010_3-5	-10.7494
Pitchfork	-10.7494
RTÉ	-10.7494
nominees	-10.7494
/2100-1001_3-21	-10.7494
Hardware	-10.7494
rancept	-10.7494
▁Administrator	-10.7494
▁Identity	-10.7494
▁Meyrick	-10.7494
▁Trilogy	-10.7494
▁amateur	-10.7494
▁fifteen	-10.7494
▁honour	-10.7494
▁philosophy	-10.7494
▁suggest	-10.7494
▁Innotek	-10.7494
▁Previously	-10.7494
▁behalf	-10.7494
outfit	-10.7494
Phantom	-10.7494
▁Knock	-10.7494
▁poem	-10.7494
▁Vaau	-10.7494
▁crown	-10.7494
▁decline	-10.7494
snaps	-10.7494
soccer	-10.7494
▁prominen	-10.7494
john	-10.7494
Migration	-10.7494
unix	-10.7494
comicbook	-10.7494
▁Actress	-10.7494
▁Macken	-10.7494
▁barrel	-10.7494
▁families	-10.7494
olorado	-10.7494
▁merged	-10.7494
▁cannons	-10.7495
▁enough	-10.7495
406816581	-10.7495
▁Collection	-10.7495
nominal	-10.7495
▁defeat	-10.7495
temperate	-10.7495
ORY	-10.7495
▁Territor	-10.7496
▁Worldwide	-10.7496
codename	-10.7496
lust	-10.7496
▁sail	-10.7496
jan	-10.7497
▁counties	-10.7497
Cannon	-10.7497
northernireland	-10.7497
▁Mór	-10.7497
ensis	-10.7497
▁regular	-10.7497
illumos	-10.7497
5440	-10.7498
▁Present	-10.7498
▁rack	-10.7498
Item	-10.7498
SPARCstation	-10.7498
▁deep	-10.7499
▁serving	-10.7499
▁Innovation	-10.7499
▁attractions	-10.7499
iPlanet	-10.75
cgi	-10.75
▁digitiz	-10.7501
FIFA	-10.7501
Apple	-10.7501
▁startup	-10.7502
VH	-10.7503
Lustre	-10.7504
Proposed	-10.7505
▁emerged	-10.7505
▁Sessions	-10.7505
.200802	-10.7509
parliamentary	-10.7509
database	-10.7511
▁struggle	-10.7511
▁Newman	-10.7512
20/	-10.7514
phone	-10.7514
▁SPARCserver	-10.7515
▁saying	-10.7515
▁Moon	-10.7515
firm	-10.7515
500.	-10.7516
▁availability	-10.7516
announces	-10.7516
isra	-10.7517
▁appliance	-10.7517
AOL	-10.7517
dak	-10.7518
▁Antarctic	-10.7518
deaner	-10.7518
▁sequence	-10.7518
Recitals	-10.7518
▁medal	-10.7518
▁Morgan	-10.7518
▁Cohen	-10.7518
300	-10.7519
▁Reagan	-10.7519
▁intelligen	-10.7519
▁Revolution	-10.752
6144	-10.7523
▁o	-10.7523
feed	-10.7524
Chorus	-10.7525
▁Sch	-10.7525
fall	-10.7526
▁formation	-10.7526
▁Alternative	-10.7527
Opensolaris	-10.7528
▁decode	-10.7528
▁McG	-10.7529
▁heavy	-10.7531
▁permanent	-10.7535
/~	-10.7537
▁Christian	-10.7537
▁increased	-10.7542
mail	-10.7542
▁kingdoms	-10.7542
StarWars	-10.7544
▁dance	-10.7551
act	-10.7557
▁65	-10.7559
▁Yoda	-10.756
▁referendum	-10.756
▁1000	-10.756
▁money	-10.756
BUT	-10.7561
Threads	-10.7562
▁Britannica	-10.7563
▁1973	-10.7564
/2004-0	-10.7565
SuperSPARC	-10.7566
▁Rebels	-10.7566
▁1978	-10.7567
–10	-10.7567
/2008-	-10.7568
▁reading	-10.7572
SEA	-10.7572
▁call	-10.7573
111	-10.7577
▁operands	-10.7582
/2017/	-10.7583
▁licenses	-10.7583
▁edge	-10.7585
600||	-10.7585
8%	-10.7586
lob	-10.759
75,000	-10.759
greatest	-10.759
▁king	-10.7591
625	-10.7591
▁Blue	-10.7593
▁latter	-10.7602
▁Cluster	-10.7602
▁Jones	-10.7605
▁Fisher	-10.7606
▁Metal	-10.7607
▁comic	-10.7608
▁0000001	-10.7617
▁files	-10.7617
▁Gaillimh	-10.7619
▁save	-10.762
▁Comic	-10.762
Try	-10.7623
▁seem	-10.7631
Australia	-10.7638
▁Harris	-10.7638
▁man	-10.7639
rann	-10.7643
wire	-10.7644
▁Taylor	-10.7646
▁Standard	-10.7646
▁universe	-10.7646
actually	-10.7649
▁influenced	-10.7651
▁Role	-10.7653
rte	-10.766
▁remember	-10.7662
1"/>	-10.7663
▁stock	-10.7666
▁match	-10.7675
▁Comics	-10.7678
ments	-10.7679
larger	-10.7684
ori	-10.7687
▁Access	-10.7689
▁Olympics	-10.7699
▁quite	-10.7701
NI	-10.7712
journals	-10.7722
▁Protestant	-10.7725
bin	-10.7726
▁Here	-10.7729
▁street	-10.7733
▁Instruction	-10.7733
▁SeeBeyond	-10.7733
▁cores	-10.774
▁citizens	-10.7742
asda	-10.7742
▁IS	-10.7744
▁fans	-10.775
▁friends	-10.775
1011	-10.7754
▁fact	-10.7758
get	-10.7759
breaking	-10.7763
▁Article	-10.7777
▁Crown	-10.7777
▁Vol	-10.7777
temporary	-10.7788
2006	-10.779
▁Map	-10.7791
nom	-10.7792
▁forces	-10.7807
▁1989	-10.7811
390	-10.7812
PU	-10.7816
▁Battle	-10.7822
1841	-10.7832
elle	-10.7834
Kings	-10.7838
pubs	-10.7845
.200	-10.7845
▁chips	-10.7847
▁Lord	-10.7849
76	-10.7855
2-	-10.786
proved	-10.7863
▁UltraSparc	-10.7866
▁White	-10.7874
▁Du	-10.7876
ecia	-10.7891
Fi	-10.7892
;1	-10.7895
=2011|	-10.79
94	-10.7907
ax	-10.7914
▁Count	-10.7915
▁things	-10.7919
app	-10.792
▁airport	-10.792
Loca	-10.7921
▁2012}}<	-10.7927
▁[[2016	-10.7941
ohl	-10.7952
▁Religion	-10.7955
Birth	-10.7957
▁Wall	-10.7961
34/	-10.7961
albums	-10.7963
▁Su	-10.7964
ities	-10.797
▁Sciences	-10.7979
wiki	-10.7995
not	-10.7998
▁Bus	-10.8004
ik	-10.8008
LA	-10.8012
▁errors	-10.802
▁editor	-10.8027
610	-10.8031
eeney	-10.8038
lyn	-10.8048
SC	-10.8048
IDE	-10.8055
ica	-10.8063
ak	-10.8068
reviews	-10.808
▁Stones	-10.8081
▁locations	-10.8106
isation	-10.8114
nu	-10.812
review	-10.8123
cie	-10.8147
late	-10.8153
ym	-10.8158
▁135	-10.8162
▁NA	-10.817
ulla	-10.8174
als	-10.8194
workstation	-10.82
▁2005|	-10.8205
titled	-10.8208
DB	-10.8208
final	-10.821
window	-10.8213
0,000	-10.8216
▁row	-10.8218
Game	-10.8221
▁Culture	-10.8229
word	-10.8235
report	-10.8236
Film	-10.8237
407	-10.8237
min	-10.8239
developing	-10.824
island	-10.824
rant	-10.8252
▁16-	-10.8267
brand	-10.8275
2007	-10.8285
royal	-10.8289
▁Tim	-10.8295
▁worked	-10.8308
▁2015.<	-10.8314
2014	-10.8319
▁Welsh	-10.8321
Ward	-10.8331
▁Forces	-10.8332
Kilkenny	-10.8334
YouTube	-10.8334
mouth	-10.8337
2%	-10.8339
Tor	-10.8344
rowing	-10.8347
Adam	-10.8356
eca	-10.8359
GNR	-10.8359
9|	-10.8362
2.3	-10.8362
Kee	-10.8363
.1	-10.8365
=2017-0	-10.8366
Foreign	-10.8367
Just	-10.8369
▁Rec	-10.837
redevelopment	-10.8371
Countries	-10.8375
Globe	-10.8375
Simon	-10.8375
3522	-10.8376
▁Due	-10.8378
▁Cu	-10.8379
Human	-10.838
Shannon	-10.8381
1]]	-10.8382
Battle	-10.8386
Isle	-10.8386
month	-10.8386
double	-10.8387
428	-10.8387
forest	-10.8389
Geffen	-10.839
East	-10.839
Andy	-10.8391
SU	-10.8392
Academy	-10.8392
Canada	-10.8394
Scott	-10.8394
Bypass	-10.8394
How	-10.8395
multi	-10.8397
caption	-10.8397
Hollywood	-10.8397
Science	-10.8399
technology	-10.8399
Encyclopedia	-10.8401
Castle	-10.8401
fiction	-10.8401
offset	-10.8402
written	-10.8402
Template	-10.8402
Young	-10.8403
Club	-10.8403
Hot	-10.8404
nations	-10.8411
▁Cray	-10.842
9,	-10.8421
▁da	-10.8422
next	-10.8422
Table	-10.8431
▁Play	-10.8433
;16	-10.8433
▁child	-10.844
Minister	-10.8453
133	-10.8454
IV	-10.8458
▁1981	-10.8458
1989	-10.8468
44	-10.847
that	-10.8474
36	-10.8475
▁simple	-10.8476
▁Image	-10.848
energy	-10.8484
Plan	-10.8485
station	-10.8486
▁Release	-10.8494
importan	-10.8495
services	-10.8503
▁gre	-10.8515
blog	-10.8516
comics	-10.8518
▁noted	-10.8519
▁10.	-10.852
/201301191	-10.8527
▁pay	-10.8529
Ex	-10.8538
▁discussion	-10.854
edited	-10.8541
▁93	-10.8551
AS	-10.8554
▁course	-10.8573
Midland	-10.8573
mber	-10.8574
▁movement	-10.8574
▁continue	-10.8575
▁problem	-10.8576
▁student	-10.858
▁Motor	-10.858
▁venue	-10.8582
▁nomination	-10.8587
▁Cor	-10.8597
▁Programm	-10.8602
active	-10.8605
atha	-10.8606
▁Race	-10.8616
Ja	-10.8622
ural	-10.8623
▁producer	-10.8626
GS	-10.863
▁fan	-10.8632
▁council	-10.8633
Har	-10.8634
systems	-10.8638
inary	-10.8654
______________	-10.8655
springs	-10.8656
sic	-10.8658
▁Emmy	-10.8659
gti	-10.867
5.	-10.867
▁air	-10.8676
24||	-10.8682
nc	-10.8684
▁compet	-10.8684
▁+------	-10.8689
378	-10.869
▁discuss	-10.8696
Gaeltacht	-10.8697
▁respond	-10.8698
▁establish	-10.87
▁purpose	-10.8707
▁responsibilit	-10.8708
HC	-10.8709
eluxe	-10.8712
▁Direct	-10.8715
evil	-10.8727
▁creat	-10.8728
567	-10.8729
nvestor	-10.8731
▁administrati	-10.8735
400	-10.8735
quotes	-10.8736
▁freight	-10.8738
utch	-10.8739
raffic	-10.8742
▁difficult	-10.8742
▁express	-10.8742
arious	-10.8742
▁3.141	-10.8743
▁basic	-10.8744
ssels	-10.8744
glory	-10.8744
michael	-10.8744
frontcover	-10.8744
beautiful	-10.8744
gloom	-10.8744
Corporat	-10.8744
industries	-10.8744
2004040	-10.8744
disestablished	-10.8744
▁dialects	-10.8744
Iarnród	-10.8744
Tipperary	-10.8744
▁enhance	-10.8744
500-2011-06"	-10.8744
500-2012-11"	-10.8744
Bohermore	-10.8744
Frequency	-10.8744
Shameless	-10.8744
Siobh	-10.8744
Variety	-10.8744
recognition	-10.8744
socket	-10.8744
stanford	-10.8744
▁Adobe	-10.8744
▁Extensions	-10.8744
▁Gavin	-10.8744
▁IMPLIED	-10.8744
▁Kenobi	-10.8744
▁Piazza	-10.8744
▁WARRANTIES	-10.8744
▁complement	-10.8744
▁effort	-10.8744
▁instead	-10.8744
Éamon	-10.8744
▁Conference	-10.8744
▁circle	-10.8744
▁extant	-10.8744
▁extensive	-10.8744
▁weapons	-10.8744
autogenerated	-10.8744
gunsnroses	-10.8744
▁Devon	-10.8744
▁Heuston	-10.8744
boardgame	-10.8744
Cobham	-10.8744
▁Website	-10.8744
british	-10.8744
telegraph	-10.8744
Transistors	-10.8744
▁Medicine	-10.8744
presence	-10.8744
▁acclaim	-10.8744
▁capacity	-10.8744
Clear	-10.8744
beyond	-10.8744
▁affect	-10.8744
rising	-10.8744
▁changing	-10.8744
▁3.141592653589	-10.8744
lesias	-10.8744
▁commod	-10.8744
dominant	-10.8744
▁equal	-10.8744
▁Furey	-10.8744
▁Distribution	-10.8744
▁demand	-10.8744
IGHT	-10.8744
Guinness	-10.8745
▁extra	-10.8745
trunk	-10.8745
--||--	-10.8745
4096||	-10.8745
▁Fitz	-10.8745
alph	-10.8745
LSI	-10.8745
connacht	-10.8745
▁(2010)	-10.8745
▁compatible	-10.8745
ixfx	-10.8745
Guiry	-10.8745
inquirer	-10.8745
▁Copyright	-10.8745
▁Sunrise	-10.8745
ythm	-10.8746
▁Or	-10.8746
▁Engineering	-10.8748
ending	-10.8748
iol	-10.8748
▁disk	-10.8749
vii	-10.8749
foli	-10.875
Geoff	-10.8751
Largest	-10.8752
▁invoked	-10.8752
Ern	-10.8752
/36	-10.8752
();	-10.8753
▁domain	-10.8753
▁Revealed	-10.8753
Dominic	-10.8753
Polydor	-10.8754
▁1959	-10.8754
▁discovered	-10.8754
▁mix	-10.8754
▁hours	-10.8755
▁Army	-10.8755
overseas	-10.8756
▁(2012)	-10.8758
▁(2002)	-10.8758
▁1851,	-10.8758
Interscope	-10.8759
▁accepted	-10.8759
KL	-10.8761
waterway	-10.8762
▁Engine	-10.8762
Regular	-10.8763
▁dropp	-10.8763
▁derived	-10.8764
▁command	-10.8764
Parking	-10.8769
Allmusic	-10.877
▁1960	-10.8771
trib	-10.8771
▁Garden	-10.8771
▁Trunk	-10.8771
▁Collins	-10.8771
▁Helena	-10.8771
▁renowned	-10.8771
▁Hamilton	-10.8772
▁Protection	-10.8772
▁transfer	-10.8772
2002	-10.8772
▁Fett	-10.8773
▁boom	-10.8773
2004/	-10.8776
threading	-10.8776
▁Things	-10.8776
▁Settlement	-10.8776
▁Burke	-10.8777
slash	-10.8778
▁Domains	-10.8778
▁Thal	-10.8778
▁(''[[	-10.878
▁Harrison	-10.878
▁employees	-10.8781
ailscot	-10.8782
▁Add	-10.8783
▁Gaeltacht	-10.8786
▁parties	-10.8789
bold	-10.879
FreeBSD	-10.8793
245	-10.8793
collapsed	-10.8797
ACC	-10.8799
▁involved	-10.88
ville	-10.8803
uff	-10.8805
chell	-10.8807
creation	-10.8814
▁GU	-10.8816
▁Browne	-10.8816
60||	-10.8817
▁sovereignty	-10.8819
▁XIfx	-10.8819
▁IXfx	-10.8819
▁escape	-10.8819
▁Christianity	-10.882
▁minority	-10.882
efore	-10.8823
ier	-10.8823
▁debts	-10.8824
▁Four	-10.8824
▁consec	-10.8824
MGW	-10.8825
▁Heav	-10.8827
▁compiler	-10.883
=1994	-10.8831
CD	-10.8836
32-	-10.884
▁towards	-10.884
▁publishing	-10.8842
Bally	-10.8845
||64||32||	-10.8848
▁winter	-10.8849
four	-10.8855
▁Q	-10.8861
17/	-10.8861
solaris	-10.8862
▁4.1	-10.8863
▁Industry	-10.8868
▁margin	-10.8868
▁security	-10.8868
▁layoffs	-10.8868
▁Resources	-10.8868
▁quality	-10.8868
▁distinct	-10.8869
▁matters	-10.8872
3|	-10.8872
▁tourism	-10.8873
152	-10.8878
▁Dh	-10.8888
▁Save	-10.8892
▁originat	-10.8893
lá	-10.8898
314	-10.8899
5)	-10.89
sion	-10.8901
▁gold	-10.8901
▁school	-10.8901
20%	-10.8901
fired	-10.8904
▁fl	-10.8906
▁students	-10.8911
▁Races	-10.8912
▁blue	-10.8913
reveals	-10.8916
▁bridge	-10.8918
▁object	-10.8918
ah	-10.8921
Conne	-10.8923
▁founders	-10.8924
DG	-10.8925
▁night	-10.8926
▁pure	-10.893
▁Lords	-10.8931
▁</	-10.8942
▁ball	-10.8947
▁Ga	-10.8947
▁occasional	-10.8952
etc	-10.8952
▁Dean	-10.8952
print	-10.8953
▁manufacturers	-10.8956
utc	-10.8956
SMP	-10.896
▁196	-10.896
▁Ren	-10.8961
▁Isle	-10.8963
▁Kerry	-10.8965
▁Harbour	-10.8967
▁density	-10.8967
1997	-10.8971
1951	-10.8973
▁Us	-10.8975
▁Studios	-10.8984
▁Eyes	-10.8992
27	-10.8993
▁newspapers	-10.9001
▁grey	-10.9006
sunw	-10.9007
shore	-10.901
room	-10.9015
▁hub	-10.9016
▁chapter	-10.9018
▁Texas	-10.9018
▁decades	-10.9024
TAL	-10.9024
08.	-10.9024
▁founder	-10.904
▁fel	-10.9043
380	-10.9056
assist	-10.9063
▁Virtual	-10.9064
Cook	-10.9066
ONS	-10.9068
+]]	-10.907
▁option	-10.9072
$1	-10.9078
▁foot	-10.9079
▁sessions	-10.908
▁PCs	-10.9081
iv	-10.9083
=2013	-10.9087
▁directors	-10.9089
▁Carn	-10.9094
Vin	-10.9103
Man	-10.911
nium	-10.911
Di	-10.9111
▁away	-10.9114
-8	-10.9123
ab	-10.9124
288	-10.9126
AD	-10.9128
Mar	-10.9128
/2010	-10.9133
Weir	-10.9144
▁Steven	-10.9144
=0	-10.915
|30	-10.9159
▁opposit	-10.9161
▁Andy	-10.9168
▁Environment	-10.9169
▁Lough	-10.9174
▁7.	-10.9178
▁Days	-10.9185
privileged	-10.9185
=2016	-10.9187
273	-10.9191
315	-10.9194
90	-10.9208
07/	-10.9209
2015-	-10.9217
EW	-10.9223
▁head	-10.9223
▁passengers	-10.923
▁thing	-10.924
▁picture	-10.9243
▁123	-10.9243
▁th	-10.9245
kr	-10.9248
▁intent	-10.9261
notes	-10.9262
uddy	-10.9263
onald	-10.9264
▁Further	-10.9272
1990	-10.928
IME	-10.9283
▁rele	-10.9283
55.	-10.9284
geo	-10.9286
▁words	-10.9296
ám	-10.9297
▁Vince	-10.9301
▁needs	-10.9315
▁tracks	-10.9317
▁Stanford	-10.9324
▁Hat	-10.9326
▁act	-10.9333
▁listed	-10.9339
4500	-10.934
finally	-10.9346
Opening	-10.9361
2015	-10.9363
AP	-10.9372
▁education	-10.9376
▁(17	-10.9378
NT	-10.9385
▁Fin	-10.939
byte	-10.9395
-39	-10.9402
▁Arm	-10.9402
52/	-10.9407
|15	-10.9407
-25	-10.9409
▁Ath	-10.941
▁MB	-10.9416
HS	-10.9418
169	-10.9423
▁efficien	-10.9424
USA	-10.9428
/2011-	-10.943
Spin	-10.9432
hc	-10.9436
Rain	-10.9439
▁organis	-10.9452
311	-10.9453
trud	-10.9459
IC	-10.9472
India	-10.9481
aí	-10.9488
▁180	-10.9493
▁-->|	-10.9502
ston	-10.9504
▁premier	-10.951
2</	-10.9513
▁designs	-10.9513
▁Wee	-10.9513
Comic	-10.9515
place	-10.9515
former	-10.9518
3.0	-10.9518
director	-10.9531
tri	-10.9533
▁People	-10.9534
tenant	-10.9543
▁Lu	-10.9544
Id	-10.9547
▁referr	-10.955
222	-10.955
ented	-10.9551
js	-10.9559
▁releases	-10.9561
Fin	-10.9561
142	-10.957
▁sw	-10.9574
take	-10.9576
▁Championships	-10.9583
▁hop	-10.9584
ND	-10.9586
UC	-10.9587
99	-10.9591
Ed	-10.9593
cha	-10.9601
box	-10.9605
sent	-10.9609
bo	-10.961
mar	-10.9613
4&	-10.9617
200	-10.9619
Book	-10.962
years	-10.9626
▁lives	-10.9628
▁voice	-10.9629
▁Ob	-10.9635
school	-10.9637
Language	-10.9656
▁Non	-10.9657
Mel	-10.9667
Mal	-10.9667
break	-10.967
▁87	-10.9673
dot	-10.9678
▁fore	-10.9678
85	-10.9684
war	-10.969
selected	-10.9695
der	-10.9702
Alf	-10.9702
Lisa	-10.9707
Eminem	-10.971
MP	-10.9712
ler	-10.9716
12.	-10.9719
80.	-10.9727
ory	-10.9738
▁male	-10.9743
ood	-10.9749
Jan	-10.9757
Authority	-10.9763
Louis	-10.9764
▁2011.<	-10.9764
black	-10.9766
▁got	-10.9772
Ash	-10.9776
limit	-10.9778
Met	-10.9782
ertical	-10.9782
*	-10.9783
GMIT	-10.9786
songwriter	-10.9787
Jer	-10.9787
super	-10.979
graduat	-10.9795
Bumblefoot	-10.9796
Joel	-10.9797
Tuam	-10.9797
ethnicity	-10.9797
Aerosmith	-10.9797
you	-10.9799
Beautiful	-10.9803
environment	-10.9804
INTER	-10.9804
sup	-10.9806
Leinster	-10.9808
DVD	-10.9808
Blake	-10.9809
square	-10.9809
women	-10.981
official	-10.981
inline	-10.9812
sessions	-10.9813
canceled	-10.9814
Article	-10.9815
Crown	-10.9815
option	-10.9817
Welcome	-10.9818
Tribes	-10.9823
Today	-10.9824
reason	-10.9824
▁platforms	-10.9825
Civil	-10.9826
Atlantic	-10.9827
above	-10.9828
club	-10.9828
Index	-10.9828
Playskool	-10.9829
Life	-10.983
Corrib	-10.983
programming	-10.983
Software	-10.9831
Court	-10.9831
Print	-10.9831
published	-10.9833
number	-10.9836
regional	-10.9836
Text	-10.9837
▁uni	-10.9838
officially	-10.984
16.	-10.9845
Vol	-10.9853
linton	-10.9857
▁Di	-10.9858
iss	-10.9861
original	-10.9866
Cities	-10.9867
BE	-10.9872
25/	-10.9874
Mayo	-10.9874
scal	-10.9882
▁Ka	-10.9882
Rey	-10.9882
gram	-10.9883
lso	-10.9884
19/	-10.9887
▁Come	-10.9889
256	-10.9894
ode	-10.9898
▁350	-10.9898
▁populations	-10.99
add	-10.9906
▁Education	-10.9912
UN	-10.9913
bber	-10.992
386	-10.9925
mp	-10.9926
low	-10.9927
doe	-10.993
135	-10.9936
▁Millen	-10.9945
comic	-10.9951
user	-10.9952
▁MA	-10.9958
▁letter	-10.9966
Falkland	-10.9968
Victoria	-10.9969
ti	-10.9974
▁Record	-10.9987
234	-10.9988
▁keyboard	-10.9988
hold	-10.999
9.1	-10.9995
▁matche	-10.9995
pensolaris	-10.9996
Languages	-10.9998
▁league	-10.9999
▁prequel	-11.0002
politic	-11.0005
▁ban	-11.0005
biography	-11.0006
▁successor	-11.0008
acts	-11.0013
▁adds	-11.0014
▁celebrate	-11.0015
TS	-11.0016
▁association	-11.0019
2||	-11.0021
ust	-11.0022
143	-11.0024
wi	-11.0028
ez	-11.0034
silver	-11.0035
▁Workstation	-11.0038
-12-	-11.0039
▁refer	-11.0044
▁document	-11.0053
gan	-11.0054
There	-11.0058
tended	-11.0061
▁facilit	-11.0074
▁rem	-11.0076
295	-11.0079
TC	-11.0081
mas	-11.0083
turned	-11.0086
2012/	-11.0092
ane	-11.01
birth	-11.0108
fix	-11.0109
things	-11.0113
▁bi	-11.0116
▁subtract	-11.0118
▁feel	-11.0118
▁controlle	-11.0123
▁finish	-11.0127
Yo	-11.013
▁Mi	-11.0131
▁Will	-11.0136
elebration	-11.0137
1,000	-11.0145
dvocate	-11.0145
▁Compani	-11.0152
▁tur	-11.0152
▁sum	-11.0152
04	-11.0156
ndustrial	-11.0165
▁3.14	-11.0166
vant	-11.017
ollaboration	-11.0171
ISE	-11.0171
drew	-11.0171
basics	-11.0172
▁Secret	-11.0172
▁competitive	-11.0172
▁calendar	-11.0173
Amateur	-11.0173
LaFace	-11.0173
Niagara	-11.0173
Renaissance	-11.0173
Summary	-11.0173
lightsaber	-11.0173
▁Menace	-11.0173
▁THIS	-11.0173
▁Thursday	-11.0173
▁approach	-11.0173
▁harbour	-11.0173
▁module	-11.0173
▁occup	-11.0173
▁potential	-11.0173
▁swimming	-11.0173
Tropico	-11.0173
▁Spain	-11.0173
▁favour	-11.0173
Bouzereau	-11.0173
▁Oregon	-11.0173
▁harness	-11.0173
▁territory	-11.0173
▁Anthem	-11.0173
▁foreign	-11.0173
ireann	-11.0173
honeymoon	-11.0173
▁CEO	-11.0173
▁Utada	-11.0173
▁LIMIT	-11.0173
playskool	-11.0173
%20-%20	-11.0173
▁front	-11.0173
jonathan	-11.0173
sanjose	-11.0173
▁1/13	-11.0173
▁circulation	-11.0173
▁cuisine	-11.0173
▁switch	-11.0173
▁provision	-11.0173
▁prevail	-11.0173
Family	-11.0173
▁abandon	-11.0173
▁twenty	-11.0173
▁saint	-11.0173
washingtonpost	-11.0173
▁Ferrer	-11.0173
blockquote	-11.0173
exec	-11.0173
▁Guest	-11.0173
▁Reese	-11.0173
▁surround	-11.0173
grade	-11.0173
▁Defini	-11.0173
▁multiplication	-11.0173
Brandon	-11.0173
▁defunct	-11.0173
▁Alliance	-11.0173
1457	-11.0173
▁Appeal	-11.0174
Connell	-11.0174
▁Trauma	-11.0174
uburbs	-11.0174
subdivision	-11.0174
piracy	-11.0174
pride	-11.0174
bury	-11.0174
▁Flannery	-11.0174
▁1845	-11.0174
▁12528	-11.0174
=2680	-11.0174
▁Abrams	-11.0175
▁Jose	-11.0175
▁stating	-11.0175
always	-11.0175
▁construction	-11.0175
4645	-11.0175
appoint	-11.0176
Martyn	-11.0176
Nobel	-11.0176
▁approval	-11.0176
▁Price	-11.0176
ULT	-11.0176
▁upper	-11.0176
3555	-11.0177
european	-11.0177
Dynamic	-11.0177
ervu	-11.0177
superior	-11.0177
▁comment	-11.0178
Craig	-11.0178
Thrawn	-11.0178
classified	-11.0178
▁Canal	-11.0178
indef	-11.0178
▁Rua	-11.0179
nuclear	-11.0179
▁accuracy	-11.0179
▁manager	-11.0179
▁performers	-11.018
MMU	-11.0181
▁1152	-11.0181
▁Heaven	-11.0181
AAQ	-11.0182
▁Than	-11.0182
nik	-11.0182
Da	-11.0183
▁Bowl	-11.0183
▁campuses	-11.0183
▁descent	-11.0183
ICT	-11.0184
Legacy	-11.0184
lternative	-11.0184
ANN	-11.0184
RCH	-11.0184
bonus	-11.0185
|0}}	-11.0186
/2009011	-11.0187
▁(2004)	-11.0187
▁Dála	-11.0187
▁Affairs	-11.0187
files	-11.0187
7853	-11.0189
IRE	-11.0191
▁Lo	-11.0192
▁censuses	-11.0194
layer	-11.0195
bail	-11.0195
PO	-11.0195
issa	-11.0195
msn	-11.0196
chamber	-11.0198
▁hunt	-11.0198
▁1801	-11.0199
Mil	-11.0199
Newark	-11.0201
nant	-11.0201
▁Administratio	-11.0202
52	-11.0202
▁wood	-11.0203
▁mountain	-11.0203
▁Pa	-11.0204
▁Documentation	-11.0205
▁Natural	-11.0205
▁drums	-11.0205
▁destroy	-11.0205
▁defence	-11.0205
▁buses	-11.0205
▁internal	-11.0205
▁lake	-11.0205
▁Meath	-11.0205
▁Musicians	-11.0205
▁Gael	-11.0206
RCA	-11.0207
▁Doyle	-11.0207
▁Grant	-11.0207
▁miss	-11.0207
▁IRA	-11.0208
▁coastline	-11.0208
AM	-11.0208
▁Paper	-11.0209
▁career	-11.0209
NES	-11.0209
▁Lane	-11.021
▁overall	-11.021
▁disclaimer	-11.0212
▁novelist	-11.0212
uticu	-11.0212
▁Lifetime	-11.0213
pite	-11.0216
▁Rio	-11.0216
▁better	-11.0217
▁commented	-11.0218
▁Mak	-11.0219
▁nationalist	-11.022
epa	-11.0221
▁mother	-11.0221
▁clear	-11.0222
YA	-11.0222
utter	-11.0227
underground	-11.0229
▁2020	-11.0231
▁plant	-11.0233
brid	-11.0235
blowing	-11.0236
▁&#	-11.0237
▁parents	-11.0237
▁revisions	-11.0238
=7	-11.0239
▁69	-11.0244
▁Boys	-11.0246
▁arithmetic	-11.0246
▁operator	-11.0246
▁income	-11.0246
▁Camer	-11.0248
▁advan	-11.025
=1999	-11.025
binding	-11.0251
▁shown	-11.0253
OR	-11.0254
ibliography	-11.0254
FC	-11.0255
Virtual	-11.0256
ig	-11.0258
▁Agricultur	-11.026
▁bottom	-11.026
▁Nazi	-11.0262
▁disputes	-11.0263
2016]]	-11.0263
gar	-11.0266
vh	-11.0271
ident	-11.0276
▁reserved	-11.0277
_______________	-11.0278
▁pret	-11.028
▁Minn	-11.028
▁Ar	-11.0281
ively	-11.0281
▁focusing	-11.0286
▁establishments	-11.0289
▁seat	-11.0292
▁foundation	-11.0294
661	-11.0297
FIT	-11.0304
▁corre	-11.0307
▁Far	-11.0309
▁Indian	-11.031
9%	-11.0312
ionn	-11.0315
ae	-11.0317
▁Stewart	-11.0317
▁Attack	-11.0317
▁Westminster	-11.0317
▁hospital	-11.0317
▁Future	-11.0317
▁clause	-11.0317
▁lack	-11.0318
▁break	-11.0319
lower	-11.0319
▁150	-11.032
▁Trad	-11.0321
▁Water	-11.0321
▁border	-11.0322
▁algae	-11.0323
▁1928	-11.0325
2014"	-11.033
▁Sex	-11.0331
▁print	-11.0331
upcoming	-11.0334
▁Assume	-11.0335
ci	-11.0335
LEA	-11.0335
▁wild	-11.0337
▁Cool	-11.0339
5<	-11.0339
▁Librar	-11.0341
▁aut	-11.0341
Mont	-11.0341
▁Mag	-11.0344
▁fishing	-11.0345
▁concentrate	-11.0345
stake	-11.0351
▁differences	-11.0351
=978-0-	-11.0353
-2016	-11.0356
ations	-11.0358
photos	-11.0358
▁80	-11.0359
usa	-11.036
▁videos	-11.0363
set	-11.0363
▁complian	-11.0366
mond	-11.0371
evel	-11.0373
▁society	-11.0375
=1.234567	-11.0375
▁freedom	-11.0375
cain	-11.0376
▁Virgin	-11.0376
1813	-11.0379
▁lay	-11.0381
ness	-11.0382
▁lover	-11.0382
▁Fort	-11.0383
kg	-11.0388
▁Inside	-11.0389
▁conformi	-11.039
200||	-11.0393
▁isbn	-11.0395
516	-11.0398
403	-11.0399
▁Hart	-11.0402
904	-11.0402
ee	-11.0404
▁citations	-11.0405
▁Cover	-11.0405
ama	-11.0412
colum	-11.0412
-1.1	-11.0415
▁JPS	-11.042
▁94	-11.0422
amuel	-11.0422
▁Jane	-11.0423
▁rename	-11.0425
▁surviv	-11.0427
▁beginn	-11.0428
▁Operat	-11.043
▁window	-11.0433
▁China	-11.0433
▁anthem	-11.0434
▁Wind	-11.0438
▁Under	-11.0438
Gil	-11.0442
▁month	-11.0443
▁traditions	-11.0447
▁Asian	-11.0451
▁Mor	-11.0452
attempted	-11.0453
▁Sand	-11.0454
▁Cho	-11.0454
Oil	-11.0471
=2014	-11.0475
/2015	-11.0476
non	-11.0477
▁1972	-11.048
gained	-11.0485
▁Earlie	-11.0487
cholars	-11.0487
Cy	-11.0489
▁constitution	-11.0491
▁analysis	-11.0492
▁Clare	-11.0492
hill	-11.0501
▁acc	-11.0508
eadership	-11.0514
▁relative	-11.0515
ility	-11.0526
615	-11.0529
30/	-11.0532
▁research	-11.0533
▁53	-11.0534
▁mo	-11.0538
540	-11.0538
15/	-11.0544
▁Leinster	-11.0551
▁DVD	-11.0551
▁square	-11.0551
▁Blake	-11.0551
▁schools	-11.0568
605	-11.0569
▁travel	-11.0573
▁Per	-11.0577
▁materials	-11.0579
▁drafts	-11.0579
▁Fan	-11.0579
▁ea	-11.058
▁inspiration	-11.0585
Second	-11.0587
88	-11.0589
_{	-11.0596
ira	-11.0597
IM	-11.0601
▁sequels	-11.0606
▁Catholics	-11.0606
▁1922	-11.0606
▁settlements	-11.0606
▁Areas	-11.0606
▁Human	-11.061
▁Shannon	-11.0612
ita	-11.0613
▁architectures	-11.0614
3/	-11.0623
▁consider	-11.0628
edy	-11.0634
Gal	-11.0636
▁Ann	-11.0641
CC	-11.0649
Part	-11.0652
▁editing	-11.0654
4004	-11.0655
omen	-11.0655
▁party	-11.0659
▁Douglas	-11.067
▁Good	-11.0673
▁Ha	-11.0679
▁fur	-11.068
▁jo	-11.0681
▁hall	-11.0683
▁Invest	-11.0684
▁mu	-11.069
▁shares	-11.0693
014	-11.0695
Ir	-11.0698
▁Festivals	-11.07
▁signs	-11.0701
titlestyle	-11.0716
Jo	-11.0721
▁Big	-11.0727
▁2007.	-11.0729
24/	-11.0742
mann	-11.0745
289	-11.075
Gre	-11.0754
nm	-11.0755
975	-11.0755
stage	-11.0774
itch	-11.0776
▁Af	-11.0782
oom	-11.0785
operation	-11.0792
]]<!--	-11.0797
▁Notes	-11.0805
vor	-11.0806
▁handle	-11.0811
41/	-11.0814
ile	-11.0815
arra	-11.082
▁kill	-11.0822
▁divisions	-11.0823
▁En	-11.0825
2008	-11.0825
▁1999,	-11.0826
=0&	-11.0826
▁Robert	-11.0835
▁Say	-11.0855
60	-11.0855
▁height	-11.0858
Le	-11.0861
▁ways	-11.0863
Medi	-11.0881
/20140	-11.0897
▁leave	-11.0911
▁items	-11.0923
11.0	-11.0925
Be	-11.0929
Act	-11.093
/32	-11.0934
Bo	-11.0944
▁CD	-11.0947
guard	-11.0949
6/	-11.095
cable	-11.095
▁Hell	-11.0967
▁spring	-11.0969
/201	-11.0972
cat	-11.0973
▁Transport	-11.0975
foo	-11.0975
ajor	-11.0977
Ak	-11.0977
▁promot	-11.0978
▁chip	-11.0982
dge	-11.0987
▁72	-11.0993
nate	-11.1008
languages	-11.101
▁critic	-11.1011
49,	-11.1011
than	-11.1011
lan	-11.1013
rh	-11.1019
AN	-11.102
▁58	-11.102
photo	-11.102
▁Neil	-11.1034
▁109	-11.1042
▁Sh	-11.1045
Write	-11.1046
▁du	-11.1047
NS	-11.1059
Barna	-11.1062
Hall	-11.1065
Robin	-11.1074
SPE	-11.1074
50,000	-11.1079
Fla	-11.108
Dick	-11.1081
ox	-11.1084
pagan	-11.1086
28/	-11.1094
▁harv	-11.11
Ni	-11.1101
Col	-11.1101
Elom	-11.1107
4-	-11.112
▁6.	-11.1121
berg	-11.1123
Projects	-11.113
zed	-11.1137
]])<	-11.1141
Tri	-11.1145
Tok	-11.1153
414	-11.1159
▁ad	-11.1159
189	-11.116
2000	-11.116
1982	-11.1162
▁frame	-11.1162
7||	-11.1166
▁authorlink	-11.1169
9||199	-11.1173
fire	-11.1177
69	-11.1184
▁Ring	-11.1187
▁controll	-11.1193
Name	-11.1195
ber	-11.1208
270	-11.1218
ei	-11.1232
▁KB	-11.1243
▁Eas	-11.1254
728	-11.1255
2001	-11.1257
nominations	-11.1261
▁produc	-11.1262
▁1993.	-11.1265
ep	-11.1265
▁privilege	-11.1268
form	-11.1272
07	-11.1275
mini	-11.1276
topic	-11.1282
▁considerabl	-11.1282
LE	-11.1285
far	-11.1291
episode	-11.1295
5/	-11.1305
91	-11.1306
State	-11.1312
">[	-11.132
▁corn	-11.1321
800	-11.1322
▁81	-11.1324
Ba	-11.1325
gg	-11.1331
▁2009.	-11.1334
FOR	-11.1338
bert	-11.1339
cia	-11.134
bad	-11.1345
=2005	-11.1346
126	-11.1351
ford	-11.136
Bot	-11.1366
gr	-11.1367
▁actress	-11.1373
Logo	-11.1376
comparison	-11.1378
moments	-11.1379
Gibraltar	-11.138
Ryan	-11.1382
▁boy	-11.1385
ice	-11.1387
▁places	-11.1406
tables	-11.1406
▁flow	-11.1407
201	-11.1407
▁Sever	-11.1409
Br	-11.141
members	-11.1418
▁rose	-11.142
gged	-11.1424
Living	-11.1424
Lead	-11.1426
▁entire	-11.1428
zo	-11.143
Electronics	-11.143
Margaret	-11.1431
Howard	-11.1432
kingdom	-11.1433
SON	-11.1433
▁moves	-11.1434
View	-11.1434
ould	-11.1434
MA	-11.1438
Brown	-11.1442
▁ju	-11.1442
power	-11.1446
Ashlee	-11.1452
Space	-11.1453
Alexander	-11.1453
knot	-11.1453
Kelly	-11.1453
hotel	-11.1455
Tech	-11.1456
voice	-11.1459
bla	-11.146
Why	-11.1463
Mount	-11.1463
Number	-11.1464
▁fundamental	-11.1466
Professional	-11.147
Donegal	-11.147
choir	-11.147
Blue	-11.1471
Matt	-11.1472
study	-11.1472
analysis	-11.1475
relative	-11.1475
Clare	-11.1475
constitution	-11.1476
Hard	-11.1478
sc	-11.1478
chapter	-11.1479
Texas	-11.148
hub	-11.1481
Protestant	-11.1481
Instruction	-11.1481
Middle	-11.1482
street	-11.1482
SeeBeyond	-11.1482
wrote	-11.1484
euro	-11.1484
UNESCO	-11.1485
body	-11.1485
merger	-11.1487
▁invest	-11.1487
winter	-11.1487
length	-11.1487
Santa	-11.1487
integration	-11.1487
Long	-11.1487
electricity	-11.1488
task	-11.1489
Catholic	-11.149
revealed	-11.1491
symbol	-11.1491
Economy	-11.1491
THE	-11.1491
Intel	-11.1493
Series	-11.1493
Literature	-11.1493
great	-11.1494
Please	-11.1495
RISC	-11.1495
McKagan	-11.1495
cinema	-11.1495
Business	-11.1496
concert	-11.1497
Enterprise	-11.1497
Linux	-11.1497
Éireann	-11.1497
third	-11.1498
companies	-11.1499
financial	-11.15
species	-11.15
average	-11.15
wide	-11.1502
gold	-11.1503
organization	-11.1503
party	-11.1504
lit	-11.1505
Awards	-11.1509
rman	-11.151
Anti	-11.151
Free	-11.1511
/2017	-11.1512
/2015/	-11.1513
1,	-11.1514
served	-11.1515
dark	-11.1518
bh	-11.152
weekly	-11.1522
join	-11.1525
|8|	-11.1531
▁opera	-11.1532
512	-11.1537
?|	-11.1539
details	-11.1541
UT	-11.1544
des	-11.1553
-958	-11.1554
▁mis	-11.1563
astern	-11.1565
citizens	-11.1587
▁receiv	-11.1588
-7	-11.159
cer	-11.1598
▁Trib	-11.1598
190	-11.1599
▁indicat	-11.1603
sound	-11.1605
1.234567	-11.1605
has	-11.1609
wing	-11.1613
Ko	-11.1613
▁Georgia	-11.1613
Interacti	-11.1614
▁-----------	-11.1627
▁expenditure	-11.1635
▁exception	-11.1638
arrie	-11.1646
going	-11.1646
543	-11.1646
▁judge	-11.1655
▁procedure	-11.1655
▁credit	-11.1656
922	-11.1657
▁statistics	-11.166
istic	-11.1664
gun	-11.1664
--||	-11.1667
▁Acts	-11.167
▁contract	-11.1672
▁Chart	-11.1674
5|	-11.1677
▁monarch	-11.1679
▁$7	-11.168
1972	-11.1682
windows	-11.1683
▁figure	-11.1684
ished	-11.1684
def	-11.1685
Films	-11.169
312	-11.1694
▁tag	-11.1706
/05	-11.1712
By	-11.172
inners	-11.1729
▁happen	-11.1731
▁unrest	-11.1733
/2016	-11.1735
▁schedul	-11.1736
▁humanoid	-11.1737
389	-11.1741
▁scal	-11.1741
festivals	-11.1752
▁1921	-11.1758
records	-11.176
▁online	-11.1761
▁engine	-11.1766
▁replac	-11.1768
▁Ben	-11.1771
Select	-11.1772
lucas	-11.1775
ING	-11.1777
planet	-11.1777
Notes	-11.1778
▁argu	-11.178
fe	-11.1781
hp	-11.1781
2100	-11.1782
▁murder	-11.1783
MG	-11.1788
▁destructi	-11.1789
▁div	-11.1789
▁2005.	-11.1791
▁Cr	-11.1791
movies	-11.1792
665	-11.1792
On	-11.1792
▁Los	-11.1794
▁suff	-11.1794
emography	-11.1798
114	-11.18
res	-11.1804
ant	-11.1804
▁EV	-11.1804
▁provinc	-11.1808
▁multiplie	-11.1813
hristmas	-11.1815
Of	-11.1817
▁stand	-11.1819
promo	-11.1819
▁Capital	-11.1822
▁photograph	-11.1825
burg	-11.1826
▁strateg	-11.1827
winds	-11.1828
PPP	-11.1828
▁human	-11.1829
now	-11.183
cCarthy	-11.183
allowed	-11.1831
▁Asia	-11.1832
ntelligen	-11.1833
▁situat	-11.1833
▁collect	-11.1834
▁table	-11.1834
||1368||	-11.1835
tribute	-11.1836
▁3.1415926	-11.1837
clare	-11.1838
▁respect	-11.1838
twelve	-11.1838
▁tempor	-11.1839
ultraviolence	-11.1839
fferings	-11.1839
▁Bob	-11.1839
holiday	-11.1839
Oasis	-11.1839
hasbro	-11.1839
68030	-11.1839
uadrangle	-11.1839
windstorm	-11.1839
▁Cadhain	-11.1839
0000000000000000	-11.1839
Newgrange	-11.1839
SavaJe	-11.1839
Ultimate	-11.1839
panoram	-11.1839
▁Valera	-11.1839
▁Warriors	-11.1839
*****	-11.1839
/201301192	-11.1839
Advertiser	-11.1839
Cheetah	-11.1839
Comhaltas	-11.1839
Corinthian	-11.1839
CustomerSet	-11.1839
Gaisler	-11.1839
Jewish	-11.1839
MovieMaker	-11.1839
Murray	-11.1839
_12008406	-11.1839
hotchips	-11.1839
hyperprivileged	-11.1839
revamps	-11.1839
▁Aduva	-11.1839
▁Control	-11.1839
▁Example	-11.1839
▁Pools	-11.1839
▁SOFTWARE	-11.1839
▁Specification	-11.1839
▁Tremblay	-11.1839
▁Volunteers	-11.1839
▁boundaries	-11.1839
▁costume	-11.1839
▁crime	-11.1839
▁crisis	-11.1839
▁currencies	-11.1839
▁district	-11.1839
▁emphasize	-11.1839
▁environs	-11.1839
▁equival	-11.1839
▁individual	-11.1839
▁pixels	-11.1839
▁pursu	-11.1839
▁subroutine	-11.1839
▁village	-11.1839
Burgess	-11.1839
Missundaztood	-11.1839
Oranmore	-11.1839
Prague	-11.1839
Tralee	-11.1839
crimina	-11.1839
floss	-11.1839
ketball	-11.1839
||2001||1×1=1||1	-11.1839
▁Unleashed	-11.1839
▁colonies	-11.1839
▁nickname	-11.1839
Rinzler	-11.1839
oundarycommittee	-11.1839
▁Campus	-11.1839
▁Móna	-11.1839
▁administer	-11.1839
▁embark	-11.1839
▁Interface	-11.1839
▁gradual	-11.1839
68020	-11.1839
▁Colour	-11.1839
▁Factbook	-11.1839
▁depict	-11.1839
▁exercise	-11.1839
▁limestone	-11.1839
3.3||16||16||512	-11.1839
Starboy	-11.1839
tribune	-11.1839
||1995||1×1=1||4	-11.1839
▁cattle	-11.1839
1_104_543~125446	-11.1839
chicagotribune	-11.1839
darlings	-11.1839
8||1994||1×1=1||	-11.1839
▁Discuss	-11.1839
=250|	-11.1839
▁Memory	-11.1839
▁desktop	-11.1839
▁Antrim	-11.1839
▁grass	-11.1839
▁doorway	-11.1839
Neogent	-11.1839
BestPerf	-11.1839
▁attendance	-11.1839
Clonmel	-11.1839
Wabi	-11.1839
▁indefinitely	-11.1839
||1×2=2||	-11.184
||29||	-11.184
Fiction	-11.184
compuls	-11.184
▁ROSE	-11.184
▁dramatically	-11.184
▁easy	-11.184
▁entries	-11.184
▁target	-11.184
wilson	-11.184
▁recognised	-11.184
Intergraph	-11.184
▁Assets	-11.184
1||200	-11.184
Mallow	-11.184
▁Cream	-11.184
▁Grá	-11.184
mosque	-11.184
▁simultaneously	-11.184
▁Hynes	-11.184
||2.5||	-11.184
▁Sportsgrounds	-11.184
▁indict	-11.184
▁StarDivision	-11.184
weeknd	-11.184
▁documentary	-11.184
▁(2014)	-11.184
▁moist	-11.184
▁expand	-11.184
▁saga	-11.184
ultra	-11.184
▁Near	-11.184
▁exponent	-11.184
Geog	-11.184
▁elsewhere	-11.184
MCST	-11.184
▁rowclass	-11.184
heise	-11.184
fantasy	-11.1841
▁jury	-11.1841
▁himself	-11.1841
▁(2005)	-11.1841
.20050	-11.1841
▁Buy	-11.1841
▁Graphics	-11.1841
▁remix	-11.1841
▁Resistance	-11.1841
/0004	-11.1841
▁membership	-11.1841
illionaires	-11.1841
ensive	-11.1841
▁customers	-11.1841
▁reign	-11.1841
1010	-11.1842
ARTIC	-11.1842
instance	-11.1842
▁Endor	-11.1842
Letter	-11.1842
▁traffic	-11.1842
HotJava	-11.1842
Dartraighe	-11.1842
ZFS	-11.1842
vma	-11.1842
TableView	-11.1842
▁speakers	-11.1842
II	-11.1842
esri	-11.1842
128×	-11.1843
SCO	-11.1843
▁Height	-11.1843
▁unsigned	-11.1843
genetic	-11.1843
Nigeria	-11.1843
lynch	-11.1843
laws	-11.1843
MainTable	-11.1843
▁08:	-11.1844
attach	-11.1844
IAL	-11.1844
▁counter	-11.1844
ABS	-11.1844
Liverpool	-11.1844
Danny	-11.1844
/2100-1001	-11.1844
▁teaching	-11.1844
eiu	-11.1845
▁Sofia	-11.1845
▁175	-11.1845
railhead	-11.1845
▁CONTR	-11.1845
boyfriend	-11.1845
▁1707	-11.1845
Atlapedia	-11.1845
REME	-11.1845
▁Course	-11.1845
Strategy	-11.1846
▁Hits	-11.1846
endian	-11.1846
Visible	-11.1846
▁Corp	-11.1846
Pixo	-11.1846
wich	-11.1846
Kath	-11.1847
▁(2017)	-11.1847
▁occurred	-11.1847
1037	-11.1847
▁apprentice	-11.1847
yahoo	-11.1847
Lorna	-11.1848
opensparc	-11.1848
nisi	-11.1848
▁serial	-11.1848
james	-11.1848
glass	-11.1849
KKR	-11.1849
Hiro	-11.1849
asia	-11.1849
▁highlight	-11.185
exchange	-11.185
▁significand	-11.185
▁meet	-11.185
tracii	-11.1851
▁communication	-11.1851
voy	-11.1852
Wiley	-11.1852
▁Child	-11.1852
▁strategy	-11.1852
▁shipp	-11.1852
skip	-11.1853
pharmaceutical	-11.1853
▁branches	-11.1853
imf	-11.1853
▁Mean	-11.1854
UDS	-11.1854
Reuters	-11.1855
Better	-11.1855
Reformation	-11.1856
Guy	-11.1856
▁Learn	-11.1857
FMT	-11.1858
standalone	-11.1858
therwise	-11.1858
asked	-11.1858
ftp	-11.186
proportion	-11.1861
▁test	-11.1861
▁sense	-11.1862
configuration	-11.1862
256||	-11.1862
mediate	-11.1862
▁Duffy	-11.1862
TIO	-11.1863
▁Ver	-11.1863
▁spelling	-11.1863
unitary	-11.1864
=2018-04-02	-11.1864
Monta	-11.1864
sional	-11.1864
Intent	-11.1864
▁manufactured	-11.1865
▁arrived	-11.1865
▁celebrat	-11.1865
80%	-11.1865
rray	-11.1867
Assumption	-11.1867
Saga	-11.1869
45	-11.1869
▁Along	-11.1869
Sean	-11.1869
6||1×1=1||350||	-11.1869
▁conventional	-11.1871
▁Unauthori	-11.1871
▁encouraged	-11.1872
▁1935	-11.1872
Imbo	-11.1873
▁SPARCcenter	-11.1873
▁Poe	-11.1873
▁skin	-11.1874
▁combined	-11.1876
weekend	-11.1876
kin	-11.1876
▁Desk	-11.1877
▁residents	-11.1877
▁Clawdites	-11.1877
▁sterling	-11.1878
▁journey	-11.1878
▁Advance	-11.1878
▁Goldsmith	-11.1878
▁manuscript	-11.1878
▁patron	-11.1878
▁lyrics	-11.1878
▁positive	-11.1878
▁Imperial	-11.1878
▁screenplay	-11.1878
▁Jungle	-11.1878
▁Jackson	-11.1878
▁Junior	-11.1878
▁tax	-11.1878
emulation	-11.1879
DATE	-11.1879
▁progress	-11.188
▁Knight	-11.188
▁1280.245	-11.188
▁Master	-11.188
allmusic	-11.188
▁cup	-11.1881
▁hail	-11.1882
717	-11.1883
▁Mind	-11.1884
Balla	-11.1885
▁horns	-11.1886
▁Senat	-11.1886
▁happened	-11.1886
▁Brothers	-11.1886
Documents	-11.1886
6400	-11.1887
▁Mine	-11.1887
ncc	-11.1888
473	-11.1889
▁visitor	-11.1889
engu	-11.189
▁aero	-11.189
804/	-11.1891
▁Hale	-11.1891
▁mainland	-11.1891
500,000	-11.1891
apmap	-11.1892
osnews	-11.1892
▁Killa	-11.1893
▁RAM	-11.1893
deluxe	-11.1893
▁goes	-11.1893
Prax	-11.1893
▁ensure	-11.1895
▁finished	-11.1895
▁USE	-11.1896
▁Minute	-11.1896
▁IIi	-11.1897
PressR	-11.1898
▁friend	-11.1898
interviews	-11.1899
2011&	-11.19
=2000	-11.1902
1848	-11.1902
▁130	-11.1902
▁responded	-11.1903
▁discussed	-11.1903
Cormac	-11.1903
Dugs	-11.1906
allas	-11.1908
hap	-11.1908
▁Fish	-11.1908
lessons	-11.1908
▁classes	-11.1908
%5	-11.1909
/2007121	-11.191
apanese	-11.1914
gsi	-11.1915
628	-11.1917
absolute	-11.192
applet	-11.192
10,000|	-11.1923
lifestyle	-11.1924
▁Was	-11.1924
▁rough	-11.1926
ckett	-11.1929
▁simpl	-11.1929
Action	-11.193
▁cost	-11.1933
▁2.5	-11.1933
9_2	-11.1934
-2014	-11.1936
aoise	-11.1938
▁innovation	-11.1938
▁Walt	-11.1939
blade	-11.1939
nac	-11.194
GAAP	-11.1941
ouncillor	-11.1943
▁Dioces	-11.1944
▁decimal	-11.1944
▁rapid	-11.1944
▁Period	-11.1944
▁Gregory	-11.1944
▁VIIIfx	-11.1944
▁cutting	-11.1944
▁spread	-11.1944
▁Greenwich	-11.1945
fo	-11.1945
▁singing	-11.1946
▁mammal	-11.1946
▁schedule	-11.1947
▁Rome	-11.1947
▁MPI	-11.1947
▁poll	-11.1948
▁LI	-11.1948
▁determin	-11.1948
▁Collect	-11.1948
▁embed	-11.1949
▁Every	-11.1949
▁twi	-11.1949
/0/	-11.1952
=2003	-11.1953
200709	-11.1954
Geolog	-11.1957
ki	-11.1958
usage	-11.1959
+-----+-----	-11.1959
+19	-11.196
Riverside	-11.1961
08/	-11.1961
5||	-11.1964
iger	-11.1965
▁*[	-11.1967
▁Key	-11.1968
ichi	-11.1968
.1%	-11.1968
▁Shaw	-11.197
▁higher	-11.1972
/2011071	-11.1973
trust	-11.1973
▁WP	-11.1973
op	-11.1978
els	-11.1983
▁(2006).	-11.1987
▁involve	-11.1987
Brits	-11.1989
shop	-11.199
Se	-11.1993
fortune	-11.1996
▁Lei	-11.1998
▁merchandis	-11.1998
Mo	-11.2
▁Japan	-11.2001
=1992	-11.2004
ukc	-11.2004
▁headed	-11.2004
chips	-11.2007
▁Ultra	-11.2008
▁board	-11.201
30%	-11.2011
6%	-11.2011
▁policies	-11.2012
▁Beduin	-11.2012
▁Circuit	-11.2012
▁JVM	-11.2012
▁Burren	-11.2012
▁innotek	-11.2012
▁multiprocessing	-11.2013
▁Netra	-11.2013
▁physical	-11.2014
▁justice	-11.2014
▁Single	-11.2016
▁Oliver	-11.2016
▁raise	-11.2017
▁Can	-11.2019
▁abroad	-11.2021
Philipp	-11.2024
▁|250	-11.2027
7,	-11.203
▁Low	-11.203
20-4	-11.2032
▁(2008)	-11.2034
▁Bell	-11.2034
iomedical	-11.2042
2016/	-11.2044
▁care	-11.2045
▁AB	-11.2047
▁episode	-11.2049
FS	-11.2051
▁waste	-11.2054
Bi	-11.2058
▁factor	-11.206
▁Shell	-11.206
293	-11.206
▁16:	-11.2061
aj	-11.2066
▁Norma	-11.2066
▁ahead	-11.2066
ma	-11.207
▁Z	-11.2072
▁problems	-11.2073
–17	-11.2078
▁refers	-11.208
▁extremes	-11.2082
▁Constitution	-11.2082
▁Shakespeare	-11.2082
▁impact	-11.2082
DL	-11.2084
▁Corr	-11.2084
▁Influences	-11.2085
▁external	-11.2086
37	-11.2086
alance	-11.2091
▁Vance	-11.2093
%27	-11.2094
▁Pe	-11.2094
▁tower	-11.2095
▁alive	-11.2096
▁Barry	-11.2097
▁champions	-11.2099
1031	-11.2103
ko	-11.211
▁Now	-11.2112
/9/	-11.2113
tí	-11.2117
▁(4	-11.2118
▁Carl	-11.2122
ji	-11.2122
▁Singer	-11.2125
▁environment	-11.2125
sports	-11.2125
2002-	-11.2127
▁manage	-11.2128
▁78	-11.2131
74	-11.2132
-10	-11.2133
▁supercomputers	-11.2136
▁operation	-11.2139
DO	-11.2142
22	-11.2149
▁health	-11.2151
▁incident	-11.2151
▁Abbey	-11.2152
▁bubble	-11.2152
405	-11.2154
Christ	-11.2154
)===	-11.2154
▁Has	-11.2155
▁plane	-11.2155
▁Oscar	-11.2156
693	-11.2165
▁Mon	-11.2169
OO	-11.217
▁Galwegians	-11.217
tar	-11.217
kar	-11.2171
Results	-11.2177
dia	-11.2177
▁Sit	-11.2177
▁His	-11.2179
uel	-11.218
▁cross	-11.2184
▁Baron	-11.2185
Af	-11.2186
exactly	-11.2195
▁____________	-11.2196
6598	-11.2199
▁distributions	-11.2199
||1×	-11.2201
▁Kra	-11.2201
177	-11.2208
ev	-11.2212
Ta	-11.222
▁study	-11.2222
▁Donegal	-11.2222
▁Professional	-11.2222
▁choir	-11.2223
▁Jr	-11.2225
---------------	-11.2227
▁spend	-11.223
▁walls	-11.2231
,000,000	-11.2234
▁Eye	-11.2237
18.	-11.2239
▁provider	-11.2239
▁89	-11.2243
pot	-11.2246
uz	-11.225
ability	-11.2254
newsid	-11.2259
▁births	-11.2261
▁finds	-11.2263
▁114	-11.2269
entirely	-11.2269
FI	-11.2273
▁McDona	-11.2273
105	-11.2277
▁71	-11.2288
▁INTER	-11.2293
▁canceled	-11.2294
▁Beautiful	-11.2294
▁women	-11.2294
▁jurisdictions	-11.2295
▁Victoria	-11.2296
▁standards	-11.2308
▁Matt	-11.2311
inginthe	-11.2312
▁Cities	-11.2314
emy	-11.2316
▁84	-11.2318
▁Ut	-11.2319
2007||	-11.2321
ick	-11.2324
/80	-11.2325
▁Announce	-11.2325
▁Girls	-11.2326
Bron	-11.2334
▁nor	-11.2335
▁Line	-11.2336
cb	-11.2341
3]]	-11.2355
204	-11.236
▁Laws	-11.236
▁centers	-11.236
▁Countries	-11.2365
▁Globe	-11.2366
▁Simon	-11.2366
52|	-11.2368
▁exer	-11.2374
version	-11.2377
.20060	-11.2377
894.	-11.2379
ales	-11.2384
▁SE	-11.2391
used	-11.2406
bg	-11.2414
ef	-11.2416
nor	-11.2418
▁propos	-11.2422
>||	-11.2426
2,	-11.243
▁bad	-11.2432
▁Bermuda	-11.2438
▁NetDynamics	-11.2438
▁Tarantella	-11.2438
vo	-11.2446
33	-11.2449
icial	-11.2451
1861	-11.2456
▁Duac	-11.2461
lies	-11.247
boys	-11.2471
71	-11.2474
▁execut	-11.2478
shared	-11.2481
▁fu	-11.2481
linked	-11.2485
▁Albums	-11.249
1910	-11.2493
wards	-11.2494
rv	-11.2497
2||200	-11.2498
▁lea	-11.25
Jul	-11.2501
▁forest	-11.2503
▁meaning	-11.2504
2017	-11.2505
flows	-11.2514
ze	-11.2518
▁CS	-11.254
8]	-11.2541
Marv	-11.2541
suit	-11.2541
▁roll	-11.2544
▁winds	-11.2545
1895	-11.2546
iko	-11.2547
rry	-11.2547
▁ha	-11.2548
239	-11.2549
den	-11.255
▁says	-11.2552
FR	-11.256
▁tell	-11.2563
2_3-5	-11.2565
ery	-11.2566
/2005-0	-11.2567
---------------+	-11.2568
nner	-11.2574
▁IFMCA	-11.2583
rach	-11.2588
ring	-11.259
Jive	-11.2591
ically	-11.2614
/2008/0	-11.2618
)#	-11.2624
▁sections	-11.2629
▁comics	-11.2638
▁op	-11.2642
426	-11.2645
▁Entertainment	-11.2658
coat	-11.2663
ess	-11.2664
6,000	-11.2666
▁Watch	-11.2667
▁Dai	-11.2676
2015–	-11.2688
275	-11.2702
▁1982.	-11.2705
/20120	-11.2709
NA	-11.272
▁2013.<	-11.2725
Orient	-11.2726
3_	-11.2727
5&	-11.2728
▁car	-11.273
▁92	-11.2731
1}}	-11.2735
irne	-11.2747
▁Sa	-11.2755
▁roads	-11.2765
▁Danna	-11.2776
▁award	-11.2788
▁magn	-11.2803
Un	-11.2805
-2015	-11.2807
▁tall	-11.2808
EE	-11.2808
med	-11.2815
▁bear	-11.2815
▁2011}}	-11.2816
governmental	-11.282
ór	-11.2826
ador	-11.2852
▁replace	-11.2853
ions	-11.2853
airn	-11.2858
▁Lee	-11.2863
max	-11.2871
224	-11.2873
Mala	-11.2878
rk	-11.2883
10-	-11.2883
▁NUIG	-11.2887
_____________	-11.2897
▁styles	-11.2902
Ho	-11.2905
▁standing	-11.2905
▁|10	-11.2912
▁200]]	-11.2914
Tre	-11.2915
along	-11.2932
)&	-11.2945
▁met	-11.2947
1257	-11.2949
▁importan	-11.2953
▁stone	-11.2966
Up	-11.2979
86-	-11.2982
chta	-11.2997
/12/	-11.3002
bc	-11.3006
cock	-11.3013
▁Thomas	-11.3013
▁El	-11.3014
Contin	-11.3021
mark	-11.3022
own	-11.3035
make	-11.3038
worth	-11.3052
Teach	-11.3068
▁|360	-11.3075
4)	-11.3076
rain	-11.3079
eace	-11.3087
▁Chor	-11.3088
Soft	-11.3089
Lake	-11.31
Screen	-11.3107
▁NUI	-11.3112
345	-11.3117
▁Atlas	-11.3117
06	-11.3129
’|	-11.3134
hana	-11.3137
mn	-11.3139
ii	-11.3142
gi	-11.315
▁send	-11.3156
wisd	-11.3163
01.	-11.3168
ntial	-11.317
▁Foo	-11.3172
82	-11.3172
▁2011.	-11.3173
love	-11.3178
tina	-11.3183
ith	-11.3183
thread	-11.3183
channel	-11.3191
/21/	-11.3193
move	-11.3197
ay	-11.3203
.8	-11.3206
ouch	-11.321
▁propose	-11.3223
217	-11.3225
abba	-11.3226
ves	-11.3242
Archive	-11.3245
APIs	-11.325
Page	-11.3257
▁Ti	-11.3259
▁91	-11.326
Tro	-11.3261
under	-11.3262
tr	-11.3265
ju	-11.3267
Cinema	-11.3268
▁owner	-11.3269
-200	-11.3271
54	-11.3273
talk	-11.3276
▁51	-11.3279
ents	-11.3294
251	-11.33
sday	-11.3303
▁Ra	-11.3304
mon	-11.3314
System	-11.3315
member	-11.3318
-100-	-11.3318
Cath	-11.3322
service	-11.3328
later	-11.3336
▁173	-11.3338
/2012/	-11.3338
product	-11.334
290	-11.3349
▁Hawk	-11.3351
▁debu	-11.3351
1.4	-11.3364
▁Billboard	-11.3371
Brit	-11.3373
▁Hi	-11.3375
Server	-11.3376
471	-11.3382
Killarney	-11.3383
Lu	-11.3385
Reference	-11.3387
▁believ	-11.3389
Nathan	-11.3392
▁sell	-11.3398
Staff	-11.34
ap	-11.3403
▁unlike	-11.3403
1926	-11.341
AL	-11.342
▁Dashade	-11.3422
trip	-11.3432
Quinn	-11.3432
Cro	-11.3432
sort	-11.3433
geek	-11.3433
073	-11.3436
Cayman	-11.3436
Tele	-11.3439
Will	-11.3439
Max	-11.3441
base	-11.3443
Terry	-11.3447
flag	-11.3448
Michel	-11.3452
Wizard	-11.3452
Interview	-11.3453
Canadian	-11.3453
Operation	-11.3455
ider	-11.3456
21/	-11.3463
mit	-11.3463
controversial	-11.3463
Edinburgh	-11.3464
adult	-11.3464
jump	-11.3465
failed	-11.3468
Bach	-11.3469
authorities	-11.347
cool	-11.347
Galwegians	-11.3471
Abbey	-11.3471
Oscar	-11.3471
bubble	-11.3471
health	-11.3471
pc	-11.3471
know	-11.3472
Albert	-11.3472
ania	-11.3472
285	-11.3472
gross	-11.3472
Under	-11.3474
▁€1	-11.3474
Operat	-11.3475
anthem	-11.3476
OL	-11.3476
China	-11.3476
Hear	-11.3478
density	-11.3479
Harbour	-11.3479
Moy	-11.3479
Asian	-11.348
screen	-11.348
hire	-11.348
Wind	-11.3481
past	-11.3481
Access	-11.3482
▁confus	-11.3483
GPL	-11.3484
ethnic	-11.3484
▁202	-11.3486
▁Sk	-11.3486
Take	-11.3486
UNIX	-11.3486
Summer	-11.3486
Traditional	-11.3487
true	-11.3488
Ó	-11.3488
Bad	-11.3489
Facts	-11.349
Elizabeth	-11.349
public	-11.3491
mayor	-11.3491
Storage	-11.3492
immigration	-11.3492
Society	-11.3492
Journal	-11.3493
audio	-11.3493
Solo	-11.3493
quarter	-11.3493
Association	-11.3494
Public	-11.3494
literature	-11.3494
check	-11.3495
Windows	-11.3495
Review	-11.3495
Democracy	-11.3496
Clone	-11.3496
introduced	-11.3496
Lucas	-11.3497
winners	-11.3498
Search	-11.3498
League	-11.3498
Get	-11.3498
industry	-11.3499
total	-11.3499
instruction	-11.3499
minim	-11.35
policy	-11.3501
historical	-11.3501
county	-11.3503
memory	-11.3505
announced	-11.3505
My	-11.3506
dad	-11.3506
fair	-11.3507
Party	-11.3508
would	-11.3511
centre	-11.3513
Union	-11.3516
CPU	-11.3516
Kin	-11.3516
Bay	-11.3517
cities	-11.3519
through	-11.3519
native	-11.3523
▁drive	-11.3525
GN	-11.3525
ever	-11.3527
called	-11.3528
841	-11.3528
hard	-11.3529
0-	-11.353
reg	-11.353
eth	-11.3532
▁manag	-11.3534
erson	-11.3535
mag	-11.3535
Web	-11.3536
Pope	-11.3539
▁referenc	-11.3539
Sk	-11.3543
mid	-11.3548
umn	-11.3549
KS	-11.355
712	-11.3558
||?||	-11.3559
pays	-11.3561
▁Fh	-11.3564
347	-11.3565
eb	-11.3568
▁involv	-11.3569
Feast	-11.357
▁charts	-11.3586
And	-11.3587
either	-11.359
▁Bur	-11.3592
such	-11.3593
Victor	-11.3594
floating	-11.3596
▁leg	-11.3604
visit	-11.3609
1100	-11.361
Ry	-11.3612
04/	-11.3612
evolution	-11.3615
ong	-11.3616
50,	-11.3616
▁esse	-11.3618
Kir	-11.3622
wall	-11.363
▁David	-11.363
▁vendor	-11.3635
▁election	-11.3637
▁legend	-11.3637
some	-11.3641
▁3,000	-11.3643
▁setting	-11.3644
▁administrator	-11.3645
89.	-11.3646
▁Don	-11.3647
▁Word	-11.3648
unveils	-11.3657
▁7.9	-11.3657
▁156	-11.3663
▁align	-11.3664
Viking	-11.3664
▁component	-11.3664
▁concern	-11.3665
[[	-11.3666
▁guest	-11.3668
▁scheme	-11.3669
▁Influence	-11.3672
smod	-11.3674
▁matter	-11.3675
▁establishment	-11.3675
|2014	-11.3676
▁cul	-11.3677
▁operand	-11.3678
sym	-11.3681
1004	-11.3681
▁connection	-11.3682
▁187	-11.3686
=9780	-11.3688
mus	-11.3689
▁Movie	-11.3692
▁Right	-11.3693
abor	-11.3699
768	-11.3703
termin	-11.371
▁footnote	-11.3713
▁Mother	-11.3715
lc	-11.3715
▁Production	-11.3716
▁Comple	-11.3717
Mr	-11.3717
-24	-11.3721
Kerry	-11.3726
▁organisation	-11.3731
Rivers	-11.3735
▁Van	-11.3737
▁beginning	-11.3738
4_	-11.3739
▁NE	-11.3742
vis	-11.3743
inne	-11.3748
1991|	-11.3748
stat	-11.3749
▁cre	-11.3755
ltered	-11.3759
40||	-11.3764
▁varie	-11.3765
▁releas	-11.3769
Hil	-11.377
atur	-11.3771
ium	-11.3771
▁ensu	-11.3774
1650	-11.3775
RC	-11.3776
ancy	-11.3776
ppen	-11.3777
2020.	-11.3781
▁Field	-11.3783
oolest	-11.3784
fm	-11.3784
ru	-11.3786
=2004	-11.3786
/2003	-11.3786
Despi	-11.3788
▁handl	-11.3789
ved	-11.3791
can	-11.3792
uary	-11.3796
Show	-11.3799
▁encourage	-11.38
lements	-11.3801
xcepteur	-11.3801
136	-11.3801
ont	-11.3801
HP	-11.3804
▁sets	-11.3806
gment	-11.3807
=2018-04-0	-11.3809
▁agricultur	-11.381
▁drink	-11.3813
▁Statistic	-11.3815
echnical	-11.3817
ms	-11.3817
▁commu	-11.3817
onopoly	-11.3818
foot	-11.382
▁Site	-11.382
onso	-11.3821
▁respective	-11.3822
uce	-11.3822
llit	-11.3822
▁anim	-11.3823
___________	-11.3825
▁Week	-11.3825
▁deser	-11.3826
ecker	-11.3826
14/	-11.3829
▁disc	-11.3829
▁3.14159	-11.383
▁consequ	-11.383
icrosystems	-11.3832
Roger	-11.3833
▁appli	-11.3834
▁pari	-11.3834
gua	-11.3834
▁officia	-11.3836
▁spoke	-11.3837
quipment	-11.3837
ality	-11.3837
Glen	-11.3837
▁incid	-11.3837
physics	-11.3837
▁custom	-11.3838
▁occa	-11.3839
▁minor	-11.3839
jaguar	-11.3839
Knowledge	-11.3839
/12242	-11.3839
Spot	-11.3839
Value	-11.3839
pupils	-11.3839
residency	-11.3839
coillte	-11.3839
Matthew	-11.3839
meridian	-11.3839
Athlone	-11.3839
▁Cunha	-11.3839
▁grandmother	-11.3839
Afghanistan	-11.3839
Matsushita	-11.3839
Ptolemy	-11.3839
▁Macintosh	-11.3839
▁sculpt	-11.3839
Bangalore	-11.3839
JAVA	-11.3839
Panasonic	-11.3839
Parody	-11.3839
Poolside	-11.3839
TeamWare	-11.3839
Unesco	-11.3839
Vaughan	-11.3839
[13:4]	-11.3839
autoincrement	-11.3839
roadmap	-11.3839
▁Coirib	-11.3839
▁Critics	-11.3839
▁DAMAGE	-11.3839
▁Dooku	-11.3839
▁HOLDER	-11.3839
▁Instead	-11.3839
▁Instruments	-11.3839
▁Journey	-11.3839
▁Khosla	-11.3839
▁OTHERW	-11.3839
▁Optimiz	-11.3839
▁Tobias	-11.3839
▁Unedig	-11.3839
▁Vegas	-11.3839
▁aftermath	-11.3839
▁currency	-11.3839
▁encircl	-11.3839
▁genuine	-11.3839
▁philosopher	-11.3839
▁pioneer	-11.3839
▁synonym	-11.3839
Curtis	-11.3839
▁Semiconductor	-11.3839
▁Significan	-11.3839
▁Suicide	-11.3839
▁recogniz	-11.3839
▁severe	-11.3839
▁surface	-11.3839
bandsintown	-11.3839
▁Flames	-11.3839
▁telecom	-11.3839
▁volunteer	-11.3839
Quadruple	-11.3839
ccelerat	-11.3839
completion	-11.3839
Bantam	-11.3839
▁Barbuda	-11.3839
▁Bernstein	-11.3839
▁Universe	-11.3839
▁councillors	-11.3839
▁spawn	-11.3839
=2018-02-	-11.3839
▁Greek	-11.3839
▁attack	-11.3839
▁communities	-11.3839
▁kilo	-11.3839
▁coalition	-11.3839
burren	-11.3839
oclc	-11.3839
▁Secure	-11.3839
burst	-11.3839
▁Parade	-11.3839
▁theatrical	-11.3839
Susan	-11.3839
Toole	-11.3839
▁boundary	-11.3839
Cahill	-11.3839
Sample	-11.3839
▁sewer	-11.3839
▁(1991)	-11.3839
Hinduism	-11.3839
▁unusual	-11.3839
Moscow	-11.3839
Sebastian	-11.3839
▁explain	-11.3839
Wikivoyage	-11.3839
▁storms	-11.3839
▁Perkins	-11.3839
08/24/	-11.3839
▁interface	-11.3839
Impact	-11.3839
▁domestic	-11.3839
Quinc	-11.384
linux	-11.384
Lynn	-11.384
ties	-11.384
=978-1-4516-066	-11.384
▁Goldstein	-11.384
Double	-11.384
Atmel	-11.384
▁80386	-11.384
/2009/07/	-11.384
▁Ashba	-11.384
▁Justice	-11.384
▁Patricia	-11.384
Palladius	-11.384
▁(1988)	-11.384
▁holder	-11.384
Seanad	-11.384
▁#$	-11.384
Shankland	-11.384
giat	-11.384
▁violence	-11.384
eurostat	-11.384
garden	-11.384
▁Section	-11.384
duis	-11.384
▁rotate	-11.384
ntrance	-11.384
▁permitted	-11.384
▁mysteri	-11.384
CNN	-11.384
▁Dartraige	-11.384
▁mort	-11.384
EQU	-11.384
▁(2000)	-11.384
▁slavery	-11.384
▁Spring	-11.384
Options	-11.384
punk	-11.384
▁Glass	-11.384
▁Weeknd	-11.384
gallery	-11.384
Ringo	-11.384
illum	-11.384
/1999/	-11.384
tropico	-11.384
Maleficent	-11.384
▁functionality	-11.384
▁Moments	-11.3841
▁Lennox	-11.3841
/2010/12/	-11.3841
▁frequent	-11.3841
▁mountainous	-11.3841
▁survey	-11.3841
▁phase	-11.3841
''{{'}}	-11.3841
internet	-11.3841
▁vocalist	-11.3841
▁antagonist	-11.3841
onncha	-11.3841
▁Highlight	-11.3841
▁consequence	-11.3841
/20070124	-11.3841
▁Daley	-11.3841
carbon	-11.3841
▁overflow	-11.3842
Drall	-11.3842
▁Edge	-11.3842
▁Mullen	-11.3842
▁retire	-11.3842
adler	-11.3842
▁potatoes	-11.3842
holders	-11.3842
▁Potter	-11.3842
▁participation	-11.3842
▁grie	-11.3842
▁everywhere	-11.3842
▁promotion	-11.3842
–2011)	-11.3842
▁Sign	-11.3842
babies	-11.3843
▁Observatory	-11.3843
09	-11.3843
vital	-11.3843
▁Troubles	-11.3843
▁Urb	-11.3843
Brien	-11.3843
TION	-11.3843
Patience	-11.3843
nvidia	-11.3844
Mort	-11.3844
longitude	-11.3844
▁parades	-11.3844
▁repre	-11.3844
▁Basin	-11.3844
6898	-11.3844
▁subsidiary	-11.3845
▁guideline	-11.3845
motorsport	-11.3845
0784	-11.3845
▁1858	-11.3845
▁20-	-11.3845
▁property	-11.3845
▁Dawson	-11.3846
▁3.141592	-11.3846
etur	-11.3846
▁continuous	-11.3846
▁Leone	-11.3846
▁hair	-11.3846
IPS	-11.3846
▁poetry	-11.3846
kick	-11.3846
87	-11.3847
Kenner	-11.3847
eathr	-11.3847
terminus	-11.3847
▁Joy	-11.3847
/2007/04	-11.3848
nas	-11.3848
▁snow	-11.3848
iii	-11.3848
renewableuk	-11.3849
▁Semi	-11.3849
$4.1	-11.3849
/201301	-11.3849
▁volu	-11.3849
thisis	-11.3849
middleware	-11.3849
▁pins	-11.385
▁defend	-11.385
ude	-11.385
1854	-11.385
/2017/11	-11.385
Alice	-11.385
blueprints	-11.3851
▁pull	-11.3851
6;"|	-11.3852
▁160	-11.3852
▁Found	-11.3853
▁virtual	-11.3853
▁(2015)	-11.3853
▁1320	-11.3853
▁Copy	-11.3854
ntine	-11.3854
▁Deliver	-11.3855
▁1580	-11.3855
UTC	-11.3855
▁proto	-11.3856
dagger	-11.3856
Carson	-11.3856
dmiral	-11.3857
Turner	-11.3857
/20120711	-11.3857
▁processes	-11.3858
ddler	-11.3858
▁facility	-11.3858
bservatory	-11.3858
Anglican	-11.3859
=1.15|	-11.386
Color	-11.386
submission	-11.386
▁afford	-11.386
eddie	-11.386
▁creatures	-11.3861
Demographics	-11.3861
▁Light	-11.3862
▁filmmakers	-11.3862
597	-11.3862
populationand	-11.3862
▁Premier	-11.3864
Railhead	-11.3864
▁fine	-11.3865
▁Publisher	-11.3865
7-	-11.3865
stock	-11.3866
datat	-11.3866
brian	-11.3866
artists	-11.3867
▁326	-11.3867
▁Shot	-11.3868
lick	-11.3868
Coda	-11.3869
;12	-11.387
Coachella	-11.387
inley	-11.387
Italy	-11.3871
▁trial	-11.3872
/50-	-11.3873
358	-11.3874
1001	-11.3874
9||	-11.3878
tapped	-11.3878
▁regularly	-11.3879
llr	-11.3879
adele	-11.388
▁signal	-11.3881
ada	-11.3882
▁Fast	-11.3882
Tony	-11.3883
renewable	-11.3883
Legal	-11.3884
▁elit	-11.3884
preced	-11.3884
415	-11.3886
=2018	-11.3886
{{!}}	-11.3887
▁Beginning	-11.3887
▁0010000	-11.3887
▁Volume	-11.3887
▁Arnold	-11.3887
▁Species	-11.3887
▁Stuart	-11.3887
▁advertising	-11.3887
▁Stinson	-11.3887
▁Lewis	-11.3887
▁hundred	-11.3887
▁Independence	-11.3887
▁affiliate	-11.3887
▁Picture	-11.3887
▁middle	-11.3887
▁Houston	-11.3887
▁Description	-11.3887
▁boat	-11.3887
▁cabinet	-11.3887
▁staff	-11.3887
▁piano	-11.3887
▁feminism	-11.3888
▁Nash	-11.3888
▁extreme	-11.3888
▁adventure	-11.3888
▁click	-11.3888
▁HDI	-11.3889
▁Roadmap	-11.3889
sistance	-11.3889
Going	-11.3889
▁Gini	-11.3889
▁Berlin	-11.3889
▁demographic	-11.3892
▁Litera	-11.3892
▁ONE	-11.3892
▁(1997)	-11.3893
=[[20	-11.3894
▁Andrews	-11.3895
:21	-11.3895
▁200,000	-11.3896
▁immigrants	-11.3898
▁Mh	-11.3898
IPA	-11.3898
▁count	-11.3899
3077	-11.3899
▁eat	-11.3899
▁identif	-11.3901
vention	-11.3901
▁activit	-11.3901
▁cease	-11.3901
▁dollar	-11.3902
▁Cameron	-11.3902
▁expected	-11.3903
328	-11.3903
1234.	-11.3904
mination	-11.3904
1871	-11.3905
plc	-11.3906
ql	-11.3906
▁classic	-11.3906
▁thick	-11.3908
0%2	-11.3908
iodiversity	-11.3908
▁principles	-11.3909
sement	-11.391
▁Brand	-11.3911
Pap	-11.3911
▁distribute	-11.3912
bine	-11.3912
▁wor	-11.3915
1937	-11.3915
ISS	-11.3915
hrough	-11.3916
▁Card	-11.3916
Stan	-11.3918
▁sol	-11.3921
|{{	-11.3922
Wb	-11.3923
▁cultivat	-11.3923
pin	-11.3925
unreleased	-11.3925
▁Nur	-11.3926
Rhod	-11.3927
MN	-11.3929
▁Dire	-11.3929
Ard	-11.393
robot	-11.3931
Find	-11.3931
;4	-11.3933
▁Debuts	-11.3936
snl	-11.3936
▁ranking	-11.3938
gif	-11.3938
▁Mit	-11.394
mulation	-11.3941
cf	-11.3942
▁Products	-11.3942
▁Parker	-11.3943
nz	-11.3944
0619	-11.3947
3.3	-11.3948
DI	-11.395
Sovereign	-11.3952
mbia	-11.3952
IG	-11.3955
refore	-11.3955
AY	-11.3956
711/	-11.3958
▁Wilde	-11.3959
▁era	-11.3959
▁seek	-11.396
evolved	-11.396
▁soundtrack	-11.396
rich	-11.3964
▁OUT	-11.3966
▁contribute	-11.3967
Canon	-11.3967
Mega	-11.3967
▁Academic	-11.3969
▁Chicago	-11.3969
▁Kenneth	-11.3969
▁Murphy	-11.3969
▁cloud	-11.3969
▁response	-11.3969
▁Voice	-11.3969
▁neighbourhood	-11.3969
▁ritual	-11.3969
▁Euro	-11.397
▁exclusive	-11.397
▁Ranger	-11.397
▁technical	-11.3971
▁French	-11.3971
▁3.5	-11.3972
▁Duke	-11.3972
▁compar	-11.3973
▁Ed	-11.3974
▁practices	-11.3975
607-	-11.3976
1706	-11.3978
inc	-11.3978
OPE	-11.3979
▁seriously	-11.3981
▁export	-11.3981
▁EVEN	-11.3981
erine	-11.3983
▁Sons	-11.3984
▁cut	-11.3985
liststyle	-11.3987
Jacques	-11.3989
▁comprise	-11.3992
tio	-11.3993
▁1966	-11.3993
orem	-11.3998
=2004|	-11.4005
▁Az	-11.4007
Raid	-11.4011
▁Daniels	-11.4012
_-_	-11.4012
▁Productions	-11.4013
▁schemes	-11.4013
▁drives	-11.4017
▁Mha	-11.4017
Janis	-11.4019
▁Adventures	-11.4021
óg	-11.4023
1946	-11.4023
579,	-11.4032
7412	-11.4034
▁54	-11.4036
▁jump	-11.4039
▁Broad	-11.4039
▁Hand	-11.4044
/33	-11.4044
alcohol	-11.4046
AQ	-11.4047
▁adult	-11.4047
▁falling	-11.4051
959	-11.4054
▁Gabriel	-11.4055
▁Third	-11.4055
▁Arista	-11.4055
▁Russell	-11.4055
▁democracy	-11.4055
▁Database	-11.4055
six	-11.4055
.7%	-11.4056
▁Risk	-11.4056
aerospace	-11.4057
TIC	-11.4058
chi	-11.4059
▁composers	-11.4059
editors	-11.406
AXS	-11.406
▁notes	-11.4061
nsh	-11.4061
▁receive	-11.4062
▁weather	-11.4064
Heath	-11.4064
Hell	-11.4065
ommo	-11.4066
16000	-11.4066
OSS	-11.4066
▁fla	-11.4069
▁monarchy	-11.4071
▁100,000	-11.4073
wins	-11.4073
cupi	-11.4075
▁rounding	-11.4077
▁vision	-11.4077
ipi	-11.4077
roke	-11.4081
▁Jes	-11.4083
▁Programme	-11.4085
ffe	-11.4087
▁unveil	-11.4088
▁Myth	-11.409
▁Workstations	-11.4091
▁Kit	-11.4093
▁hearing	-11.4093
tate	-11.4099
▁stars	-11.41
HR	-11.4101
698	-11.4106
▁|14	-11.4107
Art	-11.4109
12|	-11.411
secondary	-11.4115
Ann	-11.4117
Famous	-11.4117
/2004/0	-11.4122
▁Earle	-11.4122
cap	-11.4123
▁crashe	-11.4123
385	-11.4125
13.8	-11.4126
289-	-11.4127
695	-11.4128
invaded	-11.4129
eur	-11.4129
/2011/	-11.413
▁courses	-11.413
Midlands	-11.4131
▁winters	-11.4131
▁wear	-11.4134
ndp	-11.4139
▁prequels	-11.414
▁Pir	-11.4141
▁Britannia	-11.4142
▁Madonna	-11.4142
▁Philadelphia	-11.4142
▁Television	-11.4142
▁Ethnic	-11.4142
▁ground	-11.4146
▁Tales	-11.4149
▁presentation	-11.4151
icos	-11.4156
▁kings	-11.4161
▁est	-11.4162
▁migrants	-11.4163
hasa	-11.4164
solid	-11.4167
▁Navy	-11.4168
▁Forest	-11.4172
▁depend	-11.4172
'':	-11.4173
ition	-11.4177
▁Close	-11.4177
''[[	-11.4179
sky	-11.4182
ib	-11.4183
▁continues	-11.4183
YE	-11.4187
▁2014}}	-11.4187
doing	-11.4191
999	-11.4195
▁citation	-11.4196
=2009	-11.4197
fly	-11.4198
:20	-11.42
/20070	-11.4202
▁Pr	-11.4205
▁destinations	-11.4209
speaks	-11.4222
83|	-11.4222
185.	-11.4226
=2008|	-11.4226
Jun	-11.4227
ek	-11.4228
▁controversial	-11.423
▁Edinburgh	-11.423
▁Albert	-11.4233
▁authorities	-11.4233
▁04:	-11.4234
91.	-11.4238
▁1600	-11.4239
vw	-11.4243
ture	-11.4245
CR	-11.4248
grammys	-11.4249
etween	-11.4251
▁massi	-11.4258
Pres	-11.426
▁$12	-11.4262
Alec	-11.4265
ritney	-11.4268
INT	-11.4268
=2015	-11.4268
▁GN	-11.4269
▁|1000	-11.4273
▁193	-11.4274
Galvi	-11.4275
▁Aid	-11.4278
-[[	-11.428
▁End	-11.428
ich	-11.4284
ini	-11.4285
ES	-11.4288
supreme	-11.4288
▁Banks	-11.4289
DIS	-11.4291
▁girl	-11.4294
bre	-11.4297
74-	-11.4297
-75	-11.4304
▁Burn	-11.4312
msel	-11.4314
fundamentally	-11.4314
▁OL	-11.4317
▁Why	-11.4317
▁Tech	-11.4318
▁Mount	-11.432
▁blood	-11.4321
▁Number	-11.4321
DEC	-11.4322
9&	-11.4322
ists	-11.4326
▁Beck	-11.433
▁Cop	-11.4339
Go	-11.434
bis	-11.434
▁sectors	-11.4342
idth	-11.4349
vel	-11.4351
stella	-11.4353
Raise	-11.4353
▁India	-11.4358
briefing	-11.4358
]]'')	-11.4361
▁nominate	-11.4362
14]]	-11.4366
leaked	-11.4368
▁believe	-11.4368
▁oppos	-11.4369
▁outputs	-11.4369
▁rivers	-11.4369
▁Vocals	-11.4369
ets	-11.4386
▁Processors	-11.4386
ota	-11.4397
215	-11.4399
▁throw	-11.4408
▁Bumblefoot	-11.4408
▁Tuam	-11.4409
▁Aerosmith	-11.4409
▁ethnicity	-11.441
▁graduat	-11.441
279	-11.4411
▁68	-11.4415
umann	-11.4419
▁386	-11.4421
▁Kat	-11.4422
70,000	-11.4425
825	-11.4426
lands	-11.4426
atic	-11.4442
ctresses	-11.4448
▁competitions	-11.445
▁la	-11.4454
2016–	-11.4455
CNet	-11.4455
▁pi	-11.4466
▁temperatures	-11.4467
97	-11.4472
dr	-11.4473
133/	-11.4474
▁cards	-11.448
avana	-11.448
▁Plan	-11.4486
ying	-11.4488
Po	-11.4491
WM	-11.4494
Gaelicis	-11.4494
sh	-11.4497
▁Foreign	-11.4499
338	-11.4502
▁Óg	-11.4511
▁redevelopment	-11.4518
coord	-11.4518
eyes	-11.4524
xon	-11.4539
=31	-11.454
>(	-11.4541
exit	-11.4547
▁stra	-11.4548
plane	-11.4549
▁dynamic	-11.4551
▁|40	-11.4553
vi	-11.4554
▁sca	-11.4554
▁def	-11.4564
395	-11.4566
▁Nex	-11.4571
▁estimates	-11.4578
93.	-11.4579
4|	-11.4581
Dart	-11.4583
876	-11.4583
▁#1	-11.4584
▁programm	-11.4586
422	-11.4587
cur	-11.4587
1.2	-11.459
▁Berkeley	-11.4591
Harr	-11.4592
▁Integ	-11.4593
▁color	-11.4595
▁fear	-11.4596
▁food	-11.4597
cms	-11.4599
ddy	-11.46
taken	-11.4601
SE	-11.4606
aft	-11.461
ute	-11.4611
27/	-11.4611
eflist	-11.4615
64&	-11.4621
tickets	-11.4623
▁flag	-11.4625
ishop	-11.4625
▁rival	-11.4631
▁price	-11.4632
Chapters	-11.4632
ann	-11.4635
SF	-11.4636
117	-11.4638
4}}	-11.4644
258	-11.4644
ow	-11.4644
aily	-11.4647
▁hire	-11.4648
▁KS	-11.4648
▁calculat	-11.4655
'']]	-11.4655
▁Ria	-11.4661
058	-11.467
▁guide	-11.468
8.1	-11.4681
▁Daniel	-11.4685
con	-11.4689
▁(19	-11.4692
oder	-11.4703
Listen	-11.4712
▁rules	-11.4715
17.	-11.4719
overs	-11.472
nder	-11.4725
▁LA	-11.4726
398	-11.4732
▁33	-11.4747
weo	-11.4747
tha	-11.4756
▁#2	-11.4758
▁61	-11.476
Museums	-11.4763
▁2010}}	-11.4764
pi	-11.4765
▁hot	-11.477
▁Waterford	-11.478
bd	-11.4793
Start	-11.4796
▁Dan	-11.4796
istan	-11.4796
Fantas	-11.4798
/201007	-11.4804
ja	-11.4809
yo	-11.4817
▁designate	-11.4817
▁2010|	-11.482
critics	-11.4833
100||	-11.4834
eo	-11.4836
/04/	-11.4841
▁cast	-11.4842
▁Gibb	-11.4846
▁ultimate	-11.487
apped	-11.4877
oss	-11.4888
CLA	-11.489
▁Heath	-11.4895
529	-11.4899
360	-11.4904
Kells	-11.4905
▁Golden	-11.4921
▁2008}}	-11.4931
▁oppose	-11.4933
99/	-11.4936
▁SV	-11.4948
ren	-11.4953
''{{	-11.4954
range	-11.4966
354	-11.497
back	-11.4974
nified	-11.4979
iz	-11.4983
ean	-11.4986
▁clos	-11.4995
returns	-11.5
▁Images	-11.5008
2112	-11.5022
▁arche	-11.5029
▁1;	-11.5034
▁helps	-11.5037
Jimm	-11.5042
402	-11.5042
kins	-11.5045
2768	-11.505
Ven	-11.5063
themed	-11.5069
mer	-11.5069
bility	-11.5086
Can	-11.5087
▁artistic	-11.5089
processing	-11.5092
▁structure	-11.5095
placement	-11.5096
ho	-11.5106
inn	-11.5117
almon	-11.5124
droids	-11.5125
09.	-11.5129
▁Start	-11.5132
▁Ori	-11.5135
graphics	-11.5137
/23	-11.5142
▁Towns	-11.5143
▁IO	-11.5146
Files	-11.5149
ugal	-11.5155
73	-11.5169
gnews	-11.5169
|2012	-11.5174
liver	-11.5176
211.	-11.5177
23.	-11.519
▁124	-11.5198
Servers	-11.5201
rek	-11.5212
launch	-11.5218
=2012	-11.5226
▁shop	-11.5232
▁collaborati	-11.5238
▁128	-11.524
award	-11.5242
/2100-10	-11.5247
▁ven	-11.5248
allies	-11.5248
▁App	-11.525
▁Pope	-11.5255
1.5	-11.5255
▁centres	-11.5256
▁Rocks	-11.5259
Benn	-11.5277
▁2010.<	-11.5277
_11	-11.528
▁73	-11.5282
hist	-11.5286
43	-11.5288
cci	-11.5294
ush	-11.5296
enfeld	-11.5302
alo	-11.5303
agh	-11.5311
ander	-11.5312
1986	-11.5323
even	-11.5324
▁194	-11.5324
▁Fur	-11.5332
1983	-11.5334
scores	-11.5345
publication	-11.5352
▁migration	-11.5353
Ao	-11.5354
858	-11.5359
▁Alan	-11.5361
EI	-11.5363
oil	-11.5372
Pears	-11.5374
362	-11.5377
lay	-11.5381
Groupie	-11.5385
▁Foli	-11.5388
▁140	-11.5418
CP	-11.5439
parking	-11.5448
Prince	-11.5449
Muslim	-11.545
▁211	-11.5452
▁192	-11.5457
Bots	-11.5462
▁Ave	-11.5469
▁Sal	-11.5469
Fan	-11.5471
-1-	-11.5472
943	-11.5476
natural	-11.548
term	-11.5488
▁2)	-11.5492
estri	-11.5493
▁ar	-11.5494
▁Cant	-11.5499
52-	-11.5504
cp	-11.5505
abs	-11.5507
udio	-11.551
9-9	-11.5515
Ro	-11.552
tz	-11.552
Bla	-11.5532
night	-11.5538
Cha	-11.5539
ati	-11.554
hern	-11.5549
▁Inter	-11.5559
▁Tu	-11.5569
▁swa	-11.5569
80||	-11.5571
town	-11.5575
lau	-11.5583
1156	-11.5583
ky	-11.5593
tu	-11.5593
4=	-11.5595
pe	-11.5598
Trans	-11.561
166	-11.5619
163	-11.5621
504	-11.5623
756	-11.5624
;"|	-11.5628
sea	-11.5633
crossing	-11.5634
cher	-11.564
disp	-11.5642
Laur	-11.5649
organiz	-11.5649
1992	-11.566
ens	-11.5661
hour	-11.5666
soundtrack	-11.5675
Gul	-11.5683
Computers	-11.5688
IX	-11.5694
arrow	-11.5695
skey	-11.5696
▁nominat	-11.5705
production	-11.5707
322	-11.5707
▁3)	-11.5714
OC	-11.5721
roll	-11.5724
▁viol	-11.5728
▁Bish	-11.5729
Catha	-11.5732
ison	-11.5734
nze	-11.5734
▁tra	-11.5736
325	-11.5739
rincess	-11.5746
▁prepar	-11.5748
▁et	-11.575
6022	-11.5753
echt	-11.5754
Sc	-11.5765
▁€10	-11.5767
1894	-11.5767
ores	-11.5769
▁MP	-11.5772
ome	-11.5773
lvin	-11.5775
current	-11.5783
yn	-11.5789
canal	-11.5789
2-6	-11.579
418	-11.5795
▁Marin	-11.5795
áist	-11.58
0||5	-11.5806
=0-7	-11.5807
▁exact	-11.5817
▁149	-11.5819
School	-11.5821
theme	-11.5824
deal	-11.5827
metal	-11.5831
sumed	-11.5833
205	-11.5833
lead	-11.584
1.34	-11.584
picture	-11.5848
425	-11.585
social	-11.5851
CU	-11.5858
oney	-11.586
▁Bar	-11.586
acquire	-11.5861
rc	-11.5867
Christian	-11.5867
oodstock	-11.5871
▁60	-11.5875
cover	-11.588
friend	-11.588
Broad	-11.5881
brit	-11.5881
clone	-11.5883
Brooks	-11.5884
Band	-11.5886
Cornish	-11.5886
Anguilla	-11.5886
Exclusive	-11.5886
Dái	-11.5886
Turk	-11.5887
finance	-11.5889
Redirect	-11.5889
/0,,	-11.589
▁Da	-11.5892
metre	-11.5892
1998	-11.5896
463	-11.5904
Rail	-11.591
/06/	-11.5911
▁occasion	-11.5912
Holy	-11.5913
PP	-11.5913
Ty	-11.5915
Writer	-11.5916
uar	-11.5917
▁Overse	-11.592
218	-11.5924
Guitar	-11.5932
Kurt	-11.5933
Dependencies	-11.5933
Proceed	-11.5933
Austin	-11.5933
Pakistan	-11.5933
Wexford	-11.5934
Wimbledon	-11.5934
ux	-11.5934
FAQ	-11.5937
log	-11.5938
.-->	-11.5939
Park	-11.5939
build	-11.5942
Track	-11.5942
erald	-11.5948
Gaillimh	-11.5949
complete	-11.5949
adi	-11.5952
Holiday	-11.5953
Paris	-11.5953
Implementation	-11.5953
Taibhdhearc	-11.5954
Haw	-11.5955
Tommy	-11.5955
||8×8=64||	-11.5955
pound	-11.5955
rl	-11.5959
Wood	-11.5959
▁270	-11.596
▁subsidi	-11.5961
emn	-11.5961
colour	-11.5961
Ethnic	-11.5963
Britannia	-11.5964
Madonna	-11.5964
Philadelphia	-11.5964
Television	-11.5964
logan	-11.5966
▁hy	-11.5968
Forest	-11.5969
▁13-	-11.597
tower	-11.5971
Tales	-11.5971
Constitution	-11.5971
Shakespeare	-11.5971
impact	-11.5971
champions	-11.5971
incident	-11.5972
presentation	-11.5973
Infrastructure	-11.5974
society	-11.5976
Watch	-11.5976
Bern	-11.5976
Virgin	-11.5977
freedom	-11.5977
manager	-11.5978
Japan	-11.5978
object	-11.5979
blue	-11.5979
migrants	-11.5981
Ewoks	-11.5981
Standard	-11.5982
Taylor	-11.5982
bridge	-11.5982
universe	-11.5982
horse	-11.5984
Barrie	-11.5984
Galaxy	-11.5984
conform	-11.5984
Vance	-11.5985
Process	-11.5985
university	-11.5986
178	-11.5986
238	-11.5987
▁(2008	-11.5987
capita	-11.5987
Harris	-11.5987
Visual	-11.5987
Commission	-11.5987
clock	-11.5988
crash	-11.5988
Foster	-11.5989
empire	-11.5989
Age	-11.5989
▁Brian	-11.5989
Expand	-11.5989
Barry	-11.5989
death	-11.5989
defined	-11.599
Super	-11.599
previously	-11.599
campus	-11.5991
Champions	-11.5991
Rahoon	-11.5991
economic	-11.5991
further	-11.5992
Aug	-11.5992
Power	-11.5993
▁Used	-11.5993
Economic	-11.5993
civil	-11.5993
Read	-11.5993
467	-11.5994
children	-11.5994
Role	-11.5995
Trust	-11.5995
Bodkin	-11.5995
sixth	-11.5995
Two	-11.5995
ground	-11.5995
plans	-11.5996
Higgins	-11.5996
football	-11.5996
Dol	-11.5996
Nicholas	-11.5996
cular	-11.5997
identity	-11.5997
begin	-11.5997
Institute	-11.5998
Adler	-11.5998
Theatre	-11.5998
international	-11.5998
hardware	-11.5999
Grid	-11.5999
Council	-11.5999
second	-11.6
Sparc	-11.6
Policy	-11.6001
highest	-11.6001
áis	-11.6002
tley	-11.6002
Love	-11.6003
▁introduce	-11.6003
||1	-11.6004
dem	-11.6005
498	-11.6005
addressing	-11.6006
stack	-11.6007
rename	-11.6008
pure	-11.6008
statement	-11.6009
summer	-11.6011
who	-11.6011
53/	-11.6012
large	-11.6013
coast	-11.6014
Final	-11.6015
results	-11.6016
quad	-11.6016
▁Eg	-11.6017
solo	-11.6017
509	-11.6021
▁Maj	-11.6021
wife	-11.6022
lover	-11.6023
cultural	-11.6023
▁Ab	-11.6025
GB	-11.603
store	-11.6032
boxing	-11.6033
olt	-11.6033
will	-11.6033
may	-11.6044
HO	-11.6044
10_	-11.6044
graphic	-11.6047
1-	-11.6047
due	-11.6047
One	-11.6048
teen	-11.6049
building	-11.605
icon	-11.6051
▁diver	-11.6054
mys	-11.6055
Las	-11.6055
cards	-11.6056
Here	-11.6057
Singer	-11.6057
bird	-11.6058
2015}}	-11.6062
ball	-11.6063
484	-11.6065
1-5	-11.6066
IP	-11.6066
▁Iar	-11.6068
three	-11.6069
"[	-11.6071
0626	-11.6072
Gener	-11.6077
BK	-11.6081
five	-11.6082
01/	-11.6088
Mid	-11.6088
725	-11.6089
heat	-11.6092
Tu	-11.6093
lk	-11.6097
solutions	-11.61
3;	-11.6102
ái	-11.6103
ambi	-11.6108
influences	-11.6114
▁governments	-11.6114
007	-11.6118
||8||16||	-11.6121
released	-11.6125
external	-11.6128
EU	-11.6132
lord	-11.6138
)|''	-11.614
holl	-11.6149
31210	-11.6149
1030	-11.6151
▁Chronicle	-11.6156
298	-11.6156
46	-11.6158
▁2016.	-11.6158
nter	-11.6159
cup	-11.616
▁174	-11.6163
weet	-11.6163
▁Dream	-11.6164
▁reform	-11.6168
/2	-11.6169
hen	-11.617
*[[	-11.6171
▁practice	-11.6174
▁dispute	-11.6174
▁difference	-11.6174
▁norther	-11.6175
▁debt	-11.6176
▁say	-11.6177
Thread	-11.6177
▁vocal	-11.6182
▁device	-11.6184
||--||--||--||	-11.6187
anti	-11.6188
sco	-11.6189
▁121	-11.619
617	-11.6192
23	-11.6196
▁129	-11.6198
diversity	-11.6199
▁Auto	-11.62
506	-11.6202
▁remove	-11.6202
spel	-11.6203
Arts	-11.6204
▁player	-11.6205
trend	-11.6208
force	-11.621
recipitation	-11.6211
▁1,1	-11.6214
Wild	-11.6217
▁instrument	-11.6219
SPEC	-11.6222
▁shape	-11.6222
threads	-11.6222
▁donat	-11.6224
▁charge	-11.6226
▁Ewok	-11.6226
novation	-11.6227
cluding	-11.6228
▁Adventure	-11.6232
ray	-11.6233
episodes	-11.6233
topics	-11.6235
▁relation	-11.6241
rithmetic	-11.6241
▁contribution	-11.6244
TG	-11.6245
cost	-11.6255
759	-11.6256
WR	-11.6257
ector	-11.6257
eannt	-11.6258
783	-11.6262
.9|	-11.6264
friends	-11.6265
oper	-11.6265
eather	-11.6266
||4	-11.6267
gget	-11.6268
MM	-11.627
lish	-11.6271
▁walk	-11.6278
chin	-11.6279
ML	-11.628
▁Simpl	-11.6283
anised	-11.6284
lendi	-11.6286
pression	-11.6288
▁manufacture	-11.6289
18/	-11.6289
gue	-11.6291
ore	-11.6292
/2000	-11.6296
onym	-11.6297
▁invent	-11.6298
2857	-11.6301
Pla	-11.6302
▁sister	-11.6302
▁publish	-11.6302
DJ	-11.6303
19.	-11.6306
nterscope	-11.6306
ensation	-11.6307
schools	-11.6307
Dool	-11.6308
/20110	-11.6309
▁servic	-11.6309
▁Commu	-11.6312
▁agenc	-11.6313
3.8	-11.6315
▁fish	-11.6316
orum	-11.6316
euters	-11.6317
igh	-11.6317
olydor	-11.6318
uffington	-11.6318
▁Fac	-11.6319
retta	-11.6319
racii	-11.6321
▁induct	-11.6322
cientific	-11.6322
5–6	-11.6324
inority	-11.6326
nin	-11.6326
▁Baile	-11.6326
0529	-11.6326
ahoo	-11.6327
assets	-11.6328
avorite	-11.633
▁Did	-11.633
▁Settle	-11.6331
▁404	-11.6331
seen	-11.6331
▁Kil	-11.6331
pq	-11.6332
minute	-11.6332
▁Submi	-11.6332
Happ	-11.6333
▁Fun	-11.6333
nglish	-11.6333
otato	-11.6334
parade	-11.6334
Detail	-11.6334
bá	-11.6334
Olymp	-11.6335
▁(2003	-11.6336
odkin	-11.6337
▁descen	-11.6337
emeteries	-11.6337
Mauri	-11.6337
▁cemeter	-11.6337
onflict	-11.6337
/2100-100	-11.6338
efunct	-11.6338
rchestra	-11.6338
facebook	-11.6338
geohack	-11.6338
ormula	-11.6339
||--||--||1	-11.6339
starboy	-11.6339
||?||32×	-11.6339
||1992||1×1=1||	-11.6339
/2012/01/	-11.6339
paradise	-11.6339
belfast	-11.6339
2.5/3.3	-11.6339
reliminary	-11.6339
||8×32=256||20||	-11.6339
||?||?||64×	-11.6339
1=1||350||5.4||1	-11.6339
64||64||	-11.6339
800||3.1||	-11.6339
>||1.9||16||16||	-11.6339
Kassidy	-11.6339
slide	-11.6339
sonoma	-11.6339
||587||21	-11.6339
▁Nominees	-11.6339
Keswick	-11.6339
twitter	-11.6339
▁||1×4=4||	-11.6339
affairs	-11.6339
Blinder	-11.6339
Cinderella	-11.6339
▁Gaeilge	-11.6339
Columbus	-11.6339
Deyneka	-11.6339
legislative	-11.6339
▁45.678	-11.6339
▁Joplin	-11.6339
/2014-11-01/	-11.6339
3.3||0||8||	-11.6339
3||1×1=1||130||	-11.6339
503||342||1831||	-11.6339
5||521||	-11.6339
Aberdeen	-11.6339
Abingdon	-11.6339
BYTE	-11.6339
Bangladesh	-11.6339
Beijing	-11.6339
Charlie	-11.6339
Destination	-11.6339
Divorce	-11.6339
ENCE	-11.6339
Epicanthix	-11.6339
FLOPS	-11.6339
Jupiter	-11.6339
MacWEEK	-11.6339
Statute	-11.6339
Sullivan	-11.6339
Tyrone	-11.6339
Winwood	-11.6339
elevation	-11.6339
ersecuted	-11.6339
microSPARC	-11.6339
portrait	-11.6339
vandalism	-11.6339
||521||2	-11.6339
▁0010001	-11.6339
▁79,504	-11.6339
▁79,934	-11.6339
▁Calrissian	-11.6339
▁Campaign	-11.6339
▁Campbell	-11.6339
▁DATA	-11.6339
▁Deutsch	-11.6339
▁Florida	-11.6339
▁Grenadines	-11.6339
▁PURPOSE	-11.6339
▁Petersburg	-11.6339
▁Screenplay	-11.6339
▁alphabet	-11.6339
▁commitment	-11.6339
▁consensus	-11.6339
▁controversy	-11.6339
▁cucumber	-11.6339
▁deployment	-11.6339
▁deputy	-11.6339
▁frequency	-11.6339
▁hyphen	-11.6339
▁interrupt	-11.6339
▁legislature	-11.6339
▁liqu	-11.6339
▁modification	-11.6339
▁perimeter	-11.6339
▁remote	-11.6339
▁sanitation	-11.6339
▁suspended	-11.6339
▁technique	-11.6339
▁tournament	-11.6339
+--------+------	-11.6339
Dennis	-11.6339
FeiTeng	-11.6339
PAGE	-11.6339
▁2009-11-30	-11.6339
▁Merger	-11.6339
▁UsageException	-11.6339
▁encompass	-11.6339
Connolly	-11.6339
Pitc	-11.6339
▁Examin	-11.6339
▁MBCS	-11.6339
▁Navarro	-11.6339
▁abolish	-11.6339
▁bomb	-11.6339
▁conclu	-11.6339
▁0010002	-11.6339
▁Sheeran	-11.6339
Fáil	-11.6339
PlayStation	-11.6339
Sonoma	-11.6339
Weitek	-11.6339
▁ecosystem	-11.6339
06/03/	-11.6339
?||16×8||16×8||	-11.6339
Athena	-11.6339
MERIT	-11.6339
_1001251	-11.6339
george	-11.6339
regulation	-11.6339
||1998||1×1=1||2	-11.6339
▁Barksdale	-11.6339
▁Gilmore	-11.6339
▁annex	-11.6339
▁auction	-11.6339
▁exceed	-11.6339
Solbourne	-11.6339
dubbed	-11.6339
rawford	-11.6339
||--||--||370||1	-11.6339
▁Presley	-11.6339
rademarkia	-11.6339
▁dominance	-11.6339
Costello	-11.6339
Reckless	-11.6339
protestant	-11.6339
▁announcement	-11.6339
Brannigan	-11.6339
Pratt	-11.6339
Polish	-11.6339
▁subsided	-11.6339
bumblefoot	-11.6339
–3000||	-11.6339
▁Expo	-11.6339
▁discography	-11.6339
Plantation	-11.6339
lanadelrey	-11.6339
||2×4=8||65||	-11.6339
▁lift	-11.634
Partition	-11.634
||1.8/3.3||	-11.634
▁extent	-11.634
▁Stream	-11.634
wikt	-11.634
0||1.1||	-11.634
16×16||16×16||	-11.634
64×16||64×16||24	-11.634
Imagine	-11.634
|4270||	-11.634
||16||20||	-11.634
▁implicit	-11.634
▁(2018)	-11.634
▁stability	-11.634
tte	-11.634
/2011/01/	-11.634
/2011/06/	-11.634
april	-11.634
Noitalic	-11.634
lingual	-11.634
▁Choice	-11.634
▁Electricity	-11.634
▁Gallery	-11.634
PMD	-11.634
Leonard	-11.634
▁modula	-11.634
▁setlinewidth	-11.634
▁Aviv	-11.634
▁Dubh	-11.634
rennan	-11.634
2015||201	-11.634
2×16=32||28||29	-11.634
79504	-11.634
▁blank	-11.634
olumbia	-11.634
▁utiliz	-11.634
▁Feet	-11.634
16||32	-11.634
Mixed	-11.634
▁cash	-11.634
Tesla	-11.634
▁vast	-11.634
Prequel	-11.634
Reason	-11.634
metamorph	-11.634
1000]]	-11.634
kenny	-11.634
-1.518778	-11.634
Sirens	-11.634
▁Computation	-11.634
defining	-11.634
▁Pitman	-11.634
▁Hyde	-11.634
▁disappoint	-11.634
Pipeworks	-11.634
▁Hetfield	-11.634
128×2||	-11.634
▁priorities	-11.634
Trends	-11.634
108||	-11.634
▁Defence	-11.634
aker	-11.634
▁install	-11.634
Estranged	-11.634
7443	-11.634
Isaac	-11.634
Resident	-11.634
Lonely	-11.634
ARIS	-11.634
Defel	-11.634
.8||128||128||	-11.634
▁maintain	-11.634
hatter	-11.634
panel	-11.634
Sort	-11.6341
▁Colman	-11.6341
Carroll	-11.6341
▁Lennon	-11.6341
Tagged	-11.6341
▁Secretary	-11.6341
▁replay	-11.6341
Freak	-11.6341
▁Manual	-11.6341
▁achievements	-11.6341
QFS	-11.6341
Lisp	-11.6341
Exchange	-11.6341
▁blacklist	-11.6341
2+256×	-11.6341
▁involvement	-11.6341
40120	-11.6341
▁chair	-11.6341
NAME	-11.6341
▁Mysteri	-11.6341
arnr	-11.6341
▁Separati	-11.6341
shades	-11.6341
▁settlers	-11.6341
tsgb	-11.6341
▁Burgo	-11.6341
||2012||	-11.6341
Encyc	-11.6341
refimprove	-11.6341
15275	-11.6341
Poland	-11.6341
▁classification	-11.6341
▁engage	-11.6341
sput	-11.6341
▁||8×16=128||40	-11.6341
33120	-11.6342
▁Frost	-11.6342
Summertime	-11.6342
▁accompani	-11.6342
42633	-11.6342
▁Datacenter	-11.6342
▁Walker	-11.6342
ambigu	-11.6342
SNL	-11.6342
▁workload	-11.6342
Massey	-11.6342
cpu	-11.6342
▁supplier	-11.6342
HOW	-11.6342
padding	-11.6342
desire	-11.6342
weird	-11.6342
bfi	-11.6342
gnati	-11.6342
-+-----+	-11.6342
oetry	-11.6342
▁Corbe	-11.6342
honey	-11.6343
▁idea	-11.6343
harvard	-11.6343
ALW	-11.6343
Elle	-11.6343
▁underflow	-11.6343
▁venture	-11.6343
▁equipment	-11.6343
Eva	-11.6343
Alien	-11.6343
4196	-11.6343
casino	-11.6343
Giant	-11.6343
Sony	-11.6343
▁selection	-11.6344
Brode	-11.6344
=8344	-11.6344
Liberal	-11.6344
june	-11.6344
288||	-11.6344
▁3.6	-11.6344
Portal	-11.6344
▁patch	-11.6344
Tigh	-11.6344
--||--||--||1	-11.6345
1905	-11.6345
▁unknown	-11.6345
EIR	-11.6345
▁discovery	-11.6345
▁Details	-11.6345
512×1	-11.6345
▁Security	-11.6345
-1500]]	-11.6345
1167	-11.6345
Viacom	-11.6345
Cyprus	-11.6345
▁Season	-11.6345
america	-11.6345
.3||8||16||	-11.6346
Chel	-11.6346
ence	-11.6346
▁(1993)	-11.6346
Background	-11.6346
downturn	-11.6346
Neal	-11.6346
Trini	-11.6346
87.5||	-11.6346
▁marked	-11.6346
▁Pass	-11.6347
lpi	-11.6347
500||	-11.6347
▁Disc	-11.6347
6||1368||	-11.6347
ksn	-11.6347
▁simulation	-11.6347
Brehon	-11.6347
▁derivation	-11.6347
||-||-||-||1.	-11.6348
Vista	-11.6348
Ivor	-11.6348
transparent	-11.6348
▁nil	-11.6348
ARY	-11.6348
=1993	-11.6348
/20070927	-11.6348
honorary	-11.6349
ogn	-11.6349
357	-11.6349
||$1	-11.6349
▁situation	-11.6349
▁Doves	-11.6349
=1995	-11.635
Leo	-11.635
Guitarist	-11.635
▁resort	-11.635
anchor	-11.635
gaz	-11.635
▁hunter	-11.635
Gaeltachta	-11.6351
Revolver	-11.6351
Offshor	-11.6351
878	-11.6351
digitalasset	-11.6351
▁{{0}}{{0}}0.	-11.6352
▁Abo	-11.6352
Boggle	-11.6353
venport	-11.6353
▁Russian	-11.6353
-90	-11.6353
chance	-11.6353
▁expression	-11.6353
croke	-11.6354
▁newhead	-11.6354
bow	-11.6354
1.35|	-11.6354
gnu	-11.6354
Neolithic	-11.6354
▁strip	-11.6355
▁Way	-11.6355
Wiktionary	-11.6355
risk	-11.6355
▁profitable	-11.6355
45/	-11.6356
▁charter	-11.6356
▁portion	-11.6356
ofia	-11.6357
:90%;	-11.6357
arlowe	-11.6357
▁46	-11.6357
▁KCC	-11.6357
-35	-11.6357
▁Eight	-11.6357
Monarchy	-11.6357
exclud	-11.6357
Wenner	-11.6357
▁shot	-11.6358
▁plun	-11.6358
1430	-11.6358
Whig	-11.6358
▁approv	-11.6358
Protestantism	-11.6359
▁DIB	-11.6359
▁1939	-11.6359
Darwin	-11.636
unch	-11.636
▁cancelled	-11.636
LAR	-11.6361
240||	-11.6361
▁tribe	-11.6361
0208	-11.6361
▁storyline	-11.6361
65||	-11.6362
▁Insider	-11.6362
OpenMP	-11.6362
2000||1×1=1||180	-11.6362
Relations	-11.6362
=32|	-11.6363
671	-11.6364
2646	-11.6364
transformation	-11.6364
496|	-11.6365
sustain	-11.6365
27.24.3	-11.6365
Elomin	-11.6365
▁Mul	-11.6365
▁Lucia	-11.6365
worthy	-11.6365
Adele	-11.6365
locks	-11.6366
potlight	-11.6366
4055	-11.6366
hanan	-11.6367
/1993/	-11.6367
Profile	-11.6367
▁0.0	-11.6367
▁Wi	-11.6368
▁Zolanders	-11.6368
Huge	-11.6368
▁clusters	-11.6368
▁starfighters	-11.6368
▁Nevis	-11.6368
▁supplies	-11.6368
Shine	-11.6368
Miles	-11.6368
12072	-11.6369
Gaels	-11.6369
▁hous	-11.637
idley	-11.637
aughton	-11.637
Hawks	-11.637
▁Meet	-11.6371
▁functional	-11.6371
▁retai	-11.6372
▁Rising	-11.6372
▁architectur	-11.6372
HMS	-11.6373
01-4	-11.6373
/14298	-11.6373
Hags	-11.6373
ggressive	-11.6374
▁BY	-11.6374
Everyone	-11.6374
▁Bond	-11.6375
▁answer	-11.6375
ekel	-11.6375
▁anything	-11.6375
–2010	-11.6376
ANT	-11.6378
iedler	-11.6378
thefree	-11.6378
2||4	-11.6379
▁/>[[	-11.6379
▁saving	-11.6379
▁Craz	-11.638
3443	-11.638
iance	-11.638
▁duel	-11.638
2173	-11.6381
700,000	-11.6381
▁anywhere	-11.6381
/2014/06/	-11.6382
▁dispens	-11.6382
0956	-11.6383
lí	-11.6384
coolest	-11.6384
islands	-11.6384
▁Hud	-11.6384
depression	-11.6385
▁choose	-11.6385
▁pitch	-11.6386
▁salt	-11.6386
errat	-11.6386
animation	-11.6387
▁shell	-11.6387
Yearbook	-11.6388
01-23	-11.6388
yster	-11.6389
/2006-02	-11.639
excepteur	-11.6391
▁(2009)	-11.6392
353	-11.6392
atch	-11.6392
▁Unionist	-11.6393
ibia	-11.6393
|1997|	-11.6394
▁demo	-11.6395
MO	-11.6395
Trailblazer	-11.6396
▁accus	-11.6397
=8352	-11.6397
▁Creg	-11.6397
=1-85	-11.6398
▁accumulator	-11.6398
rape	-11.6399
▁Chris	-11.6399
-752	-11.6399
Bry	-11.64
faq	-11.64
▁EX	-11.6401
/675	-11.6401
Tan	-11.6401
▁baby	-11.6401
▁arrange	-11.6402
▁Hub	-11.6402
▁Exponent	-11.6402
▁Hillsboro	-11.6402
▁Naboo	-11.6402
▁PETA	-11.6402
▁Tatooine	-11.6402
▁navbox	-11.6402
▁physicist	-11.6402
▁Chancellor	-11.6402
▁Metallica	-11.6402
▁stadium	-11.6402
▁vinyl	-11.6402
▁Title	-11.6402
▁Celts	-11.6402
▁trading	-11.6402
▁Comparison	-11.6402
bH	-11.6402
▁Mountain	-11.6402
-423	-11.6403
▁Prize	-11.6403
▁Butler	-11.6403
▁inhabit	-11.6403
▁chap	-11.6403
▁Break	-11.6404
▁stole	-11.6404
▁easier	-11.6404
ordinar	-11.6404
Theresa	-11.6405
▁Tue	-11.6405
▁Starkiller	-11.6406
▁Nichols	-11.6407
▁3.1	-11.6407
▁IFA	-11.6407
▁1955	-11.6407
▁treaty	-11.6408
▁Gross	-11.6408
▁Churchill	-11.6408
▁plain	-11.6408
2948	-11.6408
▁restored	-11.6409
GCC	-11.6409
aman	-11.6409
?"]]''	-11.6409
▁diverse	-11.6409
TI	-11.6409
▁1916	-11.641
ries	-11.6411
Body	-11.6412
▁Down	-11.6413
▁inception	-11.6414
▁150,000	-11.6415
▁spare	-11.6416
▁routines	-11.6416
▁Highlands	-11.6416
erta	-11.6416
▁Investors	-11.6417
▁consumers	-11.6417
▁Lando	-11.6417
1971	-11.6418
▁Less	-11.6418
Williamite	-11.6418
▁127	-11.6419
instyle	-11.6419
▁Thus	-11.6419
||58	-11.6419
=13&	-11.642
opening	-11.642
▁forward	-11.6421
laine	-11.6421
▁1930	-11.6421
|180|	-11.6421
▁adaptation	-11.6422
olphin	-11.6422
FOSS	-11.6422
1908	-11.6424
/2013	-11.6424
▁dramas	-11.6425
▁Trank	-11.6426
>''	-11.6427
97%	-11.6428
Na	-11.6428
▁Devaronians	-11.6428
dyn	-11.6429
Zm	-11.643
scott	-11.6431
Sacr	-11.6431
▁reproduce	-11.6432
ableView	-11.6433
ario	-11.6434
/67	-11.6434
Mason	-11.6434
▁Gone	-11.6434
▁ON	-11.6435
▁Score	-11.6435
4654	-11.6436
UR	-11.6437
▁agriculture	-11.644
Spinoff	-11.644
▁fisher	-11.6441
▁190	-11.6444
MIT	-11.6446
chedule	-11.6447
SSD	-11.6449
▁Macon	-11.645
||28	-11.645
▁Donald	-11.6451
="2011	-11.6452
Kid	-11.6453
11385	-11.6453
12.5	-11.6454
▁GR	-11.6455
-2011"	-11.6457
▁Ros	-11.6457
Ró	-11.6459
▁specifie	-11.6459
ortable	-11.6461
/2011-0	-11.6462
▁Reader	-11.6463
mates	-11.6463
Cap	-11.6464
caa	-11.6465
▁headlin	-11.6465
onic	-11.6466
electronics	-11.6467
▁competitors	-11.6467
/2006/0	-11.6467
▁arrangements	-11.6467
posts	-11.6468
▁11..1	-11.6469
npr	-11.6469
486	-11.6471
▁Module	-11.6471
;81	-11.6472
▁Rocky	-11.6473
▁176	-11.6474
▁Premiere	-11.6474
Mad	-11.6474
227	-11.6475
▁Bone	-11.6475
1021	-11.6476
▁Cran	-11.648
▁Cult	-11.6486
▁Soul	-11.6486
frac	-11.6486
▁Tribesm	-11.6489
/2016030	-11.6492
salmon	-11.6492
▁BB	-11.6492
rogue	-11.6492
▁demon	-11.6493
▁XII	-11.6493
397	-11.6494
;15	-11.6495
2.2	-11.6495
▁$4	-11.6497
▁soon	-11.6497
/018	-11.6498
▁Russia	-11.6499
artial	-11.6499
▁belong	-11.6499
▁118	-11.6503
▁Finale	-11.6503
%22	-11.6503
▁restrict	-11.6504
096|	-11.6505
>||1.	-11.6505
=0-29	-11.6506
▁Dartre	-11.6506
1024	-11.6508
▁Gas	-11.6508
9-01	-11.6509
▁Tone	-11.6509
▁NF	-11.651
▁Gazette	-11.6511
▁Bara	-11.6511
▁sample	-11.6511
▁activist	-11.6511
▁Jersey	-11.6511
▁Samoa	-11.6511
▁IEEE	-11.6511
▁Siggins	-11.6511
▁Renewable	-11.6511
▁historian	-11.6511
▁Bradley	-11.6511
8000	-11.6512
▁ESB	-11.6512
▁SUB	-11.6512
▁Chaos	-11.6512
▁Freedom	-11.6513
▁Abroad	-11.6513
▁Flash	-11.6513
▁industrial	-11.6514
▁Joint	-11.6515
▁feast	-11.6515
▁Boyle	-11.6515
▁Supercomputer	-11.6516
EXE	-11.6517
▁charges	-11.6518
regnan	-11.6518
▁contributions	-11.6519
▁yet	-11.6519
557	-11.652
▁Ahme	-11.6521
▁Meta	-11.6521
Ei	-11.6523
▁Kent	-11.6524
NAS	-11.6525
▁mac	-11.6527
▁DNA	-11.6527
vigor	-11.6528
▁integrat	-11.653
End	-11.6531
▁learning	-11.6531
crossings	-11.6533
▁VIII	-11.6533
▁Head	-11.6536
▁van	-11.6536
88&	-11.6537
▁Jud	-11.6537
▁reunion	-11.6537
▁continu	-11.6541
▁pointer	-11.6544
hitney	-11.6544
aci	-11.6548
20061108	-11.6549
|0-2	-11.6551
Didn	-11.6553
pence	-11.6554
Devolution	-11.6556
|190	-11.6558
shel	-11.6558
ot	-11.6559
/82	-11.6559
1485	-11.6559
4.3	-11.6563
path	-11.6563
▁contin	-11.6563
Prior	-11.6564
▁Rev	-11.6566
▁concerns	-11.6569
Vikings	-11.6569
▁beginnings	-11.6569
▁legs	-11.657
▁components	-11.657
200807	-11.6571
▁Bigge	-11.6573
▁Exi	-11.6574
▁7.3	-11.6574
Hug	-11.6576
plica	-11.6576
Nels	-11.6578
tat	-11.6581
thenet	-11.6582
Th	-11.6582
▁adults	-11.6582
4600	-11.6583
ict	-11.6585
▁Genera	-11.6585
442	-11.6586
80000	-11.6586
adm	-11.659
wyn	-11.6592
▁Stol	-11.6593
bab	-11.6593
golden	-11.6593
–185	-11.6594
Nov	-11.6598
setlist	-11.6599
gus	-11.6605
create	-11.661
:14	-11.661
▁Pan	-11.6611
hab	-11.6613
away	-11.6619
928	-11.6619
▁299	-11.662
▁impos	-11.662
▁forests	-11.6621
▁68010	-11.6625
▁Think	-11.6625
tune	-11.6625
▁COPY	-11.6625
▁Seattle	-11.6626
▁Political	-11.6626
▁Does	-11.6626
dist	-11.6626
▁Swift	-11.6626
▁fox	-11.6627
▁Caribbean	-11.6627
ired	-11.6628
▁sex	-11.6629
▁Planet	-11.6629
▁cycle	-11.6629
▁Election	-11.6632
▁Anthology	-11.6632
')	-11.6634
SUN	-11.6634
memor	-11.6636
228	-11.6637
Keny	-11.6638
mega	-11.6639
huck	-11.6639
▁alone	-11.664
▁Wood	-11.6641
scu	-11.6642
coach	-11.6643
▁mill	-11.6644
▁Canadian	-11.6644
watches	-11.6649
7<	-11.6649
Roy	-11.6652
_2006	-11.6656
=''[[	-11.6656
fco	-11.6657
▁admire	-11.6662
701	-11.6664
celebration	-11.6665
Mail	-11.667
ubcategories	-11.6674
▁successors	-11.6676
questioned	-11.6681
olar	-11.6683
mhe	-11.6685
rating	-11.6687
LIN	-11.6687
▁evening	-11.6688
▁chor	-11.6689
usty	-11.6689
augmented	-11.6689
2/>	-11.669
.10.	-11.6691
▁Dreams	-11.6693
abolition	-11.6698
▁deer	-11.67
|30|	-11.6707
▁archived	-11.6707
smallest	-11.6715
5?||	-11.6715
ography	-11.6718
remastered	-11.672
XT	-11.6723
860	-11.6723
1023	-11.6727
▁teen	-11.6728
▁movements	-11.6728
▁producers	-11.673
1754	-11.6736
▁SPEC	-11.6737
747	-11.6739
▁colour	-11.6739
▁||8×8=64||	-11.6739
▁retro	-11.6739
▁Implementation	-11.6741
▁Holiday	-11.6741
▁Paris	-11.6742
▁Taibhdhearc	-11.6742
▁Tommy	-11.6743
▁Haw	-11.6744
NY	-11.6744
▁authors	-11.6745
posted	-11.6748
▁Are	-11.6748
▁Chinese	-11.675
▁Bh	-11.6754
▁1800	-11.6754
geography	-11.6757
Galliv	-11.6757
15&	-11.6763
▁je	-11.6768
-5-	-11.6768
Bord	-11.6773
amas	-11.6774
infinity	-11.6775
Frederic	-11.6776
▁Hy	-11.6776
▁blocks	-11.6779
▁ordinar	-11.6785
31/	-11.6787
1947	-11.679
nie	-11.6796
▁shifting	-11.6799
1"	-11.68
▁origins	-11.6801
have	-11.6802
▁Kar	-11.6802
uri	-11.6802
▁capabilit	-11.6805
||35	-11.6813
Satur	-11.6813
arly	-11.6814
▁RE	-11.6814
covers	-11.682
▁|33	-11.682
legends	-11.6824
Gall	-11.6825
ndos	-11.6826
qui	-11.6829
▁waves	-11.6831
▁gross	-11.6831
ips	-11.6832
Philips	-11.6836
others	-11.6837
043	-11.6838
TIT	-11.6839
▁Songs	-11.6844
652	-11.6846
53|	-11.6849
▁cool	-11.6852
+1	-11.6854
/2009-0	-11.6855
04.	-11.6856
820|	-11.6857
▁failed	-11.6858
▁Wizard	-11.6858
▁Michel	-11.6859
▁Interview	-11.6859
Kat	-11.6859
▁Operation	-11.6861
▁footnotes	-11.6862
3165	-11.6864
▁39	-11.6865
▁heads	-11.6866
Cr	-11.6866
SO	-11.6871
-1}}.<	-11.6874
ue	-11.6876
Monuments	-11.6879
erlin	-11.6883
Physic	-11.6884
▁topics	-11.6885
20,000	-11.6886
spaghetti	-11.6889
inf	-11.689
inston	-11.6894
8.	-11.6896
hk	-11.6897
▁wants	-11.6898
ellspring	-11.69
▁love	-11.6908
-76	-11.6909
mble	-11.691
▁ago	-11.691
▁banne	-11.6911
▁h	-11.6911
diet	-11.6918
711	-11.6918
▁Moh	-11.6922
uns	-11.6925
▁Ewoks	-11.6926
▁farms	-11.6931
/2012020	-11.6932
Run	-11.6943
Fli	-11.6944
▁preserve	-11.6944
acquires	-11.695
▁combin	-11.6956
1581	-11.6959
ction	-11.6962
/20060	-11.6971
ya	-11.6976
▁Ashlee	-11.6977
▁Alexander	-11.6978
▁Space	-11.6979
Lud	-11.6979
▁188	-11.698
▁126	-11.6981
▁EC	-11.6981
▁Kelly	-11.6982
Ham	-11.6982
▁hotel	-11.6983
▁super	-11.6984
▁48	-11.6986
▁knot	-11.6987
STV	-11.6988
Clinton	-11.699
▁sounds	-11.6991
▁females	-11.6991
▁loops	-11.6992
▁50,000	-11.6992
spot	-11.6994
/2006-0	-11.6995
▁Ingl	-11.7008
roe	-11.701
|2011	-11.701
216	-11.7013
lex	-11.7013
▁2015<	-11.7014
1911	-11.7017
▁59	-11.7019
uki	-11.7019
▁414	-11.7021
10%	-11.7023
▁episodes	-11.7025
1||	-11.7027
Liv	-11.703
2-0	-11.7032
_(	-11.7037
▁eu	-11.7037
/2015/12/	-11.7039
▁+1	-11.704
Hibernia	-11.7045
▁Horses	-11.7045
▁tasks	-11.7045
▁parliaments	-11.7046
dis	-11.7047
1.7||16||16||	-11.705
▁Ne	-11.7051
▁incorporat	-11.7052
pps	-11.7052
cl	-11.7054
EN	-11.7054
▁2009}}	-11.7058
}}.<	-11.708
276	-11.7081
}}}	-11.7081
▁influen	-11.7083
hildhood	-11.7083
eley	-11.7087
1|13	-11.7092
▁GMIT	-11.7101
17]]	-11.7101
▁Joel	-11.7104
▁songwriter	-11.7107
▁fr	-11.7113
efault	-11.7119
▁Bl	-11.7127
284	-11.7128
]]''<	-11.7129
aturn	-11.7131
ola	-11.7134
Ke	-11.7134
SA	-11.7143
=2010	-11.7145
50||	-11.7149
Maps	-11.7152
=50	-11.7153
▁ice	-11.7157
32/	-11.7164
/8	-11.7175
95||1	-11.7176
iana	-11.7177
26	-11.7183
104	-11.7186
llite	-11.7191
29|	-11.7194
Crim	-11.7197
12.1	-11.7199
Sw	-11.7207
▁21:	-11.7208
297	-11.7209
▁Bac	-11.721
ex	-11.7221
▁Adam	-11.7223
ches	-11.7227
▁GNR	-11.7228
351	-11.7233
%20_	-11.7235
▁Gal	-11.7238
▁Ki	-11.7242
eps	-11.7244
payment	-11.7245
=978-1-4	-11.7245
ages	-11.7246
▁Hur	-11.7249
▁Jo	-11.7251
Airports	-11.7251
-01/	-11.7252
▁85	-11.7255
▁290	-11.7259
▁rates	-11.7266
▁Who	-11.7267
▁1994.	-11.7267
092	-11.7268
▁interests	-11.727
▁1.8	-11.7279
▁Gilb	-11.7285
lines	-11.7285
819	-11.7287
gent	-11.729
▁RC	-11.7291
▁Bach	-11.7293
Eir	-11.7294
52,	-11.7299
Sports	-11.7301
▁Dru	-11.7301
▁Cill	-11.7301
▁editors	-11.7302
58	-11.7304
Tr	-11.7307
▁2005.<	-11.7309
refcontent	-11.7311
▁windows	-11.7321
/20080	-11.7324
427	-11.7328
▁pron	-11.7336
Van	-11.7347
▁Country	-11.7349
/08/22/	-11.7351
/20150	-11.7355
▁Sat	-11.7359
▁recover	-11.736
374	-11.7361
▁NAS	-11.7361
fields	-11.737
63	-11.7382
males	-11.7387
sch	-11.7387
▁152	-11.7387
=100	-11.7394
▁realize	-11.7398
AST	-11.7398
ath	-11.7401
iph	-11.7403
▁DJ	-11.7404
2206	-11.7408
STR	-11.7409
parodies	-11.7414
ald	-11.7416
horough	-11.7418
Al	-11.7419
Yuzzums	-11.7421
Coming	-11.7426
▁2009)	-11.7426
042	-11.744
TheFile	-11.744
▁Ce	-11.7443
dj	-11.7447
aper	-11.7452
óir	-11.7458
▁|4	-11.7461
▁NT	-11.7461
▁executi	-11.7464
▁Lawrence	-11.7472
Tsu	-11.7479
10)	-11.7479
irc	-11.748
-27	-11.7481
pal	-11.7489
modern	-11.7489
yh	-11.7505
6)	-11.7506
5_1_	-11.7509
▁400	-11.751
▁Op	-11.751
1500||	-11.7517
181	-11.752
/20	-11.7533
7_	-11.7535
Musical	-11.7537
Ch	-11.7539
▁specialis	-11.7543
ett	-11.7545
ezn	-11.755
▁Pav	-11.7552
▁API	-11.7553
ines	-11.7557
funk	-11.7562
did	-11.7564
299-	-11.7566
▁Dona	-11.7574
ual	-11.7575
▁Shar	-11.758
▁|19	-11.7582
LX	-11.7589
/27	-11.759
gai	-11.7593
16/	-11.7594
2500	-11.7597
Pad	-11.7607
DS	-11.7607
▁spark	-11.7611
Ride	-11.7614
hal	-11.7616
.0%	-11.7621
▁Baro	-11.764
achd	-11.7641
▁77	-11.7647
828	-11.7651
|182	-11.7651
▁speeds	-11.7663
Pe	-11.7671
44,	-11.7675
-198	-11.7684
/20130119150	-11.7689
Ger	-11.769
206	-11.7691
.5||--||--||--||	-11.7702
Px	-11.7729
comb	-11.7731
oba	-11.7737
▁Lind	-11.7742
TEM	-11.7746
2011.	-11.7756
▁vs	-11.7757
owned	-11.7759
▁116	-11.7761
410	-11.7766
▁Cha	-11.7766
hman	-11.7768
1;	-11.7768
Za	-11.7782
232	-11.7787
0||????||	-11.7793
arity	-11.7798
▁convert	-11.7798
▁carv	-11.7804
Ref	-11.7805
▁Arma	-11.7811
types	-11.7813
ken	-11.7819
▁Link	-11.7823
biographical	-11.7824
210	-11.7824
ras	-11.7825
553	-11.7835
Su	-11.7844
20110	-11.7852
/34	-11.786
throw	-11.786
▁Jaguar	-11.7861
▁famine	-11.7868
2)	-11.7872
explore	-11.7873
alk	-11.7881
dom	-11.7888
159	-11.789
18]]	-11.7897
ARS	-11.7897
▁additions	-11.7899
▁rocks	-11.79
hí	-11.7901
$1.	-11.7902
▁Cooper	-11.7907
onservative	-11.7908
9||1999||1×1=1||	-11.7929
▁dedicat	-11.7929
llison	-11.793
▁fix	-11.7935
/201012	-11.7936
274	-11.7942
▁Noon	-11.7948
ucc	-11.7953
fficiency	-11.7957
▁franchises	-11.7965
363	-11.7966
682	-11.7976
cryp	-11.7979
,600	-11.7989
▁inline	-11.7995
10,000	-11.7995
▁Funhouse	-11.7997
agan	-11.7998
▁comed	-11.8002
▁96	-11.8002
106	-11.8003
▁sh	-11.8003
-10-	-11.8008
tween	-11.8009
-36	-11.8011
2003	-11.8016
BP	-11.8021
▁Th	-11.8025
737	-11.803
▁str	-11.8039
+)	-11.8043
ille	-11.8044
▁|32	-11.8049
gs	-11.805
1620	-11.8051
▁Marc	-11.8055
37.	-11.8071
▁understand	-11.8074
|200	-11.8079
Ne	-11.8087
▁9.3	-11.8089
54,	-11.8091
▁|400	-11.81
▁Las	-11.8102
flow	-11.8104
364	-11.8109
tine	-11.8111
;3	-11.8112
fault	-11.8115
vs	-11.8118
Nin	-11.8121
osi	-11.8122
Tour	-11.8123
310	-11.8125
1961	-11.8127
80,000	-11.8133
las	-11.8135
ession	-11.8137
009/	-11.8138
1.1	-11.814
orbis	-11.8143
hoped	-11.8148
ea	-11.815
▁brands	-11.8158
▁droid	-11.8163
▁sources	-11.8164
Pái	-11.8168
_________	-11.8182
▁des	-11.8182
▁168	-11.8186
roxy	-11.8193
3"	-11.8195
eration	-11.8197
|20	-11.8205
229	-11.8212
rac	-11.8225
396	-11.8234
Wu	-11.8235
?"	-11.8249
Carl	-11.8252
▁labels	-11.8261
▁alien	-11.8268
280	-11.8269
▁Kaminski	-11.8269
category	-11.827
jor	-11.8271
▁percentage	-11.8272
ark	-11.8275
▁88	-11.8275
▁15:	-11.8279
finals	-11.8282
yer	-11.8286
/2008	-11.8287
▁Seque	-11.829
logic	-11.8301
▁graphic	-11.8302
anna	-11.8309
EST	-11.8311
stop	-11.8313
anda	-11.8314
ups	-11.8327
▁cla	-11.8329
WT	-11.8339
▁GB	-11.8347
09/	-11.8347
=81	-11.8354
▁combinat	-11.8362
eans	-11.8363
67	-11.8372
951/	-11.8386
ttle	-11.8391
10|	-11.8392
▁pric	-11.8403
919	-11.8406
Tick	-11.8408
650||	-11.8421
likely	-11.8426
/2012/06/	-11.8431
wa	-11.8433
▁cold	-11.8437
01_	-11.8438
trans	-11.8445
00,000	-11.8452
▁ma	-11.8453
▁Tr	-11.8453
}})	-11.8456
667	-11.8457
▁Integr	-11.8463
verage	-11.8464
rine	-11.8464
raige	-11.8484
690	-11.8486
137	-11.851
018	-11.8512
hit	-11.8514
109	-11.8521
▁sides	-11.8525
Ca	-11.854
ric	-11.8546
;21	-11.8551
ringe	-11.8552
▁wa	-11.8557
394	-11.8559
▁Bas	-11.8559
3&	-11.8567
▁Enterprises	-11.8574
8690	-11.858
pres	-11.8581
IT	-11.8583
▁Rate	-11.8585
Tel	-11.8592
▁PR	-11.8592
▁flu	-11.8594
JCP	-11.86
562	-11.86
_7	-11.8601
/05/	-11.8602
▁remov	-11.8608
ire	-11.8608
43/	-11.862
/2013011915	-11.8624
0.5	-11.8635
och	-11.8642
lái	-11.8643
▁display	-11.8654
Chi	-11.8657
▁$25	-11.869
Gra	-11.8699
making	-11.87
▁580	-11.8706
1994	-11.8717
ix	-11.8718
IN	-11.8719
bbl	-11.8725
▁Joe	-11.8726
hood	-11.8729
Anton	-11.873
ury	-11.8733
78	-11.8738
call	-11.8753
▁fun	-11.8753
▁u	-11.8754
OP	-11.8762
Tur	-11.8766
lize	-11.8768
900||	-11.8773
irt	-11.8774
▁Photos	-11.8775
4-0	-11.8779
Si	-11.878
▁117	-11.8784
uda	-11.879
▁Hold	-11.8806
actor	-11.8819
909	-11.8821
dies	-11.8826
▁Track	-11.8832
1.6	-11.8842
875	-11.8845
831	-11.8851
Dun	-11.8854
=53	-11.8858
bone	-11.8861
Cat	-11.8863
▁topic	-11.8867
Jur	-11.887
96	-11.8871
tells	-11.8877
nell	-11.888
=84	-11.8887
348	-11.8902
each	-11.8903
▁Ri	-11.891
▁filming	-11.8913
93,	-11.8913
▁prove	-11.8931
▁prefer	-11.8931
Mon	-11.8934
mento	-11.8945
Conn	-11.8949
▁Schola	-11.8953
qua	-11.8959
ception	-11.8962
'';	-11.8964
lv	-11.8965
▁attend	-11.8965
668	-11.8968
Spli	-11.897
412	-11.897
ord	-11.8972
/2016/	-11.8975
▁Drama	-11.898
sec	-11.8985
bach	-11.8987
8040	-11.8994
Referenc	-11.8995
▁Max	-11.8998
risten	-11.9007
corporated	-11.9011
Schools	-11.9016
chan	-11.9017
601	-11.9018
.87	-11.9021
▁Ac	-11.9021
human	-11.9021
Clint	-11.9022
880	-11.9022
2009.	-11.9028
910.	-11.903
▁Bush	-11.9032
opt	-11.9035
lann	-11.9036
cycl	-11.9039
soft	-11.9041
estimate	-11.9042
solution	-11.9042
franchise	-11.9046
0932	-11.9048
court	-11.905
Ar	-11.9053
Force	-11.9054
Kilar	-11.9057
▁sa	-11.9058
▁ratio	-11.9061
Han	-11.9061
▁stories	-11.9068
-1987	-11.9075
1659	-11.9078
▁pla	-11.9094
extreme	-11.9097
||37	-11.9099
influence	-11.9102
▁entry	-11.9105
50839	-11.9105
ENT	-11.911
–27	-11.9112
Am	-11.9115
xim	-11.9115
▁Chang	-11.9122
ones	-11.9123
asha	-11.9138
Law	-11.9146
yrn	-11.9148
84	-11.9148
hear	-11.9151
▁composer	-11.9152
plate	-11.9153
hart	-11.9159
~	-11.9159
▁02	-11.9159
Artist	-11.9164
HE	-11.9164
▁Aud	-11.9169
droid	-11.9171
Service	-11.9172
ddle	-11.9175
810	-11.9176
5934	-11.9186
nance	-11.9186
▁Ta	-11.9186
let	-11.9188
animals	-11.9191
1985	-11.9195
API	-11.9198
RA	-11.9198
/201410	-11.9199
▁actual	-11.92
rowhead	-11.9201
▁leak	-11.9204
bay	-11.9206
CON	-11.9209
Mik	-11.9211
499	-11.9212
Buildings	-11.9214
Karl	-11.9218
032	-11.9218
return	-11.9218
horn	-11.9218
executive	-11.922
▁shar	-11.9221
patterns	-11.9221
prompt	-11.9222
characteristics	-11.9222
navy	-11.9222
cross	-11.9223
rebels	-11.9223
Thames	-11.9223
Cardiff	-11.9224
Argentina	-11.9224
Eagles	-11.9224
Guernsey	-11.9224
/200802	-11.9224
novelization	-11.9224
rns	-11.9224
Wolf	-11.9224
urrently	-11.9225
OECD	-11.9226
12.9	-11.9227
Loder	-11.9228
commerc	-11.9229
440	-11.9233
Jean	-11.9237
ignore	-11.9238
continu	-11.9241
Ord	-11.9241
Cult	-11.9242
Hallo	-11.9245
635	-11.925
▁Am	-11.9252
eclectic	-11.9253
vision	-11.9256
221	-11.9259
Fre	-11.926
medical	-11.926
craft	-11.9261
Kill	-11.9261
sexuality	-11.9263
Geographic	-11.9266
Islam	-11.9269
Verilog	-11.9269
Francis	-11.9269
Warner	-11.9269
zero	-11.927
Encyclop	-11.927
▁182	-11.927
Manson	-11.9272
ancestry	-11.9272
Look	-11.9273
Koch	-11.9273
leak	-11.9273
vertical	-11.9274
Place	-11.9274
overview	-11.9275
girl	-11.9275
Planet	-11.9276
Glo	-11.9276
potato	-11.9277
sciences	-11.9279
1603	-11.9279
select	-11.9281
quality	-11.9281
Late	-11.9283
Jay	-11.9283
ina	-11.9285
Political	-11.9287
Election	-11.9288
COPY	-11.9288
Seattle	-11.9288
68010	-11.9289
▁Wed	-11.9289
Swift	-11.929
Caribbean	-11.929
Who	-11.9291
Think	-11.9293
▁scr	-11.9293
▁hope	-11.9294
30-	-11.9295
Anthology	-11.9298
Gabriel	-11.9299
Third	-11.9299
Arista	-11.9299
Risk	-11.9299
democracy	-11.9299
Russell	-11.9299
Database	-11.9299
Ascen	-11.93
%)	-11.93
Golden	-11.93
▁Ascen	-11.9301
Ultra	-11.9301
monarchy	-11.9302
Beduin	-11.9306
innotek	-11.9306
Burren	-11.9306
JVM	-11.9306
Circuit	-11.9306
policies	-11.9306
justice	-11.9306
multiprocessing	-11.9306
Provi	-11.9306
Event	-11.9307
physical	-11.9307
fox	-11.9307
raise	-11.9308
▁shut	-11.9309
abroad	-11.9309
hospital	-11.931
Stewart	-11.931
Westminster	-11.931
clause	-11.9311
Attack	-11.9311
Netra	-11.9311
Future	-11.9311
pre	-11.9312
Motor	-11.9312
Water	-11.9312
weather	-11.9313
algae	-11.9314
Industry	-11.9314
purpose	-11.9314
margin	-11.9314
security	-11.9314
Resources	-11.9314
Sound	-11.9314
Single	-11.9314
ians	-11.9314
classic	-11.9315
Light	-11.9316
layoffs	-11.9316
Fisher	-11.9317
Cluster	-11.9317
Oliver	-11.9317
write	-11.9317
Myth	-11.9317
Group	-11.9318
tourism	-11.9318
lack	-11.9318
Application	-11.9319
Hardiman	-11.9319
constant	-11.9319
dependencies	-11.9319
latter	-11.9319
Por	-11.9319
genre	-11.9319
ug	-11.932
cycle	-11.932
supercomputer	-11.932
Inside	-11.9321
plot	-11.9321
distinct	-11.9321
xVM	-11.9322
Cobalt	-11.9322
Smith	-11.9323
claim	-11.9323
Micro	-11.9323
mill	-11.9323
method	-11.9323
whiskey	-11.9323
Cool	-11.9323
Bank	-11.9323
primar	-11.9324
battle	-11.9324
Davis	-11.9324
output	-11.9324
Football	-11.9324
fishing	-11.9324
description	-11.9324
German	-11.9325
That	-11.9325
collection	-11.9325
future	-11.9325
Death	-11.9325
galaxy	-11.9326
diocese	-11.9327
Vince	-11.9328
100,000	-11.9328
Bridge	-11.9329
Sex	-11.933
developers	-11.933
season	-11.933
control	-11.9331
Download	-11.9331
Fleadh	-11.9331
speed	-11.9332
contain	-11.9332
Oct	-11.9332
footnotes	-11.9332
browser	-11.9333
However	-11.9333
design	-11.9334
stice	-11.9334
while	-11.9334
include	-11.9334
York	-11.9334
Scientific	-11.9335
pass	-11.9335
expanded	-11.9335
copyright	-11.9336
perform	-11.9337
Help	-11.9337
profiles	-11.9337
Hill	-11.9337
▁Financ	-11.9337
Low	-11.9338
provide	-11.9338
Luke	-11.9338
Box	-11.9338
platform	-11.9339
again	-11.9339
Dean	-11.9339
Gold	-11.9339
Area	-11.9339
Reporter	-11.934
Flag	-11.9341
border	-11.9341
Talk	-11.9341
▁Bass	-11.9341
Metal	-11.9341
Top	-11.9341
Some	-11.9344
those	-11.9345
when	-11.9347
political	-11.9348
needs	-11.9348
ABC	-11.9349
Line	-11.9349
Jones	-11.935
north	-11.9351
table	-11.9351
VII	-11.9353
22|	-11.9353
992	-11.9354
female	-11.9356
fans	-11.9357
Ground	-11.9357
2012]]	-11.9359
posed	-11.9359
influenced	-11.936
mind	-11.9366
Cathedral	-11.9366
▁(2006)	-11.9367
▁Brick	-11.9367
Save	-11.9368
1701	-11.9369
Mak	-11.9371
role	-11.9372
Hart	-11.9374
reach	-11.9375
AB	-11.9377
Now	-11.9379
1928	-11.9379
ntil	-11.938
▁lists	-11.938
Card	-11.9382
Shell	-11.9382
Sage	-11.9384
pron	-11.9385
▁BE	-11.9385
▁rang	-11.9387
Lee	-11.9388
lag	-11.9391
extend	-11.9402
kn	-11.9403
also	-11.9404
made	-11.9404
▁distribut	-11.9411
block	-11.9412
330	-11.9417
tian	-11.9419
your	-11.942
/07/1	-11.9424
0.4	-11.9426
Station	-11.9429
alone	-11.9429
otto	-11.9431
eek	-11.9431
pped	-11.9431
▁bar	-11.9436
abc	-11.9436
Dec	-11.9437
throne	-11.9438
▁Wil	-11.9438
Org	-11.9442
Physics	-11.9444
757	-11.9445
oise	-11.9445
▁bas	-11.9448
inter	-11.9448
154	-11.9449
rick	-11.945
/08/	-11.9451
▁compris	-11.9451
Mun	-11.9454
/><	-11.9454
revis	-11.9454
Jane	-11.9454
ari	-11.9459
Style	-11.946
board	-11.9461
EY	-11.9463
▁170	-11.9464
09-10	-11.9464
limited	-11.9465
1<	-11.9466
nnell	-11.9467
IE	-11.9467
▁Athletic	-11.947
▁multiplexer	-11.947
▁championship	-11.9471
eriously	-11.9472
230	-11.9472
Gi	-11.9473
▁sue	-11.9474
race	-11.9476
▁bill	-11.9478
▁Know	-11.9478
ounty	-11.9478
/1	-11.9479
Rod	-11.9479
606	-11.948
VO	-11.948
NetB	-11.9482
0–18	-11.9483
poken	-11.9483
5%;"	-11.9484
Ph	-11.9485
-2010	-11.9485
hanged	-11.9486
▁250	-11.9487
▁contrast	-11.949
Laws	-11.9492
irelands	-11.9493
▁Provi	-11.9495
▁Friend	-11.9497
▁competitor	-11.9498
electronic	-11.9502
JM	-11.9502
836	-11.9503
▁Debut	-11.9503
uck	-11.9504
66,	-11.9504
recorded	-11.9504
▁Modul	-11.9504
▁parent	-11.9507
▁(2001–	-11.9507
▁sole	-11.9509
heim	-11.9513
5.5	-11.9513
▁administration	-11.9514
946	-11.9514
oka	-11.9515
▁(1998	-11.9516
▁Window	-11.9517
▁revision	-11.9518
▁arrangement	-11.9518
Publication	-11.9518
research	-11.952
475	-11.9521
▁compare	-11.9523
unflash	-11.9527
630	-11.9527
rev	-11.9528
ormac	-11.9535
▁hip	-11.9537
▁Elect	-11.9537
edit	-11.9538
ontactmusic	-11.9539
dec	-11.954
Bell	-11.9542
otti	-11.9542
talks	-11.9543
Dow	-11.9544
▁contributor	-11.9547
▁1979	-11.9556
lvo	-11.9557
MB	-11.9557
▁Ale	-11.9563
▁Develop	-11.9563
mask	-11.9564
vice	-11.9564
▁sav	-11.9566
450	-11.9567
▁unionist	-11.9568
▁Trade	-11.9568
▁resolv	-11.9571
Locat	-11.9572
=978	-11.9574
althill	-11.9575
▁scen	-11.9576
▁drug	-11.958
740	-11.9581
Cona	-11.9581
▁arriv	-11.9581
rosperity	-11.9581
Ru	-11.9583
▁Informati	-11.9586
▁Reli	-11.9591
ccumulator	-11.9592
ecitals	-11.9592
jam	-11.9596
OME	-11.9597
vailability	-11.9598
ppliance	-11.9601
▁Lit	-11.9601
▁generat	-11.9603
▁Rebel	-11.9603
▁Spani	-11.9605
▁existen	-11.9607
igious	-11.9612
Stati	-11.9614
ect	-11.9616
6.0	-11.9617
9472	-11.9618
valu	-11.9619
ragh	-11.9621
idun	-11.9624
▁packag	-11.9625
elebrities	-11.9627
▁encl	-11.9627
enocide	-11.963
emastered	-11.9631
chema	-11.9634
▁Whit	-11.9634
▁define	-11.9636
clectic	-11.9641
Alb	-11.9641
▁Reform	-11.9642
▁Civi	-11.9643
harmaceutical	-11.9644
▁Centra	-11.9645
392	-11.9645
788	-11.9646
▁possibl	-11.9646
munications	-11.9646
▁whil	-11.9647
rogress	-11.9647
▁Ger	-11.9648
0418	-11.9648
01221	-11.9648
▁immediate	-11.965
▁Muc	-11.965
=0-8	-11.9651
▁serious	-11.9652
kota	-11.9652
Camero	-11.9652
/2013082	-11.9654
viole	-11.9655
/2013/0	-11.9656
▁Ball	-11.9658
eacht	-11.9658
▁ancestr	-11.9659
/2007092	-11.9659
=52	-11.9661
▁Societ	-11.9661
▁micro	-11.9661
Sri	-11.9662
latform	-11.9662
▁Grea	-11.9662
PARC	-11.9663
▁confront	-11.9663
▁certifi	-11.9663
llumos	-11.9663
Rand	-11.9663
ceived	-11.9663
00–19	-11.9664
icholas	-11.9664
ntegrity	-11.9664
nthology	-11.9664
▁profess	-11.9665
▁possess	-11.9665
icrosoft	-11.9666
▁4-	-11.9666
Estimate	-11.9666
pirit	-11.9666
▁declar	-11.9667
Trouble	-11.9667
imilar	-11.9667
eáin	-11.9668
conduct	-11.9668
563	-11.9668
2329	-11.9668
urchase	-11.9668
trength	-11.9668
few	-11.9669
stein	-11.9669
isions	-11.9669
153	-11.9669
arrison	-11.9669
lannery	-11.9669
fina	-11.9669
liot	-11.967
oudwire	-11.967
Systems	-11.967
6||	-11.967
witz	-11.967
▁civi	-11.967
musical	-11.9671
ompetitiveness	-11.9671
ook	-11.9671
haracter	-11.9671
2007012	-11.9671
▁Quest	-11.9671
Beyond	-11.9671
zAA	-11.9671
sex	-11.9671
rr	-11.9671
egarde	-11.9671
nquisitr	-11.9671
iscrete	-11.9672
Naturalisation	-11.9672
▁neutral	-11.9672
eligi	-11.9672
Briefing	-11.9672
ollapalooza	-11.9672
▁3.141592653	-11.9672
SUSE	-11.9672
gatsby	-11.9672
Simpson	-11.9672
Concepts	-11.9672
drowsy	-11.9672
igwise	-11.9672
▁equip	-11.9672
/%40	-11.9672
ludge	-11.9672
irishexaminer	-11.9672
lizzard	-11.9672
welsh	-11.9672
▁attract	-11.9672
libraries	-11.9673
/8301-3068	-11.9673
kasdan	-11.9673
measuring	-11.9673
urotunnel	-11.9673
▁Circle	-11.9673
Lithuania	-11.9673
Columba	-11.9673
EEEEE	-11.9673
entertainer	-11.9673
legislation	-11.9673
ophy	-11.9673
seasterrirories	-11.9673
▁europaeus	-11.9673
▁percussion	-11.9673
017654	-11.9673
101.7654	-11.9673
500-2014-11"	-11.9673
=978-90-	-11.9673
Angevin	-11.9673
Barcelona	-11.9673
Charlotte	-11.9673
Clannad	-11.9673
Cosmopolitan	-11.9673
Cunliffe	-11.9673
Declaration	-11.9673
Emergenc	-11.9673
Etymology	-11.9673
Evolution	-11.9673
Forrest	-11.9673
Glendalough	-11.9673
Johannes	-11.9673
Leslie	-11.9673
Madagascar	-11.9673
McCartney	-11.9673
Presbyterian	-11.9673
Sentinel	-11.9673
Vulpes	-11.9673
Wookieepedia	-11.9673
catalog	-11.9673
disestablishment	-11.9673
edinburgh	-11.9673
ertise	-11.9673
interconnection	-11.9673
purple	-11.9673
transmission	-11.9673
▁11111111	-11.9673
▁Aguilera	-11.9673
▁Annikin	-11.9673
▁Armstrong	-11.9673
▁Auerbach	-11.9673
▁Bulgaria	-11.9673
▁Clarin	-11.9673
▁Crash	-11.9673
▁Cróinín	-11.9673
▁Dictionary	-11.9673
▁Drinking	-11.9673
▁Filoni	-11.9673
▁Iberia	-11.9673
▁Indicators	-11.9673
▁Jailer	-11.9673
▁Michigan	-11.9673
▁Portrait	-11.9673
▁Pyros	-11.9673
▁Racecourse	-11.9673
▁Robbins	-11.9673
▁Sinatra	-11.9673
▁Slump	-11.9673
▁Springsteen	-11.9673
▁Subsequent	-11.9673
▁Tobago	-11.9673
▁Wallace	-11.9673
▁Waterloo	-11.9673
▁alumni	-11.9673
▁audience	-11.9673
▁benchmark	-11.9673
▁bounce	-11.9673
▁constitute	-11.9673
▁correspond	-11.9673
▁discarded	-11.9673
▁dynasty	-11.9673
▁emphasis	-11.9673
▁huge	-11.9673
▁increment	-11.9673
▁jewellery	-11.9673
▁knowledge	-11.9673
▁latitudes	-11.9673
▁negotiate	-11.9673
▁opportunit	-11.9673
▁overwhelming	-11.9673
▁plentiful	-11.9673
▁synthesizers	-11.9673
▁universities	-11.9673
▁unsuccessful	-11.9673
▁victims	-11.9673
▁warriors	-11.9673
Leicester	-11.9673
creativity	-11.9673
▁Aonaichte	-11.9673
▁Beauty	-11.9673
▁Fowler	-11.9673
▁Gaddis	-11.9673
▁Hubert	-11.9673
▁Kurosawa	-11.9673
▁Orthodox	-11.9673
▁aesthetic	-11.9673
▁coffee	-11.9673
▁fucked	-11.9673
.24.24	-11.9673
LanaDelRey	-11.9673
Maverick	-11.9673
Wembley	-11.9673
eyonce	-11.9673
ticipat	-11.9673
tumblr	-11.9673
▁Adapt	-11.9673
▁Explor	-11.9673
▁Immediate	-11.9673
▁McQuarrie	-11.9673
▁Nottingham	-11.9673
▁Numeric	-11.9673
▁Ruess	-11.9673
▁SEssion	-11.9673
▁authentic	-11.9673
▁flora	-11.9673
▁galleries	-11.9673
▁linguist	-11.9673
Fleming	-11.9673
LGBT	-11.9673
Rachel	-11.9673
Scalable	-11.9673
Soccer	-11.9673
ublist	-11.9673
▁Attitudes	-11.9673
▁Falcon	-11.9673
▁Switch	-11.9673
▁yield	-11.9673
Swansea	-11.9673
Wolve	-11.9673
dictionary	-11.9673
smash	-11.9673
|0-521-	-11.9673
▁qualifi	-11.9673
Barbados	-11.9673
jazz	-11.9673
▁mechanics	-11.9673
Addiction	-11.9673
motocross	-11.9673
▁Mishima	-11.9673
▁Monitor	-11.9673
GRAMMY	-11.9673
JUMP	-11.9673
Kertzer	-11.9673
▁Byrne	-11.9673
▁Trump	-11.9673
▁inherit	-11.9673
Wicket	-11.9673
etroleum	-11.9673
▁(1985–1986)	-11.9673
▁echo	-11.9673
▁spqr	-11.9673
▁teeth	-11.9673
▁timber	-11.9673
Stormtrooper	-11.9673
dovic	-11.9673
▁Holmes	-11.9673
trillion	-11.9673
licence	-11.9673
▁Richmond	-11.9673
▁rotation	-11.9673
eminem	-11.9673
mcnealy	-11.9673
▁Communities	-11.9673
Display	-11.9673
conference	-11.9673
▁Covenant	-11.9673
▁milk	-11.9673
▁Causeway	-11.9673
▁Generic	-11.9673
▁eleven	-11.9673
lawrence	-11.9673
▁expectations	-11.9673
▁obtain	-11.9673
▁persua	-11.9673
▁LIAB	-11.9673
▁Perform	-11.9673
▁circuit	-11.9673
Iraq	-11.9673
Speed	-11.9673
Unitary	-11.9673
▁Kinberg	-11.9673
▁Airways	-11.9673
guration	-11.9673
hadowlocked	-11.9673
munic	-11.9673
Presence	-11.9673
awnshop	-11.9673
farewell	-11.9673
▁chick	-11.9673
▁Multiply	-11.9673
ZswwC	-11.9673
_19_	-11.9673
scottish	-11.9673
▁2011|2011]]	-11.9673
▁contact	-11.9673
▁Courage	-11.9673
▁Lehman	-11.9673
▁personification	-11.9673
▁portray	-11.9673
springsteen	-11.9673
▁monast	-11.9673
aravan	-11.9673
discrimination	-11.9673
▁implication	-11.9673
-20140716	-11.9673
12030	-11.9673
endianness	-11.9673
▁Federation	-11.9673
▁catalogue	-11.9673
▁slave	-11.9673
Fortune	-11.9673
Military	-11.9673
▁Henson	-11.9673
▁Happiness	-11.9673
76743	-11.9673
Graham	-11.9673
france	-11.9673
summaryresults	-11.9673
▁(1977)	-11.9673
▁Wellington	-11.9673
Deadline	-11.9673
Utilitarianism	-11.9673
Hutt	-11.9673
▁Graffiti	-11.9673
▁Shah	-11.9673
Theodor	-11.9673
bbreviat	-11.9673
parody	-11.9673
ucket	-11.9673
▁/>([[	-11.9673
Primus	-11.9673
▁Hamill	-11.9673
magnitude	-11.9673
▁pipe	-11.9673
Bantry	-11.9673
▁predator	-11.9673
Directgov	-11.9673
attoo	-11.9673
Derek	-11.9673
medic	-11.9673
▁Treasur	-11.9673
police	-11.9673
▁Bummer	-11.9673
nnotated	-11.9673
▁Bureau	-11.9673
▁neutrality	-11.9673
▁danger	-11.9673
Wilfr	-11.9674
uldoon	-11.9674
hsoka	-11.9674
▁15:58	-11.9674
▁federa	-11.9674
/2011/10/	-11.9674
▁Launch	-11.9674
▁limb	-11.9674
Sober	-11.9674
▁Rifles	-11.9674
Banyan	-11.9674
prize	-11.9674
▁McDiarmid	-11.9674
/2013/08/	-11.9674
andora	-11.9674
Dickens	-11.9674
▁beaches	-11.9674
▁Atris	-11.9674
▁Benioff	-11.9674
▁KSUSE	-11.9674
Brunei	-11.9674
▁addiction	-11.9674
Stev	-11.9674
▁Perspective	-11.9674
Panther	-11.9674
▁Cameo	-11.9674
▁Shai	-11.9674
reatain	-11.9674
terdam	-11.9674
Anglicisation	-11.9674
▁shadows	-11.9674
Cancel	-11.9674
drift	-11.9674
▁Hartley	-11.9674
▁distance	-11.9674
Aaron	-11.9674
Discography	-11.9674
▁discrete	-11.9674
maxsize	-11.9674
trump	-11.9674
▁Angels	-11.9674
▁Regulation	-11.9674
▁expedition	-11.9674
4030/	-11.9674
/2008/11/	-11.9674
▁signature	-11.9674
awson	-11.9674
/2012030	-11.9674
▁mathematician	-11.9674
paramilitary	-11.9674
Carrau	-11.9674
ncarta	-11.9674
iaspor	-11.9674
70301	-11.9675
dream	-11.9675
powerhouse	-11.9675
XML	-11.9675
/201511	-11.9675
/201705	-11.9675
0857	-11.9675
▁tension	-11.9675
GnR	-11.9675
▁Stein	-11.9675
▁lawyer	-11.9675
▁Clad	-11.9675
endrick	-11.9675
387-9	-11.9675
german	-11.9675
▁Assessment	-11.9675
Dingle	-11.9675
SEMO	-11.9675
11/06	-11.9675
▁Barrel	-11.9675
▁Lloyd	-11.9675
Eurostat	-11.9675
bodystyle	-11.9675
▁competitiveness	-11.9675
Loudwire	-11.9675
mund	-11.9675
▁sheep	-11.9675
Neely	-11.9675
uire	-11.9675
▁Eoch	-11.9676
▁0-345-4	-11.9676
▁Davies	-11.9676
collectible	-11.9676
▁Spy	-11.9676
▁Wishworld	-11.9676
▁Carti	-11.9676
/1992/	-11.9676
Royce	-11.9676
gravity	-11.9676
▁possibility	-11.9676
Maurice	-11.9676
/2010011	-11.9676
▁Curriculum	-11.9676
▁COM	-11.9676
▁Gaul	-11.9676
/2013080	-11.9676
Natalia	-11.9676
▁Beckett	-11.9676
orphan	-11.9676
6896	-11.9676
6-03	-11.9676
stopping	-11.9676
▁Dress	-11.9676
proprietary	-11.9676
Everybody	-11.9676
Teampa	-11.9676
=1996	-11.9677
▁gangst	-11.9677
▁negative	-11.9677
talent	-11.9677
verna	-11.9677
29375	-11.9677
09271	-11.9677
▁Tuath	-11.9677
371	-11.9677
▁disband	-11.9677
▁3.1415926535	-11.9677
▁identical	-11.9677
assic	-11.9677
▁frag	-11.9678
▁repris	-11.9678
▁Alaba	-11.9678
62340	-11.9678
Whitfield	-11.9678
allaghan	-11.9678
theater	-11.9678
ellig	-11.9678
hemical	-11.9678
9103	-11.9678
Telos	-11.9678
▁computation	-11.9678
▁odd	-11.9678
▁dogs	-11.9678
/2008090	-11.9679
▁strength	-11.9679
▁(1985–	-11.9679
Conrad	-11.9679
▁liber	-11.9679
Jenni	-11.9679
Westwell	-11.9679
Sheet	-11.9679
▁surge	-11.9679
86900	-11.9679
unci	-11.9679
▁acknowledge	-11.968
Longford	-11.968
▁Lyn	-11.968
essage	-11.968
/0,,20	-11.968
▁Webber	-11.968
4,98	-11.968
|2005|	-11.968
▁Newswire	-11.968
ilot	-11.968
▁radical	-11.9681
|2015|	-11.9681
fett	-11.9681
overtakes	-11.9681
surname	-11.9681
=1975	-11.9681
joy	-11.9681
▁Shore	-11.9681
▁Vong	-11.9681
▁Jinn	-11.9681
AAJ	-11.9681
Medium	-11.9681
▁reception	-11.9681
▁Fiach	-11.9681
Solomon	-11.9681
FGS	-11.9681
▁Enter	-11.9681
joe	-11.9681
▁Labor	-11.9681
▁kit	-11.9682
tiri	-11.9682
▁differ	-11.9682
Carter	-11.9682
▁applies	-11.9682
Lenovo	-11.9682
MPL	-11.9682
▁Integrity	-11.9682
▁real	-11.9682
1881	-11.9682
TFR	-11.9683
▁Cardi	-11.9683
▁Weight	-11.9683
leep	-11.9683
▁09:	-11.9683
▁weak	-11.9683
00125	-11.9683
azi	-11.9683
▁Rogers	-11.9683
Harlow	-11.9684
▁tape	-11.9684
Ramin	-11.9684
attachment	-11.9684
▁CALL	-11.9684
▁1976	-11.9684
▁1840	-11.9684
▁Trick	-11.9684
2006"/>	-11.9684
▁republic	-11.9684
imited	-11.9684
lender	-11.9684
▁lion	-11.9685
▁collaborator	-11.9685
salis	-11.9685
THER	-11.9685
▁surfing	-11.9685
Carlo	-11.9685
▁sick	-11.9685
blems	-11.9685
Poynings	-11.9686
▁Prix	-11.9686
cras	-11.9686
gest	-11.9686
▁Chau	-11.9686
▁Historically	-11.9686
billy	-11.9686
voyage	-11.9687
blend	-11.9687
▁1651	-11.9687
▁scholars	-11.9687
10000000	-11.9687
▁hexa	-11.9687
▁67	-11.9687
lence	-11.9687
1024–	-11.9688
5724	-11.9688
▁slow	-11.9688
▁wish	-11.9689
▁dome	-11.9689
Andrea	-11.9689
eminen	-11.9689
tius	-11.9689
Syno	-11.9689
TBA	-11.9689
AllMusic	-11.969
▁Indies	-11.969
llars	-11.969
▁Wire	-11.969
aria	-11.9691
2850	-11.9691
▁freighter	-11.9691
▁nationality	-11.9691
4930/	-11.9691
▁1484	-11.9691
▁Run	-11.9691
▁sung	-11.9691
EVE	-11.9691
▁Diana	-11.9691
/20121110	-11.9691
Colin	-11.9692
▁0006	-11.9692
essays	-11.9692
depth	-11.9692
4200	-11.9692
▁Bailey	-11.9692
|6}}	-11.9692
▁composition	-11.9692
-531	-11.9692
otho	-11.9692
▁countryside	-11.9692
israel	-11.9693
Ellen	-11.9693
▁Levin	-11.9693
Hummi	-11.9694
Mothership	-11.9694
▁thriv	-11.9694
cream	-11.9694
▁1815	-11.9694
▁Christie	-11.9694
Load	-11.9694
ectly	-11.9694
▁Beast	-11.9694
▁0-8	-11.9694
▁Convert	-11.9695
▁Rather	-11.9695
▁immediately	-11.9695
presso	-11.9696
▁broadcaster	-11.9696
▁normalized	-11.9696
anjos	-11.9697
cious	-11.9697
appa	-11.9697
onMo	-11.9697
Woman	-11.9697
jay	-11.9697
scape	-11.9697
5723	-11.9698
07105	-11.9698
nid	-11.9699
csw	-11.9699
urge	-11.9699
quiet	-11.9699
ullen	-11.9699
Career	-11.9699
esc	-11.97
+1}	-11.97
▁Hayes	-11.97
Darcy	-11.97
▁supervis	-11.97
owed	-11.9701
Arie	-11.9701
▁Sylvi	-11.9701
▁(2013)	-11.9701
OLY	-11.9701
▁00000000	-11.9701
iron	-11.9702
ISC	-11.9702
Huffington	-11.9703
▁Projection	-11.9703
▁photography	-11.9703
Nam	-11.9703
▁306	-11.9703
prod	-11.9703
▁419	-11.9703
▁reptile	-11.9703
▁explanat	-11.9703
astronomy	-11.9704
11-	-11.9705
Callan	-11.9705
▁Few	-11.9705
3-28	-11.9705
874	-11.9705
equality	-11.9706
▁Setlist	-11.9706
▁705	-11.9706
ellow	-11.9706
groupstyle	-11.9706
Newport	-11.9707
▁$37	-11.9707
scot	-11.9707
▁beats	-11.9707
||187	-11.9707
▁(1983)	-11.9707
lliam	-11.9707
▁Gage	-11.9707
15–1	-11.9707
tual	-11.9707
Cuill	-11.9708
883/	-11.9709
▁1940	-11.9709
▁Psych	-11.9709
RTI	-11.971
="1"	-11.9711
GQ	-11.9711
▁Bran	-11.9711
realism	-11.9711
Bas	-11.9711
pressrelease	-11.9711
-1985-	-11.9712
▁Allies	-11.9712
Bounty	-11.9712
redir	-11.9712
749	-11.9713
▁Animals	-11.9713
bts	-11.9713
▁Debat	-11.9713
▁Holdings	-11.9713
Bouncers	-11.9714
Dressellians	-11.9714
▁institutions	-11.9714
▁realms	-11.9714
Landscapes	-11.9714
4100	-11.9714
1477	-11.9715
VHS	-11.9715
ECD	-11.9715
▁Weiss	-11.9715
etal	-11.9716
987-	-11.9716
▁ADD	-11.9716
▁Dissenters	-11.9716
Jacobites	-11.9717
ump	-11.9717
2880	-11.9717
perry	-11.9718
Hano	-11.9718
uclear	-11.9718
▁10000	-11.9718
superstar	-11.9718
▁skills	-11.9719
celebrities	-11.9719
Gill	-11.9719
▁1931	-11.9719
9-2	-11.972
Milton	-11.972
▁peer	-11.972
▁accept	-11.972
seemingly	-11.9721
vatar	-11.9722
Spit	-11.9722
▁409	-11.9722
▁Apo	-11.9723
57.	-11.9723
Buen	-11.9724
▁Guin	-11.9724
Korn	-11.9725
-20111	-11.9725
1366	-11.9725
ween	-11.9726
Corc	-11.9726
-13-	-11.9726
/20111107	-11.9727
Gren	-11.9728
▁Diamond	-11.9729
▁Nationalist	-11.9729
oops	-11.9729
fees	-11.973
pita	-11.973
,590	-11.9731
=149	-11.9731
▁postal	-11.9731
▁flap	-11.9731
▁Convers	-11.9731
/201406	-11.9731
▁kid	-11.9732
Masa	-11.9732
lood	-11.9733
600,000	-11.9733
precedent	-11.9733
enship	-11.9733
▁initiat	-11.9733
▁199	-11.9734
/17	-11.9734
▁normal	-11.9734
▁263	-11.9735
▁1920	-11.9735
Sheridan	-11.9736
lancy	-11.9736
anka	-11.9736
▁alleg	-11.9736
▁household	-11.9736
222&	-11.9737
10]	-11.9737
▁hurl	-11.9738
ackag	-11.9739
Portland	-11.9739
Tonk	-11.9739
porti	-11.9739
1032	-11.974
Eriu	-11.974
3681	-11.9742
▁butter	-11.9743
▁INC	-11.9743
ympath	-11.9743
Filmography	-11.9744
▁Statement	-11.9745
mmigration	-11.9746
%3	-11.9746
/20100	-11.9747
rase	-11.9747
oltage	-11.9747
minis	-11.9748
10/09	-11.9749
zone	-11.975
Speaker	-11.975
▁encod	-11.975
▁context	-11.975
2013	-11.9751
▁Feat	-11.9751
istoriography	-11.9751
ehold	-11.9751
epic	-11.9751
devolution	-11.9751
=1988	-11.9752
▁Ago	-11.9752
▁litera	-11.9753
▁Peter	-11.9754
lassification	-11.9754
TMS	-11.9755
aughter	-11.9755
archaeology	-11.9756
/08	-11.9757
▁Mandel	-11.9757
Irvin	-11.9757
▁(1981)	-11.9758
Brett	-11.9758
▁€4	-11.9758
balt	-11.9758
9.0	-11.9759
▁(2007)	-11.9759
▁$100	-11.9759
;2	-11.976
▁47	-11.976
▁birds	-11.976
MX	-11.9761
Much	-11.9761
lsen	-11.9761
arke	-11.9762
▁quest	-11.9763
ame	-11.9763
▁Announced	-11.9763
▁Lor	-11.9764
▁Scientist	-11.9764
▁Zahn	-11.9764
▁Beatles	-11.9764
▁Celebrity	-11.9764
▁Composer	-11.9764
▁Gatsby	-11.9764
▁unemployment	-11.9764
▁Desire	-11.9764
▁Points	-11.9764
▁statute	-11.9764
▁Drummer	-11.9764
▁divorce	-11.9764
▁intellectual	-11.9764
▁Palmer	-11.9764
▁Philosophy	-11.9764
▁angling	-11.9764
▁residence	-11.9764
▁royalties	-11.9764
▁citizenship	-11.9765
▁Phillips	-11.9765
▁Driven	-11.9765
▁couple	-11.9765
▁plantations	-11.9765
▁Burtt	-11.9765
▁Jonathan	-11.9765
▁expos	-11.9765
▁Fixed	-11.9765
/200809	-11.9765
▁Blaster	-11.9765
▁playwright	-11.9765
▁Evil	-11.9766
3656	-11.9766
▁Gaga	-11.9766
▁Ethnicity	-11.9766
▁quick	-11.9766
▁YEAR	-11.9767
▁Coleman	-11.9767
▁renew	-11.9767
▁Kick	-11.9767
oncert	-11.9768
▁Greg	-11.9768
▁conque	-11.9769
▁Monster	-11.9769
▁Fir	-11.9769
▁rebellion	-11.9769
▁conversation	-11.977
▁Surprise	-11.977
927	-11.977
ican	-11.9771
▁Doug	-11.9771
▁Catholicism	-11.9771
Toys	-11.9772
▁favorite	-11.9772
▁definition	-11.9772
hW	-11.9773
eire	-11.9775
Overview	-11.9775
Coury	-11.9777
2&	-11.9778
Classical	-11.9778
▁Tables	-11.9779
▁absen	-11.978
▁Car	-11.9781
responsibilities	-11.9781
destructive	-11.9783
Case	-11.9785
-116	-11.9785
▁departures	-11.9785
1800|	-11.9785
Britton	-11.9786
▁Speaks	-11.9786
▁Wells	-11.9787
▁Yu	-11.9787
▁forested	-11.9787
72,72	-11.9787
dence	-11.9788
0112	-11.9788
assembly	-11.9788
fold	-11.9789
▁excit	-11.979
▁Wax	-11.979
▁NFS	-11.979
=978-0-19-	-11.979
0376	-11.9791
▁Lizzy	-11.9791
▁Folk	-11.9792
▁$9	-11.9792
Briton	-11.9792
fman	-11.9793
angelis	-11.9793
0008	-11.9794
▁questions	-11.9794
▁shield	-11.9794
▁(1987)	-11.9795
▁imagery	-11.9795
|3}}	-11.9796
897	-11.9796
Blog	-11.9797
▁Butt	-11.9798
Carn	-11.98
pqa	-11.9804
EPA	-11.9805
▁anymore	-11.9806
etary	-11.9806
▁crops	-11.9807
▁spell	-11.9807
USI	-11.9809
stayed	-11.9809
▁none	-11.9811
▁brow	-11.9813
/2014/0	-11.9813
sunday	-11.9814
Port	-11.9814
poste	-11.9814
126|	-11.9815
544	-11.9815
Six	-11.9816
75&	-11.9817
▁feeling	-11.9818
arist	-11.9819
same	-11.982
2449	-11.982
spell	-11.982
▁Bal	-11.9821
▁bull	-11.9821
750&	-11.9822
Eg	-11.9822
▁2007–20	-11.9822
VE	-11.9822
Cock	-11.9822
cQ	-11.9822
vy	-11.9823
13-4	-11.9823
,684	-11.9824
▁ph	-11.9824
1057	-11.9825
▁mal	-11.9827
aliano	-11.9827
coal	-11.9827
61,8	-11.983
RIA	-11.983
▁(2003)	-11.983
hand	-11.9832
ilg	-11.9833
Li	-11.9833
osario	-11.9835
▁Nu	-11.9835
460	-11.9835
550	-11.9836
3700|	-11.9836
CIA	-11.9837
7095	-11.9837
▁altered	-11.9838
erfor	-11.9838
SMM	-11.984
342/	-11.984
▁(1981	-11.984
enstein	-11.9841
▁bytes	-11.9841
ister	-11.9841
/2007	-11.9842
imulation	-11.9842
oble	-11.9842
▁fuel	-11.9843
UKE	-11.9844
▁dir	-11.9845
SD	-11.9845
▁perf	-11.9846
mete	-11.9847
ssica	-11.9847
llo	-11.9848
▁DeBe	-11.9849
167	-11.9849
brands	-11.985
MON	-11.9851
▁Bros	-11.9851
▁Friends	-11.9852
▁37,	-11.9853
▁145	-11.9854
RES	-11.9856
Moran	-11.9856
=67	-11.9857
LP	-11.9857
▁Timing	-11.9857
▁Guitars	-11.9858
ME	-11.9859
▁contexts	-11.9859
▁1900	-11.9859
▁drugs	-11.9859
▁contrasts	-11.9859
▁ri	-11.9861
▁Temperat	-11.9862
▁Hay	-11.9862
trick	-11.9862
▁administrations	-11.9862
▁Call	-11.9863
laid	-11.9863
1832	-11.9867
XC	-11.9868
▁430	-11.9868
4.9	-11.9869
8<	-11.9872
▁reviewed	-11.9875
dmo	-11.9876
▁arena	-11.9877
00000|	-11.9878
▁Travellers	-11.9878
1948	-11.9879
upid	-11.9879
▁Bow	-11.9883
complicated	-11.9883
íl	-11.9885
▁fighting	-11.9885
bou	-11.9889
▁revis	-11.9889
=745	-11.989
hough	-11.989
416	-11.9891
apr	-11.9897
donates	-11.9897
▁242	-11.9897
Eve	-11.9898
EL	-11.9898
nked	-11.9899
438	-11.99
|6|	-11.9901
Bram	-11.9903
''(	-11.9904
▁Communi	-11.9907
2-7	-11.9907
▁206	-11.9908
-5|	-11.9909
▁Vi	-11.9911
git	-11.9913
22/	-11.9914
▁motor	-11.9916
arrell	-11.9916
tl	-11.9921
ogh	-11.9921
/14/	-11.9921
vement	-11.9922
nl	-11.9922
▁virtualiz	-11.9924
▁charit	-11.9924
▁Israel	-11.9925
▁Iceland	-11.9925
▁Kildare	-11.9925
▁Materials	-11.9925
▁voting	-11.9925
▁Chewbacca	-11.9925
▁Cromwell	-11.9925
▁Emperor	-11.9925
▁Tyler	-11.9925
▁vehicles	-11.9925
▁Citizen	-11.9925
▁Barabel	-11.9925
▁opinion	-11.9925
▁FAI	-11.9925
▁eighteen	-11.9925
▁thin	-11.9925
▁McGuinness	-11.9926
infobox	-11.9926
▁rainfall	-11.9927
▁Elliott	-11.9927
▁Saturday	-11.9928
▁platinum	-11.9928
▁Stephen	-11.9928
▁debate	-11.9928
▁Grad	-11.993
pole	-11.9931
▁Baker	-11.9931
trends	-11.9931
|1992	-11.9932
▁sisters	-11.9934
-1994	-11.9934
▁Hunt	-11.9934
6233	-11.9934
▁Chronicles	-11.9934
ARE	-11.9934
▁dating	-11.9935
▁Ways	-11.9935
5.1	-11.9938
413	-11.9939
▁Highest	-11.994
orial	-11.994
driven	-11.9941
▁fin	-11.9942
Cas	-11.9943
Sp	-11.9943
metals	-11.9945
▁Carey	-11.9945
tory	-11.9945
induction	-11.9946
▁Mass	-11.9947
altar	-11.9947
2-26	-11.9948
▁Eastern	-11.9948
▁partner	-11.9948
Handel	-11.9949
/2003/	-11.995
7272	-11.995
▁Carto	-11.9951
▁Gri	-11.9951
lton	-11.9951
▁players	-11.9952
Ci	-11.9954
hbs	-11.9956
-84	-11.9956
▁MPs	-11.9959
ustic	-11.9961
▁lib	-11.9961
entative	-11.9963
▁167	-11.9963
36,	-11.9964
Dai	-11.9964
▁Update	-11.9965
▁Geographic	-11.9967
▁Ana	-11.9968
/229	-11.9969
|14	-11.997
=0.	-11.9972
ece	-11.9972
enten	-11.9973
▁Bull	-11.9973
alty	-11.9974
2.1	-11.9975
ences	-11.9976
▁sl	-11.9976
Fuck	-11.9977
chill	-11.9979
Pound	-11.998
reality	-11.9982
stable	-11.9984
backs	-11.9985
!!!	-11.9986
rox	-11.9989
▁Fund	-11.9989
▁Merc	-11.9991
▁ears	-11.9991
=2009|	-11.9992
rickell	-11.9992
1/3	-11.9992
CDref	-11.9996
775	-11.9997
ri	-11.9997
Amar	-11.9998
dding	-11.9999
▁Manufactur	-11.9999
20.9	-12
atum	-12
▁comp	-12.0001
▁$9.	-12.0005
FORM	-12.0005
▁collaborate	-12.0006
dept	-12.0007
OH	-12.0008
▁jumps	-12.0009
▁Fields	-12.001
epop	-12.0012
▁Cards	-12.0012
1145	-12.0014
=0-	-12.0015
441	-12.0017
▁Mothers	-12.0017
ously	-12.0019
▁Sites	-12.002
8250	-12.0021
/2012/11/	-12.0027
26/	-12.003
roadcasting	-12.0031
0||?||	-12.0035
▁reforms	-12.0036
▁Let	-12.0037
▁interested	-12.0039
243	-12.004
=185	-12.004
▁Ide	-12.0042
raction	-12.0044
▁Sens	-12.0049
hutdown	-12.0051
lda	-12.0054
▁Cry	-12.0055
tter	-12.0059
▁Guitar	-12.006
▁tr	-12.006
tsuko	-12.0062
▁cars	-12.0069
5863	-12.0069
avo	-12.007
Tra	-12.007
406154	-12.007
TAR	-12.0072
▁Form	-12.0073
|2016|	-12.0074
▁dish	-12.0078
,433	-12.0079
▁Core	-12.0081
▁costs	-12.0084
▁Encyclop	-12.0086
▁procedures	-12.0086
4-7	-12.0087
▁monarchs	-12.0087
004	-12.0088
endo	-12.0088
▁Francis	-12.0088
53,	-12.0088
Alli	-12.009
Les	-12.009
▁soundtracks	-12.009
▁zero	-12.0093
▁Verilog	-12.0093
▁Islam	-12.0093
▁craft	-12.0094
03.	-12.0094
traige	-12.0096
▁potato	-12.0096
46&	-12.0096
▁MD	-12.0097
▁vertical	-12.0097
=2005|	-12.0097
being	-12.0097
zie	-12.0099
▁371	-12.0103
▁Koch	-12.0105
sso	-12.0105
▁boss	-12.0106
▁Ross	-12.0107
▁Warner	-12.0109
▁Place	-12.011
▁1603	-12.0113
bob	-12.0115
▁forum	-12.0116
▁Manson	-12.0118
hills	-12.0119
▁penn	-12.012
Sit	-12.0121
Palac	-12.0122
▁overview	-12.0122
1|27	-12.0124
▁1998.	-12.0126
▁220	-12.0127
▁ancestry	-12.0128
uploaded	-12.0129
multimedia	-12.0129
spectively	-12.0133
▁Ua	-12.0135
editions	-12.0135
sters	-12.0138
|2001	-12.0139
-200-	-12.014
▁Look	-12.0144
▁broadcasting	-12.0147
ylon	-12.0147
▁aid	-12.0148
▁Hol	-12.0148
▁Sound	-12.0148
14.2	-12.0152
modernist	-12.0158
dell	-12.0158
1500.	-12.0159
▁Rings	-12.0162
▁associations	-12.0164
▁keyboards	-12.0164
▁Ground	-12.0167
Vic	-12.0167
preview	-12.0167
▁humans	-12.0172
otter	-12.0174
7|	-12.0174
}}<!--	-12.0174
1831	-12.0175
lly	-12.0177
tlin	-12.0177
rage	-12.0177
esty	-12.0182
▁judges	-12.0183
▁stee	-12.0183
king	-12.0186
jr	-12.0186
▁Ble	-12.0187
-2014-	-12.0188
▁Rac	-12.0193
▁€5.	-12.0193
ied	-12.0195
Emil	-12.0196
▁Fea	-12.0197
1958	-12.0198
300||	-12.0199
1851	-12.0201
▁animal	-12.0201
▁153	-12.0204
74197	-12.0205
abstract	-12.0207
▁profits	-12.0207
stival	-12.021
▁coal	-12.021
autism	-12.0211
/2012	-12.0218
TOC	-12.0219
ruz	-12.022
▁154	-12.022
▁(16	-12.0221
JJ	-12.0224
277	-12.0226
320	-12.0228
case	-12.0229
▁Sage	-12.0232
▁Roy	-12.0233
1.8	-12.0235
inished	-12.0235
▁councils	-12.0242
505	-12.0242
0287	-12.0242
Heart	-12.0244
'-'	-12.0247
andler	-12.0249
▁sk	-12.0254
unner	-12.0254
▁Pipe	-12.0258
nB	-12.0259
care	-12.0262
▁Pakistan	-12.0266
▁Proceed	-12.0266
▁Wexford	-12.0267
▁Kurt	-12.0267
▁Dependencies	-12.0267
▁Wimbledon	-12.0268
igs	-12.0269
|300	-12.027
▁Austin	-12.0271
ker	-12.0271
rovider	-12.0272
84/	-12.0273
ews	-12.0274
▁FAQ	-12.0274
▁1961	-12.0278
themes	-12.0278
▁230	-12.0279
oj	-12.0279
558/	-12.0279
rocke	-12.0281
▁1.1	-12.0283
▁Ham	-12.0283
toc	-12.0283
▁Hear	-12.0283
20070	-12.0284
612	-12.0284
▁Sy	-12.0286
rical	-12.029
dale	-12.0294
=3&	-12.0297
▁pound	-12.0298
▁2002|	-12.0302
▁warme	-12.0305
388	-12.0307
▁sec	-12.0308
▁Bro	-12.0309
save	-12.031
▁Christians	-12.0313
▁Want	-12.0313
1849	-12.0313
09181	-12.0326
Nic	-12.0328
▁207	-12.0335
▁3.0	-12.0337
▁Gen	-12.0337
▁beside	-12.0338
naturalis	-12.0339
265	-12.0339
2-17	-12.034
ingham	-12.0341
Tree	-12.0342
joins	-12.0343
▁Arme	-12.0343
bra	-12.0348
▁credits	-12.0349
▁|425	-12.035
mbling	-12.0356
ike	-12.0356
arvard	-12.0359
Dung	-12.0359
/200702	-12.0359
▁w	-12.0362
-45	-12.0366
005	-12.0367
▁conc	-12.0371
▁Bern	-12.0378
ZA	-12.0379
/162	-12.0379
1-0	-12.0389
867	-12.039
▁Ont	-12.0391
1981–	-12.0393
▁Ten	-12.0394
kC	-12.0399
aul	-12.0399
▁Just	-12.0402
▁guard	-12.0405
=2017-03-	-12.0405
tries	-12.0409
points	-12.0409
rom	-12.0415
4449	-12.042
=978-1-84	-12.0427
commons	-12.0427
▁bone	-12.0429
▁volume	-12.043
27&	-12.0434
▁subtitle	-12.0435
1562	-12.0437
Eloms	-12.0437
Fa	-12.0438
2045	-12.0442
▁geek	-12.0443
▁Quinn	-12.0443
▁kingdom	-12.0443
ando	-12.0446
Lin	-12.0451
▁IX	-12.0453
▁Cayman	-12.0456
0")	-12.0459
4.1	-12.0464
=179	-12.0465
=2007|	-12.0466
/153	-12.0467
▁2000.<	-12.0468
▁bla	-12.0469
▁Tele	-12.0469
▁Hard	-12.0472
▁mini	-12.0475
▁|3,	-12.0476
▁offerings	-12.0483
/48	-12.0487
trench	-12.0488
▁intend	-12.0492
Fry	-12.0493
▁Terry	-12.0496
▁ABC	-12.0496
▁iron	-12.0507
mmys	-12.0508
6.	-12.0509
aki	-12.051
/200910	-12.051
theless	-12.0512
fis	-12.0517
nami	-12.0518
▁KC	-12.0521
veni	-12.0521
▁Dun	-12.0527
▁pushe	-12.0529
10.4	-12.053
Anne	-12.0548
ned	-12.055
Xe	-12.0553
▁12:	-12.0554
unlikely	-12.056
817	-12.0562
▁stream	-12.0566
oky	-12.057
▁Der	-12.0573
▁provinces	-12.0573
▁Kin	-12.0575
▁103	-12.0575
▁bre	-12.0577
tial	-12.0583
▁pa	-12.0584
Activ	-12.0586
▁Lead	-12.0586
▁qu	-12.0589
Move	-12.059
▁refus	-12.0592
▁directing	-12.0595
ishlist	-12.0597
/29/	-12.0597
262	-12.0602
wikia	-12.0604
pinner	-12.0604
hib	-12.0605
."|	-12.0607
▁229	-12.0609
▁Zi	-12.061
comes	-12.0611
cast	-12.0612
Said	-12.0613
▁Mid	-12.0613
Sen	-12.0616
ears	-12.062
▁Margaret	-12.0624
▁trans	-12.0626
uch	-12.0626
liability	-12.0626
▁Howard	-12.0627
9-	-12.0631
eck	-12.0633
3109	-12.0633
2.6	-12.0634
Enco	-12.064
▁conflicts	-12.0643
▁capitals	-12.0643
ianna	-12.0647
▁Ris	-12.0654
pper	-12.0655
151	-12.0657
▁SON	-12.0658
02270	-12.066
▁icon	-12.0662
▁1984.	-12.0664
▁exists	-12.0665
▁recordings	-12.0665
▁follows	-12.0678
04&	-12.068
____________	-12.069
▁arch	-12.07
iste	-12.0701
/1991/	-12.0702
ched	-12.0714
acent	-12.0715
Lauren	-12.0718
pm	-12.0722
Edwards	-12.0725
389/	-12.0732
Antoni	-12.0733
▁boxing	-12.0734
308	-12.0736
aterford	-12.0739
''<	-12.0739
271	-12.0742
▁Electronics	-12.075
)====	-12.0751
▁Ni	-12.0753
=====	-12.0761
▁Forb	-12.0764
▁essen	-12.0766
502	-12.0767
▁Door	-12.0768
so	-12.078
generati	-12.0781
▁14.	-12.0782
▁11.	-12.0791
gal	-12.0791
-14	-12.0793
492	-12.0795
▁culminat	-12.0797
SR	-12.0808
▁black	-12.0809
28">{{	-12.0809
▁Louis	-12.0809
▁+----	-12.0809
▁Authority	-12.0813
282	-12.0814
-10_	-12.0817
Kei	-12.0819
lays	-12.082
▁Met	-12.0824
1000|	-12.0824
▁Dis	-12.0827
ilton	-12.0827
▁Bre	-12.0828
railblazer	-12.0831
8||2	-12.0832
load	-12.0835
di	-12.0839
=76	-12.0841
903	-12.0851
ver	-12.0859
7000	-12.0861
/201112	-12.0862
Leav	-12.0864
()	-12.0865
1442	-12.0872
undi	-12.0873
Ad	-12.0873
47	-12.0876
350||	-12.0876
–25	-12.0882
iente	-12.0882
bk	-12.0883
▁Bat	-12.0885
-83	-12.0891
reissues	-12.0892
▁06	-12.0897
ego	-12.0898
seal	-12.09
wilde	-12.0901
1956	-12.0902
▁Ash	-12.0903
▁uncle	-12.0907
554	-12.0908
tales	-12.091
va	-12.0912
arriers	-12.0914
▁Legend	-12.0915
/4	-12.0918
TRA	-12.0918
ible	-12.0922
1821	-12.0924
▁stru	-12.0926
▁insist	-12.0926
orta	-12.0934
5.0	-12.0935
Shadows	-12.0936
▁Bad	-12.0937
▁195	-12.0938
▁Inno	-12.0938
/20101	-12.0941
1003	-12.0943
shi	-12.0943
▁decrease	-12.0945
7895	-12.0945
▁(196	-12.0946
Ag	-12.095
▁Bon	-12.0953
sim	-12.0954
Ra	-12.0959
▁13.	-12.0959
Gera	-12.096
▁5.5	-12.096
▁Paul	-12.0962
Tera	-12.0963
rad	-12.0971
La	-12.0972
▁assembl	-12.0973
918	-12.0976
5"	-12.099
▁mouth	-12.0996
▁YouTube	-12.0998
▁Kilkenny	-12.0998
welcomes	-12.1
ake	-12.1009
ther	-12.1022
Sing	-12.1022
98	-12.1023
253	-12.1025
ramp	-12.1027
ange	-12.1029
▁12.	-12.1031
SL	-12.1033
oce	-12.1033
04,	-12.1034
▁2%	-12.1036
equel	-12.1038
▁guitars	-12.104
WI	-12.1041
6004	-12.1041
▁$6	-12.1042
/25	-12.1045
psos	-12.1046
▁temporary	-12.105
▁passe	-12.1055
uslims	-12.1057
▁Sources	-12.1063
▁roles	-12.1064
▁consult	-12.1066
▁Syn	-12.1073
]]).<	-12.1081
|1990]]	-12.1084
-12	-12.1086
▁rul	-12.1093
▁caus	-12.1097
643	-12.1102
ela	-12.1107
Ri	-12.1118
fer	-12.1125
3-	-12.1131
psy	-12.1133
atablog	-12.1141
|13	-12.1142
05080	-12.1156
arm	-12.1164
▁canon	-12.1165
▁Krist	-12.1177
thal	-12.1187
zing	-12.1187
05/	-12.1189
▁separat	-12.1191
▁Arthur	-12.1192
=39	-12.1195
528	-12.1202
▁+--------	-12.1215
Gar	-12.1223
▁Chad	-12.1225
touring	-12.1236
▁Member	-12.1236
----+-----	-12.1238
▁2006.<	-12.1241
celt	-12.1244
▁Anders	-12.1245
|17	-12.1246
uit	-12.1254
552	-12.1258
▁Honor	-12.1264
SP	-12.1271
▁Gerr	-12.1281
0.6	-12.1285
2004	-12.1286
sector	-12.1286
▁1990)	-12.1294
aliens	-12.1305
percentages	-12.1307
stru	-12.1311
mes	-12.1311
rog	-12.1314
▁Si	-12.1316
25.	-12.1323
gas	-12.1326
pw	-12.1327
redirect	-12.1338
226	-12.1342
▁sin	-12.1345
cul	-12.1347
forms	-12.135
ppel	-12.135
closed	-12.1358
179	-12.1359
str	-12.1368
Hammer	-12.1369
OG	-12.1369
9_	-12.1374
▁Bio	-12.1374
03	-12.1385
▁2012}}	-12.1386
||110	-12.1388
▁Type	-12.139
ura	-12.1395
▁|10||1	-12.1395
Do	-12.1401
▁movies	-12.1403
mw	-12.1403
edge	-12.1405
▁fat	-12.1405
4">{{	-12.1407
183	-12.1433
▁Artists	-12.1436
augh	-12.1437
/20160	-12.1446
160	-12.1447
▁Gr	-12.1454
▁1990.	-12.1476
429	-12.1478
IIe	-12.1483
▁plate	-12.1484
▁298	-12.1484
▁Multi	-12.1485
Scar	-12.1489
jin	-12.1494
▁cons	-12.1496
fortu	-12.1503
items	-12.1506
▁Stevens	-12.1517
ayman	-12.1519
DW	-12.1527
▁endur	-12.1529
▁|12	-12.1531
787	-12.1537
tle	-12.1539
tern	-12.1552
▁€2	-12.1556
}}}}	-12.1557
rax	-12.1561
/#	-12.157
pn	-12.1573
639	-12.1582
▁49	-12.1587
7370	-12.1588
1050	-12.1591
▁Dáil	-12.1595
▁Josh	-12.1595
▁Ir	-12.16
nna	-12.1608
▁deriv	-12.1612
oran	-12.1613
▁CA	-12.1631
Cu	-12.1632
2050	-12.1639
▁leaders	-12.1639
days	-12.1651
ger	-12.166
shire	-12.166
▁2.1	-12.1662
1.3	-12.1664
▁Enco	-12.167
144	-12.1675
icker	-12.1679
cr	-12.1682
tab	-12.1685
▁seasons	-12.1685
ends	-12.1693
TH	-12.1695
og	-12.1705
037	-12.1709
''</	-12.172
structures	-12.1727
424	-12.1737
=175	-12.1737
▁Net	-12.1738
|2002|	-12.1745
prox	-12.175
9-4	-12.1756
|160	-12.1757
255	-12.1758
7627	-12.1761
299	-12.1777
9||1×1=1||180	-12.1781
oya	-12.1782
ercury	-12.1792
▁Hess	-12.1795
5–	-12.1795
6-9	-12.1804
offices	-12.1805
081	-12.1805
=196	-12.1808
lea	-12.1808
Conservati	-12.1812
▁Opens	-12.1816
.3%	-12.1819
ag	-12.182
78.	-12.1823
aware	-12.1835
1-2	-12.1836
▁|56	-12.1843
/642	-12.1844
-1202	-12.1849
▁symbolis	-12.1857
rbit	-12.1862
▁2.9	-12.1867
OA	-12.1873
▁mari	-12.1876
Car	-12.1881
914	-12.1885
processors	-12.1888
-7|	-12.1894
▁Gi	-12.1911
2"/>	-12.1914
tom	-12.1934
8_	-12.1936
2-3	-12.1942
obs	-12.1944
lite	-12.1946
74/	-12.1948
▁20:	-12.1949
Je	-12.1952
▁convention	-12.1955
Dar	-12.1957
125	-12.197
nia	-12.1979
utz	-12.198
Mamm	-12.1995
mean	-12.1996
elling	-12.1997
▁Mercur	-12.2004
287	-12.2015
▁undertak	-12.2029
▁formal	-12.2038
▁2017<	-12.204
▁spaces	-12.2042
▁Ag	-12.205
123/	-12.2058
||2048||	-12.2061
entation	-12.2064
▁#7	-12.2071
▁------------	-12.2073
▁Prince	-12.2074
▁Bri	-12.2079
umber	-12.2094
zf	-12.2096
▁Audi	-12.2098
rea	-12.2101
▁Airpla	-12.2103
220	-12.2122
132	-12.2129
▁cheese	-12.2133
▁mutat	-12.214
▁|90	-12.2142
86/	-12.2143
emon	-12.2145
anches	-12.2147
1999	-12.216
ost	-12.2166
7-0	-12.2167
;">{{	-12.2172
▁|5	-12.2173
1.7	-12.219
▁Hobb	-12.2191
▁victor	-12.2193
casting	-12.2196
4133	-12.2196
▁€21,	-12.2197
▁SL	-12.2198
racklist	-12.2201
ibbons	-12.2205
▁digni	-12.2208
havi	-12.2209
_02	-12.2221
Munic	-12.2221
ruth	-12.2223
2-28	-12.2226
593	-12.2229
/2016/0	-12.2236
anko	-12.2243
-09/	-12.2244
51/	-12.2245
||32	-12.225
▁Walter	-12.2252
101.	-12.2255
terlinks	-12.2256
▁Gl	-12.2256
▁assassin	-12.2258
▁Common	-12.226
Feel	-12.2264
oo	-12.2271
/02/	-12.2274
chris	-12.2282
375	-12.2286
sect	-12.2289
tp	-12.229
}};	-12.2292
659	-12.2294
||?||?||?||16×	-12.2296
lat	-12.2297
1#	-12.2301
bran	-12.2303
▁4.	-12.2305
▁convers	-12.2321
fi	-12.2338
ewspaper	-12.2338
11.	-12.234
▁Names	-12.2345
Spar	-12.2345
ships	-12.2348
607	-12.2354
▁fam	-12.2359
lh	-12.2366
=978-0-3	-12.2368
▁definiti	-12.2374
Sho	-12.2379
|2011|	-12.2382
▁Ward	-12.2383
CG	-12.2385
kills	-12.2391
5||--||--||--||	-12.2397
▁soar	-12.2397
STA	-12.2399
-2018-	-12.2399
SN	-12.24
Features	-12.2412
emi	-12.2413
Horne	-12.2416
port	-12.242
Kirk	-12.2429
099	-12.2433
▁Steve	-12.2433
1020	-12.2434
reak	-12.2434
▁Jack	-12.244
pending	-12.244
=36	-12.2445
▁Honeymoon	-12.2454
Ow	-12.2457
leaves	-12.2458
953	-12.2459
iterate	-12.246
Swee	-12.2461
nn	-12.2462
▁002	-12.2467
6).	-12.247
rob	-12.2471
1)	-12.2472
||1500||	-12.2472
ait	-12.2481
863	-12.2485
▁Mars	-12.2498
▁bases	-12.2501
33/	-12.2511
Div	-12.2512
yya	-12.2519
alist	-12.2523
RK	-12.254
▁remind	-12.2542
_____|____	-12.2546
nimated	-12.2558
voiced	-12.257
▁AG	-12.2583
newly	-12.2586
atches	-12.2595
▁Rota	-12.2603
judic	-12.2606
llow	-12.2608
wai	-12.2611
||????	-12.2617
||?||?||?||	-12.2621
;13	-12.2628
57/	-12.2631
▁earning	-12.2636
▁1997|	-12.2638
10.	-12.2647
node	-12.2648
▁captur	-12.2649
▁Cath	-12.2649
tracking	-12.2655
agger	-12.2669
/2017020	-12.267
-192	-12.2671
aked	-12.2673
924	-12.2683
Au	-12.2684
tabi	-12.2687
/2011/08/	-12.2691
▁ticket	-12.2694
gman	-12.2714
▁Cap	-12.2719
|2010	-12.2719
ail	-12.2729
/2015031	-12.2738
erner	-12.2745
$	-12.2748
worked	-12.2752
36/	-12.2753
gm	-12.2755
▁ro	-12.2759
2905	-12.2761
1052	-12.2762
Dimi	-12.2763
/9	-12.2772
1-11-1	-12.2779
621	-12.2781
Err	-12.2786
▁die	-12.2789
▁fast	-12.2792
track	-12.2792
600	-12.2801
score	-12.2802
ili	-12.2804
pinks	-12.2809
▁Mill	-12.2813
CHA	-12.282
nfeld	-12.2821
0–	-12.2827
▁Gore	-12.2828
▁Chapter	-12.2829
▁Bi	-12.2839
Vina	-12.2844
yez	-12.2844
PRI	-12.2846
198	-12.2848
haring	-12.2851
▁reissue	-12.2857
075	-12.2862
RIT	-12.287
ALL	-12.2874
RD	-12.2876
Count	-12.2877
RO	-12.2877
▁notabl	-12.2879
▁Tom	-12.289
252	-12.2895
Legends	-12.2923
▁sat	-12.2931
irtualization	-12.2938
lib	-12.2939
orough	-12.2941
naries	-12.2957
oyc	-12.2962
▁2008.<	-12.2966
▁17:	-12.297
/198	-12.2972
821	-12.2977
rench	-12.2978
573	-12.2979
Wei	-12.2979
Theme	-12.2986
748	-12.2989
▁18:	-12.3009
▁import	-12.3014
▁bass	-12.3014
▁mag	-12.3027
nce	-12.303
▁reside	-12.3037
▁loyal	-12.304
musi	-12.3047
gener	-12.3049
ans	-12.3051
/20071	-12.3054
/2015071	-12.3057
▁Frank	-12.3057
aver	-12.3065
096	-12.3068
▁36	-12.3071
002091	-12.3072
▁Te	-12.3072
anach	-12.3074
RAT	-12.3074
▁Films	-12.3079
29.	-12.309
writing	-12.3093
▁Loca	-12.3101
links	-12.3104
inger	-12.3126
▁initia	-12.3127
aps	-12.3144
gnron	-12.3155
2007||2	-12.3161
▁eye	-12.3168
27.9	-12.3174
uring	-12.3178
{{#	-12.318
▁tale	-12.319
▁stor	-12.3191
▁1995.	-12.3192
|____________	-12.32
▁pe	-12.3203
||16||16||512	-12.3221
214	-12.3223
▁MT	-12.3236
▁82	-12.3245
je	-12.3248
1991	-12.3256
49.	-12.3273
sson	-12.3277
1966	-12.3279
2668	-12.3283
Far	-12.3284
comp	-12.3288
604	-12.3288
aries	-12.3291
Reports	-12.3295
|-1}}	-12.3299
peat	-12.3307
lated	-12.3309
▁tours	-12.3311
▁fe	-12.3312
van	-12.3319
ridge	-12.3321
/201404	-12.3323
0%	-12.3326
35.	-12.3332
near	-12.3335
Nico	-12.3341
Zim	-12.3343
0000	-12.3348
ía	-12.3349
Nu	-12.3362
||30.2||	-12.3382
▁bri	-12.3385
Crou	-12.3391
▁0)	-12.3395
Pala	-12.3396
/16	-12.3402
1921	-12.3406
zi	-12.3411
/200801	-12.3417
rD	-12.342
578	-12.3426
1986|	-12.3427
2">{{	-12.343
706/	-12.343
669	-12.343
150	-12.3431
powered	-12.3436
20120203	-12.3442
33.	-12.3446
Offici	-12.3452
verse	-12.3452
ello	-12.3457
▁dur	-12.3459
/2009	-12.3465
▁Hea	-12.3476
ification	-12.3478
▁122	-12.348
▁Barb	-12.3486
713	-12.3489
450-	-12.349
Ga	-12.3494
cut	-12.3495
Williams	-12.3495
oration	-12.3499
▁Ran	-12.3502
▁37	-12.3508
▁''"	-12.351
▁300	-12.3512
Step	-12.3515
lman	-12.3515
▁Americans	-12.3519
1703	-12.3528
811	-12.3535
aged	-12.3552
301	-12.3553
▁Ev	-12.3569
13||12	-12.357
▁confirm	-12.3572
>—	-12.3576
341	-12.3578
▁fir	-12.3582
▁Dad	-12.3584
▁Ber	-12.359
2326	-12.3594
feudal	-12.3597
reserved	-12.3599
|10	-12.3601
▁Yea	-12.3602
▁gain	-12.3603
ater	-12.3626
-21	-12.3639
▁relat	-12.3646
▁Fe	-12.3668
Leb	-12.3668
ocialite	-12.3674
7738	-12.3678
▁Bab	-12.3687
935	-12.3689
789	-12.3693
Ek	-12.3706
▁Tan	-12.3709
▁[[20	-12.371
.20	-12.3718
nify	-12.372
▁Terr	-12.3726
=1991	-12.3727
▁Barrie	-12.3727
Eric	-12.374
▁Chip	-12.3743
employee	-12.3746
TA	-12.3749
ssential	-12.3749
▁Wish	-12.3752
-07-	-12.3756
▁question	-12.3756
7130	-12.3762
drama	-12.3762
/2004	-12.3764
lster	-12.3767
2016-	-12.3767
208	-12.3769
1088	-12.3771
20055	-12.3772
grand	-12.3776
anger	-12.3789
Way	-12.3796
adia	-12.3799
▁Leader	-12.3803
irlfriend	-12.3813
▁definit	-12.3825
networks	-12.3827
lanet	-12.3831
nnett	-12.3832
7.3	-12.3835
vana	-12.3836
350	-12.3838
nane	-12.3838
hop	-12.384
Goi	-12.3847
NAT	-12.3848
rner	-12.3854
imed	-12.3854
profile	-12.3854
44/	-12.3858
▁crowd	-12.3859
athon	-12.3859
bstract	-12.3861
Shar	-12.3867
▁Ot	-12.387
premieres	-12.3879
ival	-12.3885
llam	-12.3895
Vel	-12.3896
▁compli	-12.3897
onorary	-12.3899
16||	-12.3901
▁auto	-12.3902
||????||	-12.3902
901	-12.3906
967	-12.3917
fas	-12.3922
750	-12.3927
▁169	-12.3929
ament	-12.3932
eme	-12.3933
ucci	-12.3936
pol	-12.3943
Product	-12.395
00–	-12.395
Sha	-12.3952
Bri	-12.3958
igne	-12.3962
118	-12.3963
-04	-12.3966
ASD	-12.3967
▁emerg	-12.3968
▁SH	-12.3969
033	-12.397
▁specif	-12.3971
▁admir	-12.3976
En	-12.3978
ymon	-12.3979
▁Bos	-12.3984
skett	-12.399
-||64×4||64×4||	-12.3994
scientist	-12.3996
-0}}	-12.3997
ient	-12.4
201408	-12.4004
Russ	-12.4004
Kit	-12.4005
▁FI	-12.4006
89/	-12.4008
McK	-12.4013
collapse	-12.4016
vich	-12.4016
4.2	-12.4016
mont	-12.4022
▁swor	-12.4023
exclusi	-12.4024
▁Clin	-12.4026
▁411	-12.4032
sexual	-12.4041
Easter	-12.4043
▁(5	-12.4043
Olive	-12.4046
nkar	-12.4048
alp	-12.4049
Hel	-12.4051
008	-12.4054
Work	-12.4056
7:	-12.4058
112.	-12.4058
Flor	-12.4059
detail	-12.4065
pping	-12.4067
684	-12.4067
▁Bol	-12.4067
reference	-12.4067
▁impose	-12.4068
/20130	-12.4069
Paw	-12.407
192	-12.4071
Illusion	-12.4074
DC	-12.4074
42/	-12.4075
welcome	-12.4081
▁Fai	-12.4084
▁Chil	-12.4086
382	-12.4094
nr	-12.4095
mile	-12.4099
Comm	-12.4102
nam	-12.4106
▁relate	-12.4108
inspiration	-12.4108
▁35	-12.411
1978	-12.4112
▁remaster	-12.4113
779	-12.4113
virtual	-12.4115
Statistic	-12.4117
223	-12.4118
Baha	-12.4126
appear	-12.4129
license	-12.4136
Fel	-12.4147
▁ca	-12.415
homes	-12.4151
960	-12.4156
consum	-12.4158
utism	-12.4159
478	-12.4162
/20090	-12.4163
02|	-12.4166
fast	-12.4167
poll	-12.4169
serv	-12.4172
Lenn	-12.4175
hey	-12.4176
consult	-12.4179
oh	-12.418
sale	-12.4185
213	-12.4185
581	-12.419
ify	-12.419
origin	-12.419
fur	-12.4191
master	-12.4194
Ellis	-12.42
fact	-12.4204
victori	-12.4204
▁Animat	-12.4206
yman	-12.4207
legend	-12.4208
rams	-12.4208
communa	-12.421
=2006110	-12.421
advis	-12.4215
▁Shi	-12.4216
stay	-12.4216
Fran	-12.4216
treat	-12.4221
atsu	-12.4222
letters	-12.4224
engineer	-12.4224
rio	-12.4225
elections	-12.4226
Ut	-12.423
Front	-12.423
Universal	-12.423
Forgot	-12.423
Brittany	-12.423
Jakku	-12.423
Lightsaber	-12.423
Buckethead	-12.423
Twitter	-12.423
0.001017654	-12.423
Geonosi	-12.423
fresh	-12.423
Discover	-12.423
marriage	-12.4231
Duncan	-12.4231
291	-12.4231
Chapman	-12.4231
Slavery	-12.4231
superpower	-12.4231
partition	-12.4231
Niven	-12.4232
Crisis	-12.4232
VAX	-12.4232
Tunnel	-12.4232
Program	-12.4233
timezone	-12.4233
Historical	-12.4233
Silverstone	-12.4234
War	-12.4234
Walk	-12.4235
Blood	-12.4235
0.25	-12.4236
Nau	-12.4237
desc	-12.4237
Highland	-12.424
habitat	-12.424
Mortis	-12.4241
Cove	-12.4241
[...]
