<unk>	0
<s>	0
</s>	0
▁	-3.18277
▁=	-3.53165
▁|	-3.68438
:	-3.81971
		-3.8765
]]	-4.21296
。	-4.23516
|	-4.35245
月	-4.36322
年	-4.43878
▁[[	-4.47742
)]]	-4.51899
▁(	-4.63294
、	-4.68762
4	-4.68957
-	-4.78212
▁|[[	-4.88108
▁2018	-4.88872
.	-4.92296
▁'	-4.99619
'	-5.08976
▁*	-5.11097
▁;	-5.22856
}}	-5.23946
▁:[[	-5.2446
|{{{	-5.24616
・	-5.31081
)	-5.36999
if	-5.38635
WP	-5.50575
▁|-	-5.53159
▁{{{	-5.53258
a	-5.53336
Wikipedia	-5.53599
▁{{	-5.55302
▁|{{	-5.55494
IPuser	-5.55792
←	-5.56801
A	-5.56813
▁lmao	-5.57084
▁|0	-5.57514
2	-5.59969
/	-5.60124
|}}}	-5.6593
]](	-5.65975
yy	-5.66319
=	-5.74943
ページ	-5.80218
ES	-5.81927
▁}}	-5.83226
の置換	-5.85338
」	-5.86338
_(	-5.86694
"	-5.90348
】	-5.93119
--	-5.9483
(	-5.95709
s	-5.97999
,	-5.9947
year	-6.02441
▁message	-6.06189
複数の問題	-6.15494
ます	-6.17029
>	-6.19303
)【	-6.21323
▁}}<!--	-6.25502
「	-6.26332
▁cat	-6.27456
:{{{	-6.27613
は	-6.28692
が	-6.29088
▁name	-6.30961
▁*[[	-6.31672
[[	-6.35627
▁the	-6.35688
出典の明記	-6.36111
1	-6.3636
DatedAI	-6.36428
▁-->{{	-6.37311
▁image	-6.38108
ソートキー	-6.38153
と	-6.40407
▁--	-6.42489
BLP	-6.48056
E	-6.49219
dateHandler	-6.4948
px	-6.55273
nowiki	-6.56775
Template	-6.59061
local	-6.59402
▁/	-6.61068
▁sortkey	-6.6125
▁text	-6.61547
の	-6.61926
',	-6.62202
3	-6.6244
}}}	-6.63842
があります	-6.64251
▁==	-6.64678
▁-->{{#	-6.67071
に	-6.67474
svg	-6.70149
▁style	-6.71426
]]'''	-6.73257
▁特筆性	-6.73382
ください	-6.7425
▁日本	-6.74254
▁-	-6.75836
パラメータ	-6.76524
'''	-6.77633
date	-6.77704
▁"	-6.80993
▁type	-6.82149
▁<	-6.83145
end	-6.88275
B	-6.88282
S	-6.89102
テンプレート	-6.89395
;	-6.90505
▁)	-6.90715
▁-->	-6.90953
Y	-6.91221
",	-6.91784
('	-6.92746
▁then	-6.93103
_	-6.94828
9	-6.94962
▁1	-6.95077
▁{{#	-6.9527
▁small	-6.95603
ページの	-6.9602
日	-6.96465
ambox	-6.968
置換	-6.97162
Category	-7.02185
AE	-7.04731
存命人物の出典明記	-7.04854
▁unsourced	-7.05519
▁}}}	-7.05545
7	-7.05747
#	-7.06451
▁'''[[	-7.07275
▁領域	-7.08577
----------------	-7.09241
m	-7.09603
▁国際化	-7.10447
▁分野	-7.11313
8	-7.11872
場合	-7.12561
特筆性	-7.13133
▁「	-7.14453
|}}}}}}	-7.14701
section	-7.15705
▁app	-7.16305
▁or	-7.16696
')	-7.16983
します	-7.17486
▁問題点パラメータ	-7.17786
してください	-7.17988
="	-7.17994
記事	-7.19001
I	-7.20141
未検証	-7.22123
▁..	-7.23094
sandbox	-7.24095
▁Category	-7.24783
:{{	-7.2488
={{{	-7.25778
small	-7.2593
P	-7.26586
件	-7.27104
▁query	-7.28197
のあるページ	-7.28278
呼び出しエラー	-7.28734
F	-7.29147
5	-7.30469
|/|	-7.30563
link	-7.31122
▁smalltext	-7.31136
▁」	-7.3172
▁and	-7.32185
return	-7.32539
▁音楽	-7.33012
]	-7.33525
▁他	-7.33787
error	-7.3411
time	-7.34437
6	-7.3499
▁小型タイプの本文	-7.35078
invalidarg	-7.37777
{{	-7.3823
ファイル	-7.39106
分野	-7.39411
▁title	-7.40021
▁to	-7.40486
▁env	-7.45448
args	-7.46576
▁{	-7.46671
▁|}}<!--	-7.46861
|}}}|	-7.47053
には	-7.47128
left	-7.47721
0	-7.48252
con	-7.48669
▁p	-7.48729
%	-7.50096
カテゴライズされ	-7.51839
div	-7.51987
eq	-7.52226
▁end	-7.5316
</	-7.54334
▁**	-7.54612
title	-7.5498
です	-7.55213
指定	-7.55958
が必要です	-7.56529
▁===	-7.56542
問題点	-7.58171
▁section	-7.58337
利用者	-7.58361
▁ノーマルタイプの本文	-7.58644
moreref	-7.58938
{{#	-7.59469
不十分です	-7.59615
▁of	-7.60054
File	-7.60584
▁function	-7.60928
観点	-7.62098
を満たしていないおそれ	-7.62496
、「	-7.63063
y	-7.6419
code	-7.64631
▁ノーマルタイプ	-7.65751
'''[[	-7.6642
まったく	-7.66677
display	-7.66873
▁in	-7.67142
、[[	-7.67454
<	-7.67948
auto	-7.6802
▁not	-7.68058
text	-7.68113
年の映画	-7.68396
言葉を濁さない	-7.69253
!	-7.69295
領域	-7.69884
基準	-7.70441
出典	-7.70651
内容に関する	-7.71008
▁is	-7.71092
文献や情報源	-7.72593
▁yyyy	-7.72984
▁改善	-7.73015
複数の問題があります	-7.73571
てください	-7.73798
▁《	-7.74448
▁*{{	-7.74458
からの説明	-7.74944
世界的観点	-7.75126
語	-7.75202
d	-7.75535
画像	-7.7563
音楽の特筆性の基準	-7.76032
templatename	-7.76247
unreferenced	-7.76311
▁出典	-7.76787
▁この	-7.76928
テンプレートの使用例	-7.77727
default	-7.78365
表示	-7.78748
なります	-7.79003
」・「	-7.79248
10	-7.80171
~~~~~	-7.80394
span	-7.8049
Checkdate	-7.80789
else	-7.81696
▁[	-7.82171
)|	-7.82451
雑多な内容の箇条書き	-7.8294
▁with	-7.83186
}}}1	-7.83694
▁table	-7.83854
方	-7.84194
edit	-7.8519
switch	-7.85397
大言壮語	-7.85421
▁ノートページ	-7.85776
▁cfg	-7.86051
解決	-7.8656
す	-7.86632
エラー	-7.86633
▁や	-7.86795
content	-7.87038
▁args	-7.87698
[	-7.88827
▁left	-7.8914
スクリプト	-7.89617
cat	-7.89709
testcases	-7.89741
中立的な観点	-7.90343
t	-7.9087
>{{	-7.91052
NAMESPACE	-7.91198
ay	-7.91513
▁参照方法	-7.91602
|1=#1|2={{{	-7.91852
},	-7.92548
上記の	-7.93887
の特筆性の基準	-7.94064
type	-7.94195
しない	-7.94329
]]】	-7.94656
て	-7.9516
sortkey	-7.95164
noinclude	-7.95828
url	-7.96802
▁ソートキー	-7.98269
▁content	-7.99056
値の入力	-7.99268
脚注の不足	-7.99501
既定アイコン	-7.99736
でください	-8.00045
{	-8.00282
▁a	-8.00293
▁smallimage	-8.00617
|35	-8.00817
を	-8.0087
ここには	-8.01157
file	-8.01252
などでよく使われ	-8.0139
▁画像の指定	-8.015
Error	-8.01641
▁が	-8.02112
style	-8.02135
特に	-8.03279
doc	-8.03317
世	-8.03847
]])	-8.04303
以下のように	-8.04619
▁nil	-8.04629
▁パラメータを指定し	-8.04677
---------------	-8.05203
3%81%	-8.05205
の並び順	-8.05344
}}{{#	-8.05794
▁<!--	-8.0596
のみ	-8.05976
3%82%	-8.06133
▁編集	-8.06268
で	-8.06709
data	-8.0706
問題点がある	-8.07266
出典を明記する	-8.07283
スタイルマニュアル	-8.07535
せず	-8.07561
脚注	-8.07591
|40	-8.08106
示	-8.08125
検証可能性	-8.08299
▁sources	-8.08946
この	-8.09019
▁for	-8.09363
<!--	-8.09766
います	-8.09814
日本	-8.09879
}}||[[	-8.10083
2}}	-8.10586
▁このテンプレートを	-8.10885
▁単一の出典	-8.11084
UTC	-8.11174
る	-8.11653
▁Wikify	-8.11888
▁正確性	-8.119
▁孤立	-8.12197
)【[[	-8.12502
}}</	-8.12605
か	-8.12701
使用	-8.12883
▁local	-8.12958
pad	-8.1312
expr	-8.13376
▁subjectSpace	-8.13544
》	-8.14622
or	-8.15884
={{#	-8.16024
p	-8.16426
r	-8.16874
フィクション	-8.17104
|}}}|{{#	-8.17133
精度	-8.18383
preload	-8.19558
▁template	-8.20361
や	-8.20854
name	-8.21047
など	-8.21827
▁mw	-8.21917
Documentation	-8.22255
チェック	-8.22323
画像を表示	-8.22703
br	-8.22775
|}}}}}}}}}}}}	-8.22809
C	-8.23024
曖昧さ回避	-8.23091
▁!	-8.23381
image	-8.23461
ing	-8.23869
▁|{{#	-8.23995
例	-8.24311
w	-8.25026
Tl	-8.2508
PAGENAME	-8.25234
書かれており	-8.25534
独立記事作成の目安	-8.25539
中心に	-8.2563
▁|{{{	-8.25854
指定し	-8.25907
0}}	-8.26648
center	-8.26736
11	-8.26764
()	-8.26774
▁data	-8.27253
▁@	-8.27272
{{{	-8.27394
カテゴライズ	-8.28229
大言壮語的な記述になっている項目	-8.28308
value	-8.28321
カテゴリ	-8.28513
><	-8.28629
がされてい	-8.28889
▁move	-8.28963
ないおそれ	-8.28986
されていないか	-8.29196
▁page	-8.29495
▁こ	-8.29594
けっし	-8.29794
Help	-8.29884
廃止されたパラメータ	-8.29902
]]【	-8.29973
上	-8.30026
その	-8.30193
▁be	-8.30938
)⇒[[	-8.31574
問題	-8.31853
☆	-8.31865
▁by	-8.31885
▁大言壮語	-8.32002
notice	-8.32086
はなく	-8.32807
▁内容過剰	-8.33059
結果	-8.33204
ふたば	-8.33408
id	-8.33412
▁要改訳	-8.33658
▁画像過剰	-8.33664
▁Cleanup	-8.33669
em	-8.33863
場合は	-8.33894
また	-8.34051
▁一次資料	-8.34163
▁list	-8.34176
▁宣伝	-8.34462
どのような	-8.34623
string	-8.34735
デフォルトソート	-8.3475
▁更新	-8.34976
での議論	-8.35576
にご協力	-8.35665
特筆性の	-8.35735
▁独自研究	-8.35742
)⇒	-8.35933
▁物語世界内の観点	-8.35972
▁精度	-8.36257
2018	-8.36936
それら	-8.3694
▁専門的	-8.37046
wikify	-8.37111
ウィキペディア	-8.37186
min	-8.37794
ed	-8.3799
更新	-8.38118
変化	-8.38121
▁百科事典的でない	-8.38276
ります	-8.38615
ala	-8.39363
より	-8.3953
孤立	-8.39882
独自研究	-8.39886
5}}	-8.39957
align	-8.40062
n	-8.40087
重複して	-8.40342
4}}	-8.40877
module	-8.40905
すると	-8.41017
includeonly	-8.41284
▁are	-8.4129
アンド	-8.41689
size	-8.42062
年のテレビドラマ	-8.42355
XXXX	-8.42525
各	-8.42548
物語世界内の観点	-8.43204
が指定されている場合	-8.43309
▁未検証	-8.43542
▁**[[	-8.43624
▁]	-8.43807
されています	-8.4406
Ku	-8.44245
tl	-8.44674
から	-8.44963
▁Lu	-8.45191
検証	-8.45646
▁パラメータ	-8.45711
['	-8.46353
という	-8.46455
▁The	-8.46529
DEFAULTSORT	-8.46757
▁subpage	-8.4684
template	-8.4697
たとえば	-8.47118
組織	-8.47131
説明	-8.47286
く	-8.47391
on	-8.47449
詳しい	-8.47544
efimprove	-8.47629
self	-8.47856
出典を必要とする記事	-8.48098
▁#	-8.48228
create	-8.48436
ご協力	-8.48756
ル	-8.48788
での議論に	-8.49265
以下のようにな	-8.49327
ただし	-8.49422
▁width	-8.49611
6}}	-8.49726
の文字の後に日や時刻	-8.49806
影響	-8.49947
この記事には	-8.50684
ページ名	-8.50859
12	-8.50869
特定の節	-8.50983
プ	-8.51063
に問題点があることを明示する場合	-8.51365
には無効です	-8.51365
この節には	-8.51477
▁true	-8.51495
の一覧	-8.51907
▁年月	-8.51909
冒頭	-8.52028
下さい	-8.52124
▁imageright	-8.52135
の指定は	-8.52188
}	-8.52339
で指定されている	-8.52464
▁パラメータの指定	-8.52632
すべき	-8.53075
パラメータに	-8.53251
スタブカテゴリ	-8.53352
を見	-8.53356
▁"~~~~~"	-8.53393
一方	-8.534
失	-8.53402
いくつか	-8.53671
▁''	-8.53766
必要の	-8.53821
8}}	-8.54127
延	-8.54149
必ず	-8.54156
ソートキーを指定し	-8.54522
▁self	-8.54591
国際化	-8.54593
の位置	-8.54627
▁で	-8.54643
らず	-8.54814
max	-8.54856
マウスカーソルを合わせると	-8.54965
代わりに	-8.54967
▁Malaysia	-8.55
も無	-8.55117
末尾	-8.55119
によっては	-8.5517
い場合は	-8.55225
下記例の	-8.55374
カテゴリにも	-8.55377
長く	-8.55395
は月別	-8.55427
大な	-8.55446
記事が	-8.55483
つ以上	-8.55518
記事には	-8.55532
個	-8.55646
しないで	-8.55646
た場合には	-8.55651
まで含め	-8.55783
て記入し	-8.55783
が悪い	-8.55785
リストを	-8.55788
env	-8.5598
▁を参照	-8.56168
掲示	-8.56193
エラーメッセージが表示され	-8.56197
かえって	-8.56197
ソートキーを指定	-8.56216
並んでいる	-8.56254
tt	-8.56579
▁div	-8.56584
代	-8.56604
ペースト	-8.5661
を目的	-8.56615
対応した	-8.56618
重要な	-8.56619
存在しない	-8.56625
全てを	-8.56625
々と	-8.56644
のパラメータが	-8.56674
font	-8.56678
貼り	-8.56769
の上に	-8.56777
に長	-8.56855
に反映され	-8.56897
|50	-8.56983
ことの	-8.56985
ないパラメータ	-8.57002
パラメータで指定	-8.57046
▁以下のテキストを	-8.57058
を貼った	-8.57111
情報源	-8.57197
指定されている場合	-8.57262
▁parameter	-8.57426
の出来	-8.57434
でエラー	-8.57503
▁と記述	-8.57523
大	-8.57544
の注意	-8.57664
絞って	-8.57959
ない状態で	-8.58064
「2018	-8.58268
▁全	-8.58457
信頼できる情報源	-8.58703
']	-8.5893
▁XXXX	-8.58931
DMC	-8.58943
ので	-8.59083
を指定した場合	-8.59386
る画像	-8.59448
▁この記事には	-8.59512
full	-8.59691
▁エラー	-8.59847
ノートに議論が無い	-8.60048
M	-8.60075
action	-8.6043
の両方が指定されている	-8.60431
以下の	-8.60484
の管理	-8.60845
▁this	-8.60885
?	-8.60943
▁コピー	-8.61065
subpage	-8.61071
></	-8.61105
方法について	-8.61139
|{{#	-8.61198
国際化が求められている項目	-8.61272
|1=#	-8.6128
▁}}}|1|0}}	-8.61305
エラーの	-8.61362
▁使用	-8.61867
雑多な内容	-8.61887
しています	-8.61937
nced	-8.62338
category	-8.62348
駅	-8.62534
Un	-8.62709
▁'''	-8.62734
と同じ	-8.62893
ていないおそれ	-8.62947
がされ	-8.63016
の指摘	-8.63026
==	-8.63072
中心	-8.63334
▁この節には	-8.63339
}}}2	-8.63478
だけの	-8.63671
--------------	-8.63831
1}}	-8.63927
画像指定方法の詳細	-8.64356
特別	-8.65137
▁{}	-8.6539
▁問題点	-8.65428
するの	-8.65516
▁メッセージボックスの本文	-8.65741
width	-8.65936
▁して	-8.66033
f	-8.66266
▁namespace	-8.66298
blurb	-8.66317
便	-8.66588
フォン	-8.66604
ns	-8.6668
を切り替える	-8.67077
に書かれており	-8.67085
のために	-8.67166
in	-8.67497
用意されています	-8.67629
について	-8.67963
段	-8.68001
テキスト	-8.68309
bal	-8.68721
全体	-8.68785
pagetype	-8.69179
|25	-8.6923
ret	-8.69344
普	-8.69406
}}<!--	-8.69677
目的に	-8.69871
▁小型タイプ	-8.70108
が求められています	-8.7014
宣伝	-8.70188
簡	-8.7035
例では	-8.70362
多くの場合は	-8.70366
で文章	-8.70462
引数	-8.70696
統合提案	-8.70825
合う	-8.70827
▁that	-8.70854
による	-8.70939
▁====	-8.71001
▁小型タイプの場合に	-8.71336
ちゃんねる	-8.71712
このテンプレートは	-8.71909
端	-8.71969
pre	-8.71987
チッ	-8.72407
▁のように	-8.72797
main	-8.7317
幅を	-8.73184
いっぱい	-8.73647
namespace	-8.73814
を選んだ	-8.74101
▁旧	-8.74164
}}}5	-8.74224
jpg	-8.74224
▁box	-8.74262
一次資料	-8.7427
▁arguments	-8.74324
来の	-8.74348
の結果	-8.74455
▁+	-8.74544
村	-8.75083
特定の	-8.75102
正確性	-8.7529
▁docTitle	-8.75292
または	-8.7548
Module	-8.75744
e	-8.75798
Wikify	-8.75813
i	-8.75837
defaultdate	-8.76047
T	-8.76564
7}}	-8.7663
ほか	-8.76941
線	-8.77019
▁we	-8.77027
日付	-8.77111
'''。	-8.7741
したい場合は	-8.77575
▁----	-8.77623
}}}|	-8.77689
文字	-8.77699
&	-8.77736
index	-8.77864
://	-8.78098
に対応していない	-8.78454
指定するので	-8.78835
ド	-8.79267
FULLPAGENAME	-8.79286
年月	-8.79668
▁2007	-8.79757
--[[	-8.8006
使用しないで	-8.80257
で表示されます	-8.80709
._	-8.81306
以外の	-8.81369
る必要があります	-8.81673
して	-8.81736
年生	-8.81749
yyyy	-8.81977
における	-8.82362
documentation	-8.8297
》【	-8.82995
書籍	-8.83091
|}}	-8.83132
ト	-8.83335
今日の一枚	-8.83506
}}}6	-8.83574
ア	-8.83782
__	-8.8397
重複	-8.84576
MONTHNUMBER	-8.84621
を除去して	-8.84662
▁に	-8.84941
3%83%	-8.85034
および	-8.85086
書き込み	-8.85115
prefixedText	-8.85171
}}}3	-8.85256
▁ret	-8.85292
▁2010	-8.85411
▁パラメータを使用し	-8.8554
▁}	-8.85585
u	-8.86336
3%	-8.86461
せん	-8.86696
heading	-8.86847
ス	-8.87076
g	-8.87143
}}|	-8.87295
}}}12	-8.87425
▁value	-8.87668
ja	-8.87769
+	-8.87771
▁s	-8.88182
あり	-8.88203
erence	-8.89147
DMCA	-8.89351
Ic	-8.896
TALK	-8.89676
人物	-8.89753
にかかわ	-8.89791
形	-8.89884
のある記事	-8.89949
color	-8.90007
として	-8.9014
en	-8.90152
css	-8.90385
exist	-8.90529
▁generate	-8.9083
▁from	-8.91105
getEnvironment	-8.91423
''	-8.91437
のうち	-8.91469
内で	-8.91485
と小型タイプ	-8.91522
ではなく	-8.9168
が適切で	-8.9185
▁group	-8.9209
:"{{	-8.92303
ています	-8.92383
}}}}}}}}}}}}}}}	-8.92632
j	-8.92745
▁-->|{{	-8.93461
no	-8.93463
▁。	-8.93602
▁do	-8.94086
を変更する	-8.94134
ことができます	-8.9431
り	-8.94481
多くの	-8.94578
20	-8.94619
org	-8.94782
K	-8.94879
▁__	-8.94906
|{{	-8.95034
のように	-8.95313
。--[[	-8.95363
▁links	-8.95446
border	-8.95499
citation	-8.95581
wikipedia	-8.95617
追加	-8.95807
class	-8.96139
▁passed	-8.96262
===	-8.96307
一覧	-8.96508
参考文献	-8.96683
し	-8.96784
3%82%8	-8.97222
▁so	-8.97392
etc	-8.97537
right	-8.97726
▁I	-8.97733
]]}}	-8.98021
内容の	-8.98035
した	-8.98181
寺	-8.98215
▁記事に	-8.9843
docTitle	-8.98643
▁その他の	-8.98663
独自研究は載せない	-8.9872
▁will	-8.98772
も	-8.98816
▁class	-8.98923
文	-8.99388
citationstyle	-8.9939
unsourced	-8.9943
ない場合は	-8.99458
レッテ	-8.99811
POV	-8.99988
3}}	-9.00077
▁|2016012412353	-9.001
第	-9.00179
view	-9.00211
▁user	-9.00264
出典の	-9.00452
方法で	-9.00585
確度に欠けている可能性のある記事	-9.00632
▁research	-9.00662
▁footnotes	-9.00662
に頼って	-9.00803
▁Message	-9.01038
正しく使用していない	-9.01262
存命人物の伝記	-9.01275
に基づく	-9.01277
▁出典を必要とする	-9.0129
rivia	-9.01316
BLPunref	-9.01566
存命人物	-9.01697
}}}}}	-9.01715
unref	-9.01799
音楽	-9.01857
問題があるかもしれない資料	-9.01927
節のある	-9.01927
言葉を濁した	-9.01931
notability	-9.01935
notable	-9.01936
|}}}}}"|"	-9.01939
19	-9.021
となり	-9.02441
pur	-9.02578
。[[	-9.0279
)#	-9.02876
テンプレートを使用し	-9.03059
subjectSpace	-9.03233
に立っ	-9.03239
出典皆無な存命人物記事	-9.0324
され	-9.03298
▁This	-9.034
history	-9.03574
▁Ad	-9.03617
単独の	-9.03685
じ	-9.03751
が含まれているおそれ	-9.03963
▁source	-9.03977
形式で指定	-9.04056
用せず	-9.04296
である	-9.04363
レ	-9.04551
message	-9.04579
▁!!	-9.04762
>|	-9.04878
されていない場合	-9.05247
v	-9.0525
margin	-9.05356
▁return	-9.05622
:{{{1}}}	-9.05625
信頼性	-9.05855
人	-9.06273
13	-9.06536
▁background	-9.06567
▁~	-9.06796
月は	-9.06824
▁makeUrlLink	-9.06901
wikitext	-9.07988
▁0	-9.08074
▁sandbox	-9.08087
:{{#	-9.08151
D	-9.08514
more	-9.08553
eacock	-9.08614
用	-9.08913
;"	-9.08968
php	-9.09364
easel	-9.09463
▁|2016012412352	-9.09808
___	-9.102
})	-9.10374
▁it	-9.10629
▁⇒	-9.10673
18	-9.10897
全く	-9.1091
本文	-9.10962
▁as	-9.11088
節タイプ	-9.11199
中	-9.11308
小惑星	-9.1221
undate	-9.12215
={{	-9.12291
子	-9.1236
画像は	-9.12413
▁url	-9.1273
▁U	-9.12745
メインページ	-9.12766
▁:	-9.12881
神社	-9.12919
page	-9.13009
▁|2016012412483	-9.13231
old	-9.13291
▁10	-9.13318
hidden	-9.13664
山	-9.13953
ありません	-9.14369
V	-9.14449
百科事典的でない記述	-9.14527
がある	-9.14549
16	-9.14552
les	-9.14569
を満たしてい	-9.14887
▁|201601241235	-9.14933
▁environment	-9.15169
▁}}</	-9.15196
▁objects	-9.15334
▁access	-9.15376
示し	-9.15561
▁makeWikilink	-9.15713
|2007	-9.15773
▁display	-9.15837
▁以下	-9.15949
hor	-9.16033
for	-9.16591
▁日付	-9.16743
▁contain	-9.17117
description	-9.17396
9}}	-9.18021
padding	-9.18155
lobalize	-9.18367
されます	-9.18555
使	-9.18712
▁module	-9.18997
明	-9.19355
dispute	-9.19436
▁pages	-9.19592
move	-9.19721
が指定され	-9.19853
が正しい	-9.19906
の条件	-9.19923
]]」	-9.20106
の曲	-9.20176
fullUrl	-9.21273
=%	-9.21516
▁v	-9.21629
list	-9.21696
▁T	-9.21967
参照	-9.21998
しょう	-9.2203
▁envFuncs	-9.22127
▁aut	-9.22436
-12	-9.2265
▁"[	-9.22753
Online	-9.22866
▁documentation	-9.22898
番	-9.2293
nal	-9.23005
▁|2016012412484	-9.23006
▁link	-9.23077
verti	-9.23224
17	-9.23334
▁sandboxTitle	-9.23559
▁http	-9.23632
会話	-9.2368
内容過剰	-9.23785
3%83%9	-9.23842
1%	-9.23851
fmbox	-9.23894
き	-9.2406
▁set	-9.24115
ur	-9.24245
>{{{	-9.24427
sca	-9.24468
▁\	-9.24597
key	-9.24621
-------------	-9.25178
ある	-9.25275
▁templateTitle	-9.25299
Cyberjaya	-9.25305
>-	-9.25344
参照方法	-9.25432
▁month	-9.25642
正しい	-9.25691
▁val	-9.25974
二	-9.26219
▁828	-9.26418
er	-9.26443
では	-9.26466
format	-9.26591
全体で	-9.26707
▁date	-9.26759
単一の出典	-9.2717
号	-9.27191
Cleanup	-9.27193
要改訳	-9.2722
画像過剰	-9.27236
▁testcases	-9.27664
lang	-9.27691
exists	-9.27693
/>	-9.27702
い	-9.27958
▁2	-9.28009
]"	-9.28303
make	-9.2849
まで	-9.28529
▁padding	-9.28657
>||	-9.29088
={{{1}}}	-9.29104
法	-9.29293
た	-9.29482
[{{	-9.29764
ズ	-9.2985
print	-9.30103
||<	-9.30244
AD	-9.30854
、202	-9.31019
▁|2016012412354	-9.3106
table	-9.31177
]]}}|}}	-9.31298
][	-9.31425
h	-9.3158
条件	-9.31865
source	-9.31889
▁'')	-9.31944
note	-9.32099
one	-9.321
修正	-9.32108
▁日付が	-9.32155
|'''	-9.32243
CURRENT	-9.32523
tag	-9.32614
ー	-9.32939
無	-9.33257
ラ	-9.33299
ているのに	-9.33412
>{{</	-9.34115
cfg	-9.34386
節	-9.34431
町	-9.34498
9%	-9.34802
}}|{{	-9.34954
-6	-9.35122
つ	-9.35174
川	-9.35231
雑多	-9.3524
▁category	-9.35278
talk	-9.35399
▁categories	-9.35812
yes	-9.35864
2|2	-9.36062
▁'<	-9.36344
▁Or	-9.36355
2007	-9.36393
YEAR	-9.36622
protectionLevels	-9.36626
2006	-9.37075
other	-9.37218
。<!--	-9.37219
|}}<!--	-9.37419
compareUrl	-9.37548
▁に年月を指定した場合は	-9.37574
▁2004	-9.37585
を変更	-9.37763
えき	-9.37781
でない	-9.38087
categories	-9.38371
キ	-9.38395
7%	-9.38407
0%	-9.38429
索引	-9.38482
示され	-9.38511
▁Tw	-9.38616
にあった	-9.38664
]]【[[	-9.3874
▁Towers	-9.38741
は存在	-9.38929
に使用して	-9.39234
▁Tower	-9.39247
けっ	-9.39353
▁Sentral	-9.39449
▁以下の	-9.39566
1}}}	-9.39648
全	-9.39699
X	-9.39866
市	-9.40105
ていないか	-9.40172
▁testcasesTitle	-9.40292
▁---	-9.40299
‐	-9.40376
しま	-9.40401
▁can	-9.40416
▁テンプレート本	-9.4045
しない場合は	-9.4046
▁border	-9.4056
|}}}|[[	-9.4095
曖昧	-9.41005
function	-9.41068
igi	-9.41195
▁k	-9.41245
で使われる	-9.41257
as	-9.4133
15	-9.4134
3%83%88	-9.4135
の記事は	-9.41359
ザ	-9.41525
▁|2016012412482	-9.41613
3%81%9	-9.41642
lc	-9.41759
形式で	-9.42056
使われる	-9.42151
▁Prim	-9.42185
templateTitle	-9.42356
5%	-9.42375
▁||	-9.4246
エ	-9.42474
新	-9.42672
}}||{{	-9.42681
することができます	-9.42709
一	-9.42791
などで	-9.42945
小	-9.43071
]](=	-9.43105
background	-9.4333
%98%	-9.43334
系	-9.43525
▁|201601241236	-9.43725
島	-9.44094
な	-9.44219
羅列	-9.44249
」「	-9.44386
k	-9.44491
;">	-9.44613
||{{#	-9.44798
形式	-9.44977
tlx	-9.45329
おり	-9.45391
省	-9.4542
単独	-9.45605
o	-9.45618
を箇条書きした節を避ける	-9.45711
▁i	-9.45761
add	-9.45823
▁|201601241238	-9.45868
)&	-9.46078
_(%	-9.4612
AA	-9.46389
▁icon	-9.4639
▁important	-9.46396
▁|201601241237	-9.46449
▁talk	-9.46498
isputed	-9.46559
-->	-9.46631
▁add	-9.46808
とは	-9.46888
use	-9.46944
指定されていない場合	-9.47066
▁【	-9.47153
世界史	-9.47312
未検証パラメータ	-9.47319
)}}	-9.47467
はありません	-9.47473
AF	-9.47605
しません	-9.47611
x	-9.47991
方法	-9.48106
▁all	-9.48511
protection	-9.4866
Navbox	-9.48686
:|4|{{{	-9.489
並び順	-9.49106
国	-9.49248
っています	-9.49252
articles	-9.49257
のルール	-9.49521
専門的	-9.49547
複数	-9.49669
▁t	-9.49858
、'''	-9.49966
▁object	-9.5022
において	-9.50256
▁make	-9.50351
代目	-9.50441
ど	-9.50585
▁英語版	-9.50983
▁表示	-9.51073
▁protection	-9.51173
30	-9.51329
▁このテンプレート	-9.51348
▁その他	-9.51536
:1}}	-9.51562
が指定されてい	-9.51602
'''1'''	-9.51756
関連	-9.51909
の引数	-9.51927
24	-9.52139
道	-9.5215
▁m	-9.52271
ノートに議論が	-9.52396
▁on	-9.52442
重要	-9.52564
定数	-9.52572
group	-9.52637
▁require	-9.52686
ry	-9.52815
年以前	-9.52827
▁|2016012412380	-9.52958
金	-9.52989
の戦い	-9.53154
▁-----------	-9.5323
映画	-9.53349
−	-9.53662
的な記述になってい	-9.53677
▁テンプレート	-9.53771
2|	-9.53803
下	-9.54003
▁$1	-9.54043
Ambox	-9.54047
ウェブ	-9.54169
[[{{	-9.54308
25	-9.54524
ン	-9.54651
Title	-9.54687
企業	-9.54728
行目	-9.54762
節タイプの	-9.54964
内での	-9.54967
。<	-9.54992
そ	-9.55018
ノート	-9.55029
purge	-9.55079
雑多な内容を箇条書きした節	-9.55108
-)【	-9.55185
▁frame	-9.5523
のテンプレートを使用し	-9.55246
▁M	-9.55286
iso	-9.5529
red	-9.55345
article	-9.55648
▁year	-9.55686
うちの	-9.55716
▁orange	-9.55893
'))	-9.55967
レイアウト	-9.55987
]]||[[#	-9.56244
▁namespaces	-9.56253
確認	-9.56279
回	-9.56315
あります	-9.56324
百科事典的でない	-9.56344
frame	-9.56519
内容	-9.56562
▁D	-9.56653
ほとんど	-9.56813
also	-9.57028
update	-9.57126
▁false	-9.57151
ように	-9.57509
カ	-9.57509
加筆	-9.57794
さ	-9.57872
ov	-9.57953
あまり	-9.57977
ッテル	-9.58017
今日の節気	-9.58132
によって	-9.58299
▁an	-9.58323
]](-	-9.5833
:1	-9.58514
周	-9.5852
KL	-9.58573
▁|201601241240	-9.58935
事件	-9.59098
基本的に	-9.59106
あじ	-9.59161
会	-9.59256
23	-9.59364
expand	-9.59532
信頼性に	-9.59674
:|2|{{{	-9.60355
---------	-9.60397
top	-9.60404
))	-9.60425
toggle	-9.60453
を使用しています	-9.60481
ombox	-9.60518
alt	-9.60697
▁このテンプレートは	-9.60762
を正しく使用していない	-9.60829
▁",	-9.60943
内	-9.61081
▁3	-9.61102
:|4|	-9.61144
▁|}	-9.61204
▁|2016012412360	-9.61354
new	-9.61367
▁W	-9.61392
|}}}}}}}}}	-9.61406
mirror	-9.6162
demospace	-9.61621
画像利用の方針	-9.61622
特筆性の分野を指定	-9.61637
過剰	-9.61739
▁Get	-9.6178
部	-9.618
三	-9.61802
IN	-9.61802
OR	-9.61905
c	-9.62052
▁|2016012412355	-9.62141
'''</	-9.62432
▁マークアップを	-9.62574
clear	-9.62671
NOT	-9.62708
ctual	-9.62721
検証が求められてい	-9.62759
classes	-9.62778
cleanup	-9.62811
プロジェクト関連文書	-9.62811
とし	-9.6285
との	-9.63046
の場合	-9.63196
マ	-9.63226
画像を表示し	-9.63476
リビア	-9.63532
廃止	-9.63658
チ	-9.63769
れ	-9.63769
:</	-9.63985
NR	-9.63992
Articles	-9.64104
▁options	-9.64219
▁ipairs	-9.64329
▁hlist	-9.64379
指針	-9.64485
/{{#	-9.64773
ことが	-9.64797
wikitable	-9.64871
お願いします	-9.64931
listclass	-9.64977
FO	-9.65042
だけでなく	-9.65236
読みにくくな	-9.65237
nuvola	-9.65244
の無い	-9.6525
acy	-9.65303
box	-9.65374
||{{	-9.65631
Categories	-9.65877
▁ウェブ	-9.65885
時	-9.65901
ガ	-9.65934
:{{{1|}}}|{{	-9.66111
しているページ	-9.66212
荒らし	-9.66215
に多くの	-9.6636
事項	-9.66455
target	-9.66469
experiment	-9.66471
リンク元	-9.66472
交響曲第	-9.66472
書き直す必要が	-9.66475
▁整理が必要な項目	-9.66491
関係の	-9.66532
mbox	-9.66681
titlestyle	-9.66743
One	-9.66893
区	-9.66956
るかもしれません	-9.66998
ウィキペディアは	-9.67033
)]]【	-9.67034
の更新	-9.67124
に追加	-9.67177
。-->	-9.67298
|2006	-9.6739
する	-9.67394
:{{{4|}}}|{{	-9.67552
▁{|	-9.67656
語源	-9.67677
王	-9.67681
完全に	-9.6772
過剰な内容の整理	-9.6772
宣伝広告	-9.67721
主題と	-9.67722
single	-9.67727
した節	-9.67746
深い	-9.67791
▁廃止	-9.67877
本	-9.68152
過去	-9.6821
▁|2016012412373	-9.68213
|}}}|<	-9.6826
判	-9.68261
水	-9.68363
"||	-9.68441
るのに	-9.68466
た結果	-9.68499
む	-9.68706
を用いて	-9.68725
▁書籍	-9.6875
レイアウトの	-9.68861
草案	-9.68895
}}&	-9.68944
中立	-9.6896
一次	-9.68971
日本中心にならないように	-9.68985
に基づいて	-9.68986
記述と関連付けて	-9.68988
ghi	-9.68992
invoke	-9.68998
▁words	-9.69006
小文字	-9.69006
More	-9.6902
含まれているおそれがあり	-9.69027
=0}}	-9.69041
▁独自研究の除去が必要な記事	-9.69075
▁world	-9.69105
等	-9.69145
:{{{3|}}}|{{	-9.69266
フ	-9.69377
「[[	-9.69398
▁2011	-9.69502
:{{{2|}}}|{{	-9.69603
原文	-9.69616
R	-9.69631
>{{#	-9.69654
風	-9.69747
CIT	-9.70127
を追加して	-9.70261
宣伝活動の記述のある項目	-9.70267
正確性に疑問がある記事	-9.70268
sement	-9.70269
加筆依頼	-9.70271
演説	-9.70273
Section	-9.70277
NPOV	-9.70281
▁Park	-9.70285
▁内容が過剰となっている記事	-9.7029
▁===============	-9.7029
={{{3}}}	-9.70292
大言壮語をしない	-9.70295
3|2	-9.70315
:{{{6|}}}|{{	-9.70315
:{{{8|}}}|{{	-9.70317
:{{{7|}}}|{{	-9.70318
:{{{9|}}}|{{	-9.70318
={{{4}}}	-9.70325
olo	-9.70337
▁他の記事から	-9.70337
:{{{5|}}}|{{	-9.70452
する場所で	-9.70458
={{{2}}}	-9.70505
内部テンプレート	-9.70568
が必要と	-9.70579
る記事	-9.70664
▁人物	-9.70674
的で	-9.70729
文章	-9.70795
gy	-9.70831
中国	-9.70975
▁古	-9.71052
の画像は	-9.71124
ary	-9.71159
cale	-9.71294
い情報を	-9.71335
一つの	-9.7135
b	-9.714
[1]	-9.7143
職人	-9.71561
単一	-9.71566
が必要な項目	-9.71566
に沿った形に修正する必要	-9.71567
恐	-9.71567
呈	-9.71568
ある項目	-9.71572
dvert	-9.71577
5}}}	-9.71581
ない	-9.71584
▁Valley	-9.71585
と比べ	-9.71611
に疑問が	-9.71638
存命人物記事	-9.71707
▁中立的	-9.71727
に使用	-9.71794
高等学校	-9.71899
▁情報	-9.71899
}}|<!--	-9.71964
rphan	-9.71971
などの	-9.72018
getM	-9.72025
}}}'''	-9.72087
デ	-9.72142
Blurb	-9.72144
eft	-9.72211
padl	-9.72249
▁|2008	-9.72291
日本語の	-9.72352
6}}}	-9.72431
。}}	-9.72441
▁wiki	-9.72478
|}}}|'''[[	-9.72508
4|2	-9.72512
返しま	-9.72633
7}}}	-9.72639
コ	-9.72721
に議論	-9.72746
▁独自研究の除去が必要な	-9.72833
の意味も含まれ	-9.72881
EGovernment	-9.72883
MyKad	-9.72883
Putrajaya	-9.72883
Rail	-9.72886
て記述	-9.72895
9}}}	-9.72902
▁Expressway	-9.72903
|{{{1}}}	-9.72928
http	-9.72958
docpage	-9.72972
されていない	-9.72976
▁|201601241241	-9.72994
8}}}	-9.73005
:「{{{	-9.73055
▁Link	-9.73169
た記述の	-9.73169
が過剰	-9.73296
▁makeToolbar	-9.73386
▁fa	-9.73515
▁|201601241239	-9.73516
城	-9.73525
|{{{1}}}}}	-9.73566
:{{{1|}}}	-9.73641
国外	-9.73799
ハ	-9.739
▁templates	-9.74099
Namespace	-9.74127
なっている	-9.74141
▁notice	-9.74215
ウェブコンテンツ	-9.74216
▁begin	-9.74241
わかりにく	-9.74249
させ	-9.74299
testcasesTitle	-9.74386
シドニー	-9.74446
al	-9.74524
、'''[[	-9.7455
▁C	-9.74577
たら	-9.74866
▁}}}|{{	-9.74977
num	-9.7509
全て	-9.75166
な記述になってい	-9.7522
;}}	-9.75251
pdate	-9.75253
の基準を満たしていないおそれ	-9.75285
▁</	-9.75347
のための	-9.754
echn	-9.75447
ウィキペディアは何ではないか	-9.75567
年生のサッカー選手	-9.75567
》《	-9.7557
ちゃんねるにおける	-9.7561
▁split	-9.75643
経緯	-9.75694
アニメ	-9.75724
'''。[	-9.7582
けん	-9.7589
▁preload	-9.7599
ron	-9.75993
=1	-9.76058
lt	-9.76198
▁exist	-9.76545
日付に	-9.76817
▁|2016012412425	-9.76855
サン	-9.76934
▁have	-9.76971
専門的で	-9.7698
しまあ	-9.77073
▁|2016012412370	-9.77083
の品質	-9.77236
▁内容が	-9.77322
広	-9.77407
州	-9.77615
match	-9.77633
こ	-9.77662
''']]	-9.77745
▁default	-9.77783
Prima	-9.77843
namespaces	-9.77859
86	-9.77907
▁記事	-9.78035
注意	-9.7824
27	-9.78269
以上	-9.78324
2|163.177.79.	-9.78326
もリンク	-9.78356
|-1	-9.78364
に欠け	-9.7839
per	-9.78441
▁|2016012412363	-9.78687
|}}|}}<	-9.792
▁start	-9.79228
▁[[:	-9.79282
nocat	-9.79313
|}}}|'''	-9.79331
}}}}}<!--	-9.79405
W	-9.79552
に由来	-9.79739
site	-9.79755
に使用し	-9.79772
郡	-9.79788
▁|2016012412404	-9.79803
:100%;	-9.79992
」([[	-9.8012
cal	-9.80255
=}}	-9.80308
26	-9.80347
郡区	-9.8062
▁font	-9.80659
都市	-9.80829
長	-9.80842
▁Generate	-9.81232
妄想	-9.81477
bottom	-9.81527
国名を	-9.81567
td	-9.81646
start	-9.81714
保護	-9.81727
木	-9.81853
Text	-9.81926
▁出典を必要とする記事	-9.81966
訳	-9.82077
▁Navbox	-9.82131
バ	-9.82175
▁_	-9.82316
▁result	-9.8234
ク	-9.82346
される	-9.82464
transcluded	-9.82622
者	-9.82628
入力	-9.82684
29	-9.82711
書き手と	-9.82711
ム	-9.82726
re	-9.82746
">	-9.82825
mp	-9.82874
28	-9.8296
▁|201601241242	-9.82978
SC	-9.83048
表示されます	-9.83137
▁article	-9.83153
▁|2016012412375	-9.8319
▁De	-9.83281
}}}}	-9.83301
-8	-9.83303
しており	-9.83331
number	-9.83341
▁cases	-9.8335
▁e	-9.83451
▁"「	-9.83735
平	-9.83827
になります	-9.83958
:{{{2|}}}	-9.84043
▁categorise	-9.84057
単なる	-9.84081
demolevel	-9.84082
が不足してい	-9.84087
イ	-9.8416
▁|2016012412402	-9.84219
▁right	-9.84421
|'''[[	-9.84758
自由	-9.84847
▁main	-9.84883
▁|2016012412384	-9.84899
=</	-9.84956
▁|2016012412382	-9.85017
整理	-9.85036
言語	-9.85299
を含む記事	-9.8546
ますが	-9.85556
get	-9.85564
れていないか	-9.85706
示さ	-9.8572
▁|2016012412405	-9.85775
subst	-9.85812
ウィキペディアの	-9.85899
0.2	-9.86004
-10	-9.86005
▁Wikipedia	-9.86179
テキストで	-9.86307
火	-9.86471
LIA	-9.86557
▁CSS	-9.86848
戦争	-9.86905
パラメータを	-9.87201
▁R	-9.87216
次のように	-9.87322
中学校	-9.87492
▁pairs	-9.87545
------------	-9.87545
▁La	-9.87646
▁|2016012412393	-9.87709
Print	-9.8777
▁Co	-9.87803
▁values	-9.87831
▁but	-9.87935
のメンテナンス	-9.88047
▁test	-9.8819
▁|2016012412361	-9.88285
▁|2016012412395	-9.88416
▁|2016012412372	-9.88459
アルバム	-9.88486
掲示板	-9.88623
管理者への依頼	-9.88629
ドラえもんのひみつ道具	-9.88629
Flag	-9.88631
どこかに	-9.88632
があるか	-9.88686
漫画	-9.88707
お	-9.88916
トで議論	-9.88996
ガイドライン	-9.89028
|80	-9.89078
ロ	-9.89187
phan	-9.89259
▁|2016012412415	-9.8961
▁ノー	-9.90056
を除去し	-9.90079
ult	-9.90084
廃止された	-9.90088
▁|2016012412385	-9.90108
xxx	-9.90173
体裁	-9.90191
楽曲	-9.90192
TeX	-9.90194
プリアン	-9.90199
G	-9.90199
rrid	-9.90202
:{{{2}}}	-9.90311
無視する	-9.90432
set	-9.9057
}}}<!--	-9.90666
es	-9.90953
reason	-9.911
▁We	-9.91201
imedia	-9.91234
らん	-9.91279
性	-9.91338
自動	-9.91554
文書	-9.91642
|160	-9.91662
package	-9.91779
当該サブカテゴリ名の末尾を返し	-9.91779
と書く	-9.91779
のページから	-9.91784
団体	-9.91875
人工	-9.91971
▁here	-9.92071
npo	-9.92359
マリア	-9.92416
▁reason	-9.92462
外	-9.92513
▁⇒[[	-9.92602
from	-9.92654
▁例	-9.9311
'}	-9.93152
さん	-9.93372
オートマティスム	-9.93387
を整	-9.93391
使用箇所の多い	-9.93392
えるために	-9.93392
autoconfirmed	-9.93395
ブルの	-9.93418
36	-9.93444
URI	-9.93447
▁does	-9.93449
]]</	-9.93483
月以前	-9.9349
▁G	-9.93525
使用するため	-9.93591
の記事	-9.93686
]]([[	-9.93705
▁Set	-9.93717
今日は何の日	-9.9374
田	-9.93936
リー	-9.94039
に分類	-9.9404
種類	-9.94058
-2006	-9.94382
できません	-9.94591
diff	-9.94598
マン	-9.9474
じょう	-9.94963
ですが	-9.94968
かかわ	-9.95135
▁|2016012412414	-9.95153
▁International	-9.95178
▁|2016012412400	-9.95258
▁Su	-9.95292
}}})	-9.95353
ダ	-9.95424
▁testcasesLink	-9.95734
指定する	-9.95754
ミ	-9.95755
東	-9.96448
オブ	-9.96454
▁at	-9.96487
▁|2016012412374	-9.96567
説	-9.96627
▁|2016012412394	-9.96697
sysop	-9.96697
▁Airport	-9.96713
bg	-9.96809
gt	-9.96866
40	-9.97076
基準を満たしていないおそれのある	-9.97196
Kazutoko	-9.97355
呼称	-9.97457
▁functions	-9.97563
ジョン	-9.97802
links	-9.97841
オ	-9.97896
の指定	-9.98059
21	-9.98076
none	-9.98077
▁6	-9.98087
▁argument	-9.9817
▁version	-9.98231
あ	-9.98274
reference	-9.98286
橋	-9.98454
、{{	-9.9857
天	-9.98727
次資料	-9.98793
MS	-9.98889
▁|201601241248	-9.98911
生	-9.99037
.5	-9.99044
高	-9.99072
については	-9.99109
▁heading	-9.99244
>}}</	-9.9935
県	-9.99431
▁exists	-9.99447
'},	-9.9955
数	-9.99665
度	-9.99718
▁|2016012412390	-9.99752
東京	-9.99837
▁doc	-9.99952
ガイドブック	-10.0012
記述のある	-10.0021
All	-10.0022
ナ	-10.0023
北	-10.0033
使用しています	-10.0046
▁|2016012412362	-10.0048
鉄道	-10.0053
▁|2016012412403	-10.0096
nreferenced	-10.0096
院	-10.0137
This	-10.0144
正	-10.0161
Lua	-10.0173
{{!}}{{{	-10.0186
mpu	-10.0188
Hai	-10.019
のではなく	-10.0209
賞	-10.0212
▁$2	-10.0225
既定値	-10.0234
▁|2016012412392	-10.0248
▁color	-10.0254
▁used	-10.0258
のアルバム	-10.0261
▁|2016012412410	-10.0276
▁other	-10.0292
]].	-10.0292
▁id	-10.0316
term	-10.0317
def	-10.0332
サ	-10.0353
書き	-10.0355
▁don	-10.0365
2|62.37.237.1	-10.0366
Special	-10.0366
core	-10.0366
fun	-10.0367
に移行	-10.0367
TV	-10.0379
有	-10.0383
南	-10.0384
をしない	-10.0387
しんこう	-10.0409
削除依頼	-10.0409
月別分類	-10.042
のに	-10.0424
下記の	-10.0427
▁/>'	-10.0441
'''2'''	-10.0448
に使われる	-10.045
▁|2016012412420	-10.0455
*	-10.0456
orig	-10.0457
スク	-10.0462
999	-10.0483
▁|2016012412383	-10.0484
初代	-10.0506
所	-10.0521
weight	-10.0547
Foo	-10.0548
▁画像	-10.0551
を羅列	-10.0553
家	-10.0558
▁below	-10.0561
▁blank	-10.057
|[[	-10.0572
▁names	-10.0579
▁A	-10.0584
は特に	-10.0604
14	-10.0615
競技	-10.0617
▁でも	-10.0644
のカテゴリ名	-10.0647
ま	-10.0654
している	-10.0657
▁|2016012412424	-10.0665
▁P	-10.0668
={{{1}}}}}	-10.0674
▁key	-10.0679
コミュニティ	-10.068
るほ	-10.069
▁N	-10.07
後	-10.0718
below	-10.0719
への	-10.072
cf	-10.0722
学	-10.0732
radius	-10.0733
箇月単位で分類する	-10.0733
makeCategoryLink	-10.0733
icon	-10.0755
▁No	-10.0779
に関する	-10.0785
▁expectType	-10.0802
タ	-10.0826
ノ	-10.0848
松	-10.0849
>。	-10.085
Pet	-10.0858
疑問が	-10.0865
西	-10.0866
({{#	-10.0871
祭	-10.0883
いち	-10.0885
_(197	-10.0888
攻撃	-10.0896
Class	-10.0905
返し	-10.0912
単純な	-10.0921
FAQ	-10.0921
之助	-10.0921
png	-10.0922
貼り付け日	-10.0923
User	-10.0934
[%	-10.0936
で指定し	-10.0966
ほう	-10.0969
."	-10.099
usage	-10.1008
▁--[[	-10.1018
..	-10.1019
へ	-10.1032
tr	-10.1045
用語の	-10.1058
リ	-10.1067
▁|2016012412432	-10.1073
国際	-10.1073
}}-{{	-10.1093
小説	-10.1098
名	-10.1103
isc	-10.1103
▁|2016012412364	-10.1111
二次元裏	-10.1113
正しくないテンプレートのある記事	-10.1115
▁which	-10.1115
>'	-10.1119
小学校	-10.112
l	-10.112
▁round	-10.1126
>[[	-10.1138
obj	-10.1141
▁O	-10.115
▁should	-10.1162
LinkDisplay	-10.1177
N	-10.1179
ップ	-10.1179
元	-10.1193
35	-10.1194
大学	-10.1195
}}"|	-10.1233
が指定されている	-10.1272
addC	-10.1273
書かれてい	-10.13
strange	-10.131
み	-10.1327
above	-10.1333
Express	-10.1334
月を	-10.1338
リンク	-10.1354
06	-10.1357
丸	-10.1358
バス	-10.1367
▁specified	-10.1383
day	-10.1394
▁edit	-10.14
...	-10.142
コンピューター	-10.1434
を返し	-10.1438
at	-10.146
Func	-10.1466
only	-10.1502
画像で	-10.1502
同人誌	-10.151
地図	-10.151
▁some	-10.1519
▁was	-10.1522
ten	-10.1523
。[[#	-10.1541
▁|2016012412430	-10.155
情報	-10.155
:{{{1}}}|{{{	-10.1552
transparent	-10.1557
千	-10.1568
▁|2016012412351	-10.1569
シ	-10.1576
小型タイプ	-10.1578
protected	-10.1579
色名	-10.158
条約	-10.1585
▁invalid	-10.1587
amp	-10.159
東京都	-10.1597
▁|201601241233	-10.1599
space	-10.1603
▁説明	-10.1603
族	-10.1614
の書き込み	-10.163
野	-10.1645
▁&	-10.1646
_(19	-10.1661
ボ	-10.1664
▁|201601241243	-10.1666
転	-10.1675
nvoke	-10.1679
→	-10.1692
という表	-10.1701
:「	-10.1703
となりま	-10.1704
誰	-10.1709
報	-10.171
}}}"|"	-10.1711
あき	-10.1711
▁handler	-10.1714
▁need	-10.1721
を調整し	-10.1724
▁|2016012412413	-10.1728
▁H	-10.174
all	-10.1743
▁no	-10.175
|#	-10.1759
ら	-10.176
▁Y	-10.1803
▁|2016012412433	-10.1814
ance	-10.182
▁***	-10.1822
6%	-10.1855
ないか	-10.1863
ニ	-10.1877
ut	-10.1882
ゲーム	-10.1884
神	-10.1887
ね	-10.1893
such	-10.1893
01	-10.1901
dicate	-10.1902
esource	-10.1905
@	-10.1907
清	-10.1909
事	-10.1911
世紀	-10.1922
June	-10.1922
▁current	-10.1924
THE	-10.1932
▁|2016012412365	-10.1933
別の	-10.1937
"<!--	-10.1939
の分類	-10.1943
▁MessageBox	-10.1949
renderStartBox	-10.1949
▁any	-10.1958
CSS	-10.1959
ウィリアム	-10.2003
ルイ	-10.2009
)}}}}	-10.2026
ther	-10.2032
モジュール	-10.2037
の歴史	-10.205
and	-10.2097
ジ	-10.2102
これを	-10.2121
統計	-10.2135
ProtectionBanner	-10.2135
防止	-10.2135
▁Centre	-10.2135
公共	-10.2135
ページ上部	-10.2136
学園	-10.2139
semi	-10.2143
▁|2016012412422	-10.2157
▁level	-10.2163
)</	-10.2165
▁タグ	-10.2167
=#	-10.217
▁print	-10.2173
result	-10.2176
しないでください	-10.2177
sandboxTitle	-10.218
▁use	-10.2186
スクリプトと	-10.219
fmargs	-10.2193
光	-10.2221
Subpages	-10.2226
10}}	-10.2232
Month	-10.2237
textstyle	-10.224
1|}}}	-10.2253
nb	-10.2254
▁-->}}<	-10.2284
tmbox	-10.2284
ディ	-10.2286
前	-10.229
cmbox	-10.2291
▁{'	-10.2291
だけ	-10.2294
通	-10.2301
立	-10.2314
成	-10.2324
ておらず	-10.2334
重	-10.2346
expiry	-10.2352
▁Infrastructure	-10.2352
▁applications	-10.2352
▁landmarks	-10.2352
スパム	-10.2352
▁Area	-10.2353
本当に	-10.2353
gsub	-10.2354
nd	-10.2356
編集	-10.2365
|}}}|{{{	-10.2375
▁ノーマルタイプと	-10.2389
くなった	-10.2403
Easter	-10.2404
▁w	-10.2424
ん	-10.2432
リンクされ	-10.2481
行	-10.2487
セ	-10.2499
時期	-10.2502
▁parameters	-10.2515
コンピュータ	-10.2519
旧暦	-10.2536
地震	-10.2541
色	-10.2546
見	-10.2557
であっても	-10.2561
docpageBase	-10.2575
プロイセン	-10.2575
Prot	-10.2575
数が少な	-10.2581
correctly	-10.2583
マッド	-10.2591
え	-10.2599
▁|+	-10.2602
▁configuration	-10.2602
愛	-10.2628
の一	-10.2637
専門学校	-10.2642
mw	-10.2668
▁|2016012412371	-10.2671
U	-10.2672
='''	-10.2681
佐藤	-10.2686
文字で	-10.2698
いか	-10.2707
最新版	-10.2708
日本の地	-10.2714
誤	-10.2715
ccur	-10.2736
FF	-10.2751
いるパラメータ	-10.2791
サブカテゴリ	-10.2796
May	-10.2798
船	-10.28
プログラム	-10.2801
スクライド	-10.2801
比較的	-10.2802
注目	-10.2802
確認して	-10.2805
史	-10.2806
50	-10.2808
形態	-10.2809
でも	-10.282
IP	-10.2831
('_	-10.2832
▁|2016012412423	-10.285
かん	-10.2853
▁string	-10.2865
]](==	-10.2868
metatable	-10.2882
関連項目	-10.2882
▁number	-10.2891
最も	-10.2891
美	-10.292
▁|2016012412431	-10.2927
年代	-10.2936
いた	-10.2936
ろ	-10.2958
正常	-10.2963
imbox	-10.2963
公	-10.2966
分	-10.297
カール	-10.2972
イン	-10.2976
自動車	-10.2984
▁|2016012412411	-10.2986
処理	-10.3028
どう	-10.3032
のスタイル	-10.3033
保存して	-10.3033
Style	-10.3034
というものがあ	-10.3034
等と呼ばれる	-10.3034
よろしければ	-10.3034
86400	-10.3034
後述	-10.3035
compare	-10.3035
--[	-10.3038
header	-10.3042
差分を	-10.306
異論	-10.3062
テ	-10.3072
=[	-10.3073
台本	-10.3075
sp	-10.3077
用テンプレート	-10.3086
▁2016	-10.3088
▁when	-10.3092
スプリクト	-10.31
val	-10.3115
rt	-10.312
speedy	-10.3121
多数	-10.3121
delete	-10.3123
公園	-10.3127
▁c	-10.3127
ちょう	-10.3128
インターネット	-10.3133
▁B	-10.3163
▁編	-10.3176
▁'1	-10.318
▁speedy	-10.3184
otability	-10.3187
地	-10.3189
▁blurb	-10.3191
1}}}}}|{{{1}}}}}	-10.3191
▁5	-10.3196
変更を	-10.3208
的に	-10.3211
:({{	-10.3216
何も	-10.3223
hour	-10.3228
場合はこの	-10.3239
じんこう	-10.3244
取り消しを	-10.325
▁7	-10.3252
]]<	-10.326
ajor	-10.3266
アルター能力	-10.3272
続いて	-10.3272
nowrap	-10.3272
チルダ	-10.3272
▁2440587.5	-10.3272
記事を執筆する	-10.3272
さえ	-10.3273
政治家	-10.3274
じどう	-10.3277
示されてい	-10.3281
▁than	-10.3282
=*	-10.3312
83%	-10.3312
▁HTML	-10.3323
▁表	-10.3339
戦	-10.334
▁|2016012412381	-10.3345
う	-10.3348
▁歴	-10.3351
lid	-10.3356
olid	-10.3357
([[19	-10.3361
Don	-10.3364
▁error	-10.3368
04	-10.3377
リスト	-10.3377
58	-10.3384
root	-10.3385
土	-10.3387
架空の	-10.34
ta	-10.3404
英語版	-10.3434
できます	-10.3447
▁話	-10.3452
▁+9	-10.3454
花	-10.3461
しゅう	-10.3482
BC	-10.3494
運営	-10.3515
併	-10.3515
then	-10.3516
LEVEL	-10.3516
年生の投手	-10.3516
エスターライヒ	-10.3516
博覧会	-10.3516
いるものは	-10.3516
PROT	-10.3517
▁スクリプトを書く	-10.3517
summary	-10.3518
の処理	-10.3521
指定内容	-10.3525
fimprove	-10.3532
▁または	-10.3532
す言葉	-10.3547
信	-10.3548
▁|2016012412412	-10.3558
化	-10.356
パ	-10.3563
--]	-10.3564
imageright	-10.3588
-3	-10.3588
))}}	-10.3622
の文章	-10.3627
キー	-10.3628
08	-10.3637
L	-10.3652
メタテンプレート	-10.3654
ゴ	-10.3662
mm	-10.3667
海	-10.3675
番組	-10.3675
シュ	-10.3677
多数の	-10.3677
取り消してい	-10.3699
決	-10.3707
書き手	-10.3716
グ	-10.3731
ティ	-10.3746
▁subpages	-10.375
に追加してください	-10.3756
-----------	-10.3758
生まれた	-10.3762
▁detect	-10.3764
と法律	-10.3764
文庫本数冊文の	-10.3766
あらゆる種類の	-10.3766
·	-10.3766
ECTION	-10.3766
コンピュータが自動的に	-10.3766
あらゆる	-10.3767
include	-10.3769
|}}}}}	-10.3782
古	-10.3791
以外	-10.3806
}}}}|	-10.3807
モ	-10.382
ユーザーが	-10.3822
論	-10.3835
▁::	-10.3838
([[	-10.3852
無く	-10.3861
を使った	-10.3865
の誤	-10.3871
\	-10.3881
mappings	-10.39
=3	-10.3903
フランス	-10.3907
ている項目	-10.3912
10|{{{	-10.3931
鈴木	-10.3945
meta	-10.3953
0%">	-10.3954
=]	-10.3965
直	-10.3968
太郎	-10.4
ly	-10.4006
▁above	-10.4008
登場した	-10.4022
ウィキメディア	-10.4023
公式方針	-10.4023
imageEmptyCell	-10.4023
xfd	-10.4023
▁base	-10.4024
▁前述	-10.403
問題点の	-10.404
用の	-10.4054
▁too	-10.4054
]]||	-10.4062
白	-10.4066
つに	-10.4071
▁の	-10.4075
まった日時に発表する形式のもので	-10.4081
エル	-10.4085
吉	-10.4086
done	-10.4089
かに	-10.4114
inse	-10.4116
22	-10.4116
For	-10.4136
2|}}}|	-10.4137
eekday	-10.4148
館	-10.4153
run	-10.4162
▁parent	-10.4162
提出され	-10.4164
源とする	-10.4186
原	-10.4186
▁|2016012412332	-10.4201
_(2	-10.4204
▁ambox	-10.4216
宗	-10.4217
▁2006	-10.4239
潜水艦	-10.424
▁|2016012412421	-10.4244
グループ	-10.4249
▁num	-10.425
背	-10.4252
集	-10.4253
想定	-10.4253
派	-10.4258
|*	-10.4273
extra	-10.4274
ブ	-10.4277
の異	-10.428
司	-10.4283
現状	-10.4286
年のテレビアニメ	-10.4286
▁whether	-10.4286
としあき	-10.4287
testcasesPreload	-10.4289
解説	-10.4293
▁カテゴリ	-10.4299
=<	-10.4305
templatedata	-10.4308
記事内容	-10.4308
ウ	-10.4316
▁|2016012412401	-10.4322
7|{{{	-10.4323
]]「[[	-10.4325
nodate	-10.4334
マリー	-10.434
▁historyLink	-10.4341
)]](	-10.4345
の語	-10.4346
▁ei	-10.4358
Pp	-10.4377
parameter	-10.4385
履歴	-10.4392
安	-10.4392
値	-10.4395
2|}}}	-10.441
Message	-10.441
5|{{{	-10.4433
docSpace	-10.4439
石	-10.4443
printTitle	-10.4443
show	-10.4446
物	-10.4455
bold	-10.4456
基準年	-10.4456
削除	-10.4465
6|}}}	-10.4478
物語	-10.4483
▁Re	-10.4487
Display	-10.45
▁これら	-10.4501
説もあ	-10.4502
せ	-10.451
したほ	-10.4515
じどうしゃ	-10.4525
▁タグの	-10.4527
38	-10.4535
為	-10.454
時間	-10.4547
詳	-10.4554
記事の選考	-10.4555
しゃ	-10.4555
捏造	-10.4555
フリードリヒ	-10.4556
年生の内野手	-10.4556
フレーム	-10.4556
当初	-10.4556
スラング	-10.4556
本人が	-10.4557
の根拠	-10.4557
受け取られ	-10.4558
▁check	-10.4558
J	-10.4559
Editor	-10.456
imagecaption	-10.4561
contentTitle	-10.4565
8|}}}	-10.4571
9|}}}	-10.4576
されるもの	-10.4578
▁様々な	-10.4588
使われてい	-10.4588
での	-10.4589
7|}}}	-10.4592
聖	-10.4641
本来の	-10.4656
5|}}}	-10.4657
▁[[4	-10.4657
▁1,	-10.4662
=|	-10.4664
▁-->|{{#	-10.4668
▁tables	-10.4677
H	-10.4678
量	-10.4683
testcasesRunLink	-10.4683
掲示板の	-10.4686
雄	-10.4693
=<!--	-10.4703
ネ	-10.4708
投票	-10.4714
真	-10.4717
scape	-10.472
スポーツ	-10.4726
記述	-10.4731
が適切	-10.4736
えて	-10.4739
arrow	-10.4752
パッケージ	-10.4754
▁/>	-10.4755
ることがあり	-10.4771
読者	-10.4802
万	-10.481
地名	-10.4814
書き込み内容	-10.4816
区別し	-10.4819
ません	-10.4824
久	-10.483
型	-10.4831
満た	-10.4832
せば	-10.4833
述	-10.4833
それが現実であれ荒らしのために	-10.4833
掲示板ユーザーは掲示板	-10.4833
そしてその出力を	-10.4833
機械による無意味な出力	-10.4833
定期スクリプトと呼ばれ	-10.4833
であれ	-10.4834
まれた	-10.4834
虚構	-10.4834
主の私生活を自慢する文章に対して	-10.4834
▁technical	-10.4834
▁valArray	-10.4834
▁compareDisplay	-10.4834
感情	-10.4834
makeStartBoxData	-10.4834
startBox	-10.4834
ユーザー間で	-10.4834
talkPageTitle	-10.4834
▁linkBox	-10.4834
狭義では広義のスクリプトのうち	-10.4834
読み手の実生活との差異が他人を	-10.4835
endBox	-10.4836
▁}}<	-10.4836
は広義	-10.4841
▁acc	-10.4846
るもので	-10.4851
車	-10.4856
明確に	-10.4856
messageName	-10.4859
▁$1.'	-10.4861
}}+	-10.4869
そうでない場合	-10.4876
パラメータが指定されてい	-10.4879
24219	-10.488
の文章化であるとして扱う風習が	-10.4896
:10	-10.4906
sandboxLinks	-10.4914
▁compareLink	-10.4937
義	-10.4945
英	-10.4952
かい	-10.497
しょ	-10.4971
07	-10.4975
=[[	-10.4978
ヒ	-10.4982
sbox	-10.4983
RunLinkDisplay	-10.4989
month	-10.4998
間	-10.5006
掲示板の書き込み	-10.5008
された	-10.5009
流れ	-10.5016
both	-10.5027
▁blacklist	-10.5031
のみを指	-10.5032
を指	-10.5047
を指し	-10.5049
種	-10.505
は使用	-10.5053
できる	-10.506
アイコン	-10.5062
定時	-10.507
世界	-10.5085
ち	-10.5089
attr	-10.5097
門	-10.511
和	-10.5113
スクリプトの	-10.5114
▁'/'	-10.5115
ないので	-10.5117
を用いる	-10.5118
混	-10.5119
合わせると	-10.5119
繋ぎ	-10.5119
地帯	-10.5119
単なるフィクションとして書き込	-10.512
JPG	-10.512
3|}}}	-10.5125
同一の	-10.5125
を全て	-10.5125
ユーザーは	-10.5126
サザン	-10.5129
スクリプトのうち	-10.5136
おらず	-10.5147
じゆう	-10.5164
自体は	-10.5199
▁2013	-10.5199
|}}}|{{{3|}}}}}	-10.5212
太	-10.5226
更新が	-10.5235
雑多な内容を	-10.5242
▁docSpace	-10.5246
line	-10.5247
は当然	-10.5248
男	-10.5263
_(200	-10.5264
8|{{{	-10.5264
ケース	-10.5269
・2	-10.527
台	-10.5278
書	-10.5287
リンクされて	-10.5299
▁delete	-10.5302
仏教	-10.5311
▁you	-10.5315
教育	-10.5319
html	-10.5322
Wiki	-10.5329
msg	-10.5331
">{{	-10.5334
▁yes	-10.5346
を行う	-10.5349
の無	-10.539
め	-10.5396
▁Module	-10.5397
ヴィルヘルム	-10.5405
Image	-10.541
が生じ	-10.5413
を羅列した文章	-10.5414
ストリーム	-10.5414
として書き込	-10.5414
ロバート	-10.5414
形電車	-10.5414
pink	-10.5415
当	-10.5416
す書き込み内容として	-10.5416
貶	-10.5416
_(2010	-10.542
関係に	-10.5422
一種	-10.5423
ビ	-10.5439
場	-10.5452
きょうぎ	-10.5456
▁:*	-10.5466
書き手の	-10.5469
の特定の	-10.5473
><!--	-10.5479
...)	-10.5481
▁else	-10.5484
▁none	-10.5484
37	-10.5485
subpages	-10.5487
ever	-10.5487
ラジオ番組	-10.5488
▁|2016012412331	-10.549
にも	-10.5493
十三	-10.5497
"><	-10.5506
」(	-10.5518
▁subject	-10.553
体	-10.5532
理由	-10.5535
34	-10.5536
▁format	-10.5543
メッセージ	-10.5566
田中	-10.5569
ぜん	-10.5578
ていますが	-10.5578
,000	-10.56
22}}	-10.5604
!!	-10.5607
之	-10.5612
us	-10.5618
勝	-10.5638
MediaWiki	-10.5643
52	-10.5645
2|20	-10.5646
を使う場合は	-10.5649
||[[	-10.5649
戦列艦	-10.5657
軍	-10.5659
▁up	-10.5667
▁|20160124124	-10.5673
経	-10.5687
O	-10.5694
▁2008	-10.5697
foo	-10.5698
06}}	-10.5698
局	-10.5714
という合意をユーザー間で	-10.5716
井戸端	-10.5717
揶揄	-10.5717
敢	-10.5717
淆	-10.5717
の意味も	-10.5717
句読点	-10.5717
label	-10.5717
協会	-10.5717
私論	-10.5717
自慢する内容	-10.5718
の出力	-10.5721
とは無	-10.5722
との間に	-10.5722
空に	-10.5725
もあった	-10.5728
武	-10.5731
といった	-10.5732
ms	-10.5739
▁yesno	-10.5742
ふ	-10.5748
高橋	-10.576
fix	-10.5762
ヤ	-10.5765
の場合は	-10.5768
は何も	-10.5781
2|{{{	-10.5782
進	-10.5783
EditDisplay	-10.5795
▁|2016012412330	-10.5811
依頼	-10.5821
夫	-10.583
実際に	-10.5832
屋	-10.5835
▁run	-10.5839
込め	-10.5867
6|{{{	-10.5871
09	-10.5885
売	-10.5898
49}}	-10.5906
フォーマット	-10.5918
_(2013	-10.5918
いないか	-10.5921
true	-10.5926
The	-10.5928
▁'^	-10.5938
わ	-10.594
TemplateData	-10.5943
図書館	-10.5945
事態になって	-10.5952
そう	-10.5955
こう	-10.5961
としま	-10.5966
2|1	-10.5971
ちゅうがっこう	-10.6004
51	-10.6008
)「	-10.6009
]])</	-10.6015
善	-10.6018
僧	-10.6029
木村庄	-10.6029
September	-10.603
笹	-10.603
AND	-10.6035
豊島	-10.6038
シリーズ	-10.6039
四	-10.6044
で指定	-10.6051
生成する	-10.6051
▁success	-10.6054
▁CategoryHandler	-10.6054
意味合い	-10.606
たい	-10.606
q	-10.6061
68	-10.6061
特定	-10.6067
Tracking	-10.6077
sub	-10.6079
ろう	-10.6079
アン	-10.6085
39	-10.6089
"1"	-10.609
mble	-10.6091
60	-10.61
59	-10.6105
修	-10.6111
党	-10.6117
十	-10.6122
られ	-10.6134
により	-10.6142
▁_,	-10.6144
だ	-10.6145
変換	-10.6158
▁1]	-10.6166
▁like	-10.6168
蔵	-10.6175
ようになった	-10.6181
な内容を箇条書きした節を避ける	-10.6186
=0	-10.6186
曲	-10.6188
使われている	-10.6191
手	-10.6194
▁metaArgs	-10.6197
90	-10.6211
年のアルバム	-10.6239
▁関連項目	-10.6239
ニー	-10.6245
アメリカ	-10.625
に対応してい	-10.6252
2|19	-10.6253
▁|2016012412334	-10.6261
宮	-10.6266
=6	-10.6275
ひ	-10.6281
HTML	-10.6282
▁case	-10.6284
state	-10.629
param	-10.6293
lower	-10.6305
八	-10.632
テレビ	-10.6332
}}||{{#	-10.6332
井	-10.6335
67	-10.6336
2|200.	-10.6349
オリンピック	-10.6349
365	-10.6351
と見做す	-10.6351
道路	-10.6351
会議	-10.6352
電子	-10.6352
change	-10.6352
荒らし対策	-10.6352
Padlock	-10.6353
地域	-10.6355
メ	-10.637
じゅう	-10.6373
2|189.	-10.6374
笹原	-10.6377
_(198	-10.6383
形成	-10.6392
機能	-10.6424
z	-10.6426
ユー	-10.6428
ソ	-10.643
むら	-10.6439
氏	-10.6452
ol	-10.6466
貼られていた	-10.6493
堂	-10.6503
thing	-10.6506
気	-10.6509
2|103.24	-10.6509
社	-10.6527
示されて	-10.653
テンプレートの	-10.6532
[#	-10.6543
〜	-10.6548
ぶ	-10.6561
▁italic	-10.6564
14}}	-10.6565
wiki	-10.6593
谷	-10.6594
▁K	-10.6608
中国の	-10.6617
江	-10.6618
ペ	-10.6619
getArgs	-10.6633
作者	-10.6637
サブページ	-10.6642
座	-10.6643
white	-10.6655
}}}|1|	-10.6658
9|{{{	-10.666
FE	-10.6661
Arguments	-10.6662
03	-10.6675
これは	-10.6676
管理	-10.6678
よ	-10.668
忠	-10.6682
メッセージボックス	-10.6684
全米	-10.6685
半角	-10.6685
職業訓練指導員	-10.6685
WEEKDAY	-10.6685
2|212.156.	-10.6685
★	-10.6685
行動	-10.6685
グループなし	-10.6686
系電車	-10.6686
isSmall	-10.6686
軍人	-10.6686
checkType	-10.6686
▁memoized	-10.6686
JD	-10.6689
記号	-10.669
|2005	-10.6692
一定の	-10.6695
セル	-10.67
ロシア	-10.6701
se	-10.6703
}}}|{{{1|}}}|{{{	-10.6708
常	-10.6714
▁lim	-10.6724
3|{{{	-10.6725
▁non	-10.6728
ホ	-10.673
dd	-10.6737
97	-10.6746
CreateDisplay	-10.6748
>|</	-10.6749
▁pn	-10.6763
▁209	-10.6775
▁b	-10.6776
▁使い方	-10.6778
植物	-10.6791
書き込みの	-10.6797
里	-10.6804
別	-10.6818
ニュー	-10.6824
音	-10.6826
}}|}}<	-10.6838
ほ	-10.6838
しているパラメータ	-10.6843
▁ns	-10.6844
33	-10.6846
ベ	-10.6847
アイ	-10.6849
([[194	-10.686
]]、[[	-10.6877
以下のよう	-10.6881
getCurrent	-10.6882
トゥ	-10.6888
||[[#	-10.689
.'	-10.69
のチェック	-10.6901
治	-10.6909
▁metatable	-10.6911
スクリプトという	-10.6918
伊	-10.6923
。(	-10.6924
2={{{	-10.6927
▁pass	-10.6934
であれば	-10.695
介	-10.6955
の日	-10.6957
0|}}}	-10.6967
}}}{{#	-10.6973
ポ	-10.6984
options	-10.6985
100	-10.699
と記述	-10.6991
円	-10.6991
language	-10.7007
item	-10.7008
このパラメータ	-10.7011
意	-10.7016
形式で記入してください	-10.7029
それ	-10.703
ジョージ	-10.703
▁following	-10.7031
▁lite	-10.7031
テスト	-10.7031
"{{{	-10.7031
SUB	-10.7031
_(1990	-10.7035
▁added	-10.7039
ログ	-10.7044
aaa	-10.7047
なし	-10.7055
日を	-10.7056
}}}}}}	-10.7067
▁「[[	-10.707
。</	-10.707
利用者の	-10.7073
システム	-10.7075
2012	-10.708
}}}|1||{{{	-10.7082
▁getArgs	-10.7089
▁def	-10.7094
▁there	-10.7105
多	-10.711
▁warning	-10.7114
疑問	-10.7115
tron	-10.7128
スクール	-10.713
{{=}}	-10.7137
ヴィ	-10.7156
heet	-10.7157
2|41.	-10.7161
wikis	-10.7173
18}}	-10.7174
▁n	-10.7174
ro	-10.7179
▁items	-10.718
}}{{	-10.7184
ould	-10.7203
投稿	-10.7223
}}}</	-10.7227
写	-10.7227
▁'</	-10.7237
定	-10.7253
to	-10.7259
}}}<	-10.7265
▁modules	-10.7266
_(2012	-10.7276
表	-10.7276
▁get	-10.728
春	-10.7287
▁match	-10.7301
▁cell	-10.7313
。'''	-10.7345
issue	-10.7346
templateCategory	-10.7347
▁sort	-10.7359
|}}<	-10.736
タグ付け	-10.7367
用いる	-10.7369
Article	-10.7373
imageRight	-10.7377
伝	-10.7383
カレッジ	-10.7387
回避	-10.7387
記事や節	-10.7387
偏っていることを明示したい場合は	-10.7387
年生の外野手	-10.7387
症	-10.7387
峠	-10.7387
▁pcall	-10.7387
▁call	-10.739
学校	-10.7391
147.14	-10.7399
シドニーオリンピックにおける	-10.7402
キャ	-10.7403
を正しく使用していないページ	-10.7413
▁"201	-10.7415
▁日本語版	-10.7415
}}}|}}	-10.742
例えば	-10.7423
No	-10.7433
_(1	-10.744
render	-10.7447
▁|2016012412333	-10.7453
▁14	-10.7457
31	-10.7457
ヘ	-10.7461
2|190.1	-10.7463
こうとうがっこう	-10.7463
パッケージを	-10.7464
fa	-10.7473
lass	-10.7474
機	-10.7475
教会	-10.7476
~	-10.7492
中央	-10.7496
]]・[[	-10.7499
ケ	-10.7527
ファン	-10.7533
ず	-10.7539
五	-10.754
Page	-10.754
豊	-10.756
視する	-10.7561
河	-10.7592
]]}}</	-10.7594
▁11	-10.7631
▁2009	-10.7633
はこのテンプレート	-10.7646
モン	-10.7648
▁|2016012412335	-10.765
自由党	-10.7656
estcasesEditLink	-10.7659
">(	-10.7663
tability	-10.7665
}}}}<	-10.7666
上の	-10.7693
び	-10.7695
▁has	-10.77
もの	-10.7713
▁Lua	-10.7714
▁0.5	-10.7717
今	-10.7726
split	-10.7737
龍	-10.7751
count	-10.7755
rackets	-10.7757
ComparePages	-10.7758
headingFontSize	-10.7758
▁processing	-10.7758
すくりふと	-10.7758
▁mirrorSummary	-10.7758
▁output	-10.7758
▁Heading	-10.7758
Triglav	-10.7758
mirrorUrl	-10.7758
林	-10.7758
を使用する際	-10.7758
▁headingStyle	-10.7759
装置	-10.7759
Dated	-10.776
▁templateLink	-10.7761
February	-10.7761
▁printBlurb	-10.7762
▁messageBox	-10.7764
友	-10.7764
testcasesLinks	-10.7765
▁book	-10.7768
ジャン	-10.777
ASE	-10.777
歌	-10.7774
_(1989	-10.7775
ウス	-10.7775
params	-10.7777
linksData	-10.7777
45	-10.7778
に対して	-10.7778
ist	-10.7782
▁docname	-10.7795
>)</	-10.7796
タグ	-10.78
titleArg	-10.7801
▁***[[	-10.7803
▁'[[	-10.7814
com	-10.7817
政	-10.7818
('[[	-10.782
であり	-10.7822
ものです	-10.7833
▁inter	-10.7852
隆	-10.7853
イタリア	-10.786
相	-10.7864
|2012	-10.787
記	-10.7871
_(2007	-10.7878
クラブ	-10.7889
2004	-10.7911
永	-10.7913
するため	-10.7922
次	-10.7923
▁createLink	-10.7923
▁editLink	-10.7929
シー	-10.7944
▁tag	-10.7954
bb	-10.7966
しつつ	-10.7972
0.5	-10.7977
がく	-10.7983
me	-10.8012
通常の	-10.8014
ター	-10.8014
41	-10.8019
ミー	-10.8028
:]]<!--	-10.803
画像を	-10.804
崎	-10.8042
武将	-10.8053
Check	-10.8063
発	-10.8071
▁dateHandler	-10.8073
_(3	-10.8082
ゲ	-10.8082
▁Express	-10.8094
indef	-10.8098
ぎ	-10.8109
位	-10.8125
じゅうさん	-10.8125
ギ	-10.8127
その文章	-10.8129
ささ	-10.814
団	-10.814
_(1979	-10.8142
推薦	-10.8142
蕭	-10.8142
▁文章をここに	-10.8142
▁CATEGOR	-10.8142
▁available	-10.8142
loadData	-10.8142
▁settings	-10.8142
▁Render	-10.8142
▁メッセージ	-10.8142
アンナ	-10.8143
軍事	-10.8144
を閲覧する	-10.8147
57	-10.8149
plainlinks	-10.815
戸	-10.8152
法律	-10.8153
くありません	-10.8155
ww	-10.8158
共和国	-10.8167
小林	-10.8178
56	-10.8179
----------	-10.8188
:0:0:0:	-10.8202
ドラマ	-10.8202
>(<	-10.8203
▁explanation	-10.8203
0,000	-10.8208
0.1	-10.8216
を指定できます	-10.8233
ドイツ	-10.8233
|-}}}	-10.8243
伊藤	-10.8249
*(	-10.8256
_(193	-10.8257
erge	-10.8258
香	-10.826
が提出され	-10.8264
02	-10.8266
出	-10.8268
ゴルフ	-10.8276
うした	-10.8276
ic	-10.8284
マイ	-10.8291
レイ	-10.8299
センター	-10.83
▁printTitle	-10.8311
CC	-10.8313
求められています	-10.8334
}}}}}}}}}}}}	-10.8347
自由民主党	-10.8352
}}<	-10.8355
ヴァ	-10.8356
将軍	-10.836
台湾	-10.8363
PAGE	-10.8364
]]。	-10.8391
])	-10.8392
▁us	-10.8417
式	-10.8423
管理者	-10.8425
ッド	-10.8435
されている	-10.8442
のポータル	-10.8444
資料	-10.8444
4|}}}	-10.8447
作成	-10.8452
中村	-10.8458
月第	-10.8466
▁Un	-10.8466
▁In	-10.8467
馬	-10.8476
実	-10.8483
▁Pet	-10.8486
ここ	-10.8489
▁l	-10.8496
('%	-10.8501
佐々	-10.8502
心	-10.8505
しと	-10.8519
=9	-10.852
よう	-10.8523
collapse	-10.8533
隊	-10.8538
2|18	-10.854
埼玉県	-10.8541
弘	-10.8541
即	-10.8541
俳優	-10.8542
undefined	-10.8542
頒	-10.8542
PiaCarrot	-10.8542
ウィキペディアに参加する	-10.8542
ザクセン	-10.8542
Protection	-10.8542
式守	-10.8542
▁look	-10.8543
布される	-10.8543
IZE	-10.8544
元号	-10.8544
にまとめ	-10.8544
Ombox	-10.8546
pp	-10.8547
▁present	-10.8549
航空	-10.855
このテンプレート	-10.8556
_(2011	-10.8556
_(2000	-10.8557
問題点パラメータ	-10.856
を指定し	-10.8564
作品一覧	-10.8567
電気	-10.8574
の意	-10.8576
鳥	-10.8581
良	-10.8582
▁20	-10.8585
ight	-10.8588
▁--><	-10.8595
すく	-10.86
口	-10.8604
ent	-10.8604
しんこ	-10.8621
スクリプトが	-10.8627
concat	-10.8637
著作権	-10.8637
▁Global	-10.8638
:0	-10.8642
48	-10.8644
method	-10.8644
しました	-10.8647
▁work	-10.8653
ご	-10.8658
黒	-10.866
▁Check	-10.8661
秀	-10.8667
セン	-10.8695
的な	-10.8697
ときに	-10.8713
ール	-10.8715
合	-10.8728
▁mappings	-10.8748
専門	-10.876
完了	-10.876
もし	-10.8769
項目	-10.8774
ize	-10.8774
集団	-10.8775
になるものも	-10.8788
ビル	-10.8792
▁abo	-10.8793
}}'''	-10.8806
鉄	-10.8813
▁2000	-10.8823
オート	-10.8829
ただ	-10.8829
七	-10.883
イギリス	-10.8831
▁パラメータを使用	-10.8863
NG	-10.8863
09}}	-10.8867
▁0}}}}	-10.8871
なら	-10.8879
そのまま	-10.888
は使	-10.8886
他の	-10.8889
夏	-10.889
is	-10.8894
シド	-10.8901
ソン	-10.8901
▁/><	-10.8911
議論	-10.8923
ダム	-10.8924
▁line	-10.8931
ぐん	-10.8938
せんもんがっこう	-10.8939
▁un	-10.8945
▁年月が記入されていない場合	-10.8947
オプション	-10.8947
:|5|{{	-10.8951
病	-10.8958
郵便局	-10.8959
季節の話題	-10.8959
disallowlevel	-10.8959
January	-10.8959
追加されたパラメータ	-10.8959
声優	-10.8959
都市計画道路	-10.8959
_(2008	-10.8966
_(1991	-10.8969
グレイ	-10.897
▁年月が記入されていない場合に	-10.8971
の種類	-10.8979
Parameters	-10.898
}}・{{	-10.8988
▁classes	-10.8992
lease	-10.9003
▁It	-10.9013
星	-10.9016
2|190.	-10.9027
マイケル	-10.9029
sect	-10.9029
がわ	-10.9029
ができます	-10.9038
Yes	-10.9043
を指定	-10.9061
〜]]	-10.9073
坂	-10.9075
空	-10.908
2|52.	-10.9088
チャ	-10.9088
の記述	-10.9091
委員会	-10.9094
がある場合	-10.9096
nums	-10.9103
▁nilArgs	-10.9113
数学	-10.9123
徳	-10.913
▁prefix	-10.9138
しょうぐん	-10.9145
心理学	-10.9149
流	-10.9155
電	-10.9157
types	-10.9159
▁Wiki	-10.9163
▁listType	-10.9174
▁:::	-10.9178
▁[[13	-10.9182
しょうめい	-10.9182
け	-10.9195
プレ	-10.9203
=7	-10.9205
▁one	-10.9215
ぜんべい	-10.9229
児童	-10.9241
興	-10.9241
▁""	-10.925
▁tidyVal	-10.9267
WI	-10.9289
サー	-10.9324
/>{{	-10.9335
し方	-10.9353
特筆性の基準	-10.9355
ジョ	-10.9356
05	-10.936
と思います	-10.9367
インド	-10.9368
st	-10.937
ボックス	-10.9373
夜	-10.9374
バンド	-10.9376
比べ	-10.9379
路	-10.9386
Only	-10.9393
strong	-10.9394
表の作り方	-10.9394
パラメータを設定することで	-10.9394
:150%">	-10.9394
([[195	-10.9395
漫画家	-10.9395
暦	-10.9397
_(1986	-10.9397
全文	-10.9402
_(1985	-10.9404
▁initial	-10.9408
キング	-10.9411
旧	-10.9418
▁|2016012412391	-10.942
NTER	-10.942
>|<	-10.9421
_(2009	-10.9429
った	-10.9431
61	-10.9432
▁ter	-10.9434
ささやま	-10.9437
に応じて	-10.9445
=5	-10.9445
▁Pe	-10.9447
▁keys	-10.9451
犬	-10.9453
URL	-10.9453
onlyarticles	-10.9453
ゆ	-10.9459
web	-10.946
ヴュルテンベルク	-10.9462
ック	-10.9465
2|181.1	-10.9465
2|177.	-10.9467
岩	-10.9474
こともできます	-10.9474
戦艦	-10.9482
bar	-10.9486
ワールド	-10.9488
合意形成	-10.949
28}}	-10.9491
uses	-10.9511
「[[:	-10.9512
See	-10.9513
▁クラス	-10.9514
玉	-10.9514
:#	-10.9518
▁は	-10.9521
キーワード	-10.9522
▁top	-10.9523
サンドボックス	-10.9526
通常	-10.9529
▁compa	-10.9533
笹川	-10.955
▁16	-10.9559
var	-10.9561
号線	-10.9563
ir	-10.9567
=]]	-10.9572
ダン	-10.9573
がっこう	-10.9577
.__	-10.958
関係	-10.9593
自身	-10.96
通り	-10.9603
|<	-10.9624
ワ	-10.9627
提案	-10.9631
▁example	-10.9645
しょうに	-10.9646
リック	-10.9651
4|{{{	-10.9669
寺院	-10.9673
力	-10.9676
保護レベル	-10.968
open	-10.9685
>{{{1}}}	-10.9687
mf	-10.9721
40}}	-10.9724
を参照	-10.9731
ル語	-10.9732
お知らせテンプレートを	-10.9732
の理由	-10.9743
師	-10.976
目	-10.9764
御	-10.9768
▁引数	-10.977
ライト	-10.9772
th	-10.9777
名前空間	-10.9793
お知らせ	-10.9797
test	-10.98
plain	-10.9811
Data	-10.9818
仮	-10.9819
;</	-10.9823
足	-10.9825
せんそう	-10.9831
KIS	-10.9832
雲	-10.9845
湖	-10.9846
女優	-10.9847
uvola	-10.9848
筋	-10.9848
保管倉庫	-10.9848
半角スペース	-10.9848
季節の画像	-10.9848
決まった名前空間で使うの	-10.9848
施設	-10.9848
亜	-10.9848
左衛門	-10.9848
▁specify	-10.9849
Blue	-10.9849
スクリーン	-10.985
移動	-10.9855
その他の設定	-10.9856
▁testing	-10.9857
フリー	-10.986
_(1988	-10.9861
せい	-10.9867
▁only	-10.9869
_(1978	-10.987
グリーン	-10.9883
isodate	-10.9894
しゅうまつ	-10.9898
ノートページ	-10.99
過去の	-10.9903
桁	-10.9909
2|2002:	-10.9912
▁lang	-10.9913
ないと	-10.9913
病院	-10.9921
三郎	-10.9928
ヨ	-10.993
ies	-10.993
ワシントン	-10.9932
00	-10.9933
▁19	-10.9934
:150%	-10.9938
▁required	-10.9939
DD	-10.994
しょういん	-10.9948
allow	-10.9949
GFDL	-10.9959
ge	-10.9961
イラン	-10.9962
アル	-10.9964
ラジオ	-10.9967
▁パラメータで	-10.997
ないよう	-10.9981
オー	-10.9986
;">[[	-10.9988
奥	-10.999
ていないので	-10.999
ため	-10.9994
ロー	-10.9997
▁mShared	-10.9997
▁both	-10.9999
ベン	-11
▁未定義の引数	-11.0011
いん	-11.0012
訳が	-11.0021
佐	-11.0041
▁show	-11.0042
ぬ	-11.0049
close	-11.006
=8	-11.0067
▁...	-11.0071
とう	-11.0073
IES	-11.008
▁"200	-11.0081
]]⇒[[	-11.0084
2|2001:	-11.0114
キャラクター	-11.013
郷	-11.0139
1976	-11.0142
2|94.1	-11.0156
98	-11.0162
私	-11.0162
▁d	-11.0169
ファ	-11.018
2|103.2	-11.0189
2|103.1	-11.0201
保	-11.0205
二次	-11.0206
2|196.	-11.0219
llback	-11.0221
シン	-11.0241
ささはら	-11.0253
].	-11.0264
mary	-11.0267
2|201.	-11.0278
_(1972	-11.0282
誠	-11.0284
半	-11.0285
頭	-11.0285
Rxy	-11.0289
アメリカ合衆国	-11.0289
削除の方針	-11.0291
皇后	-11.0296
トン	-11.0297
志	-11.0309
ると	-11.0311
けい	-11.0313
称	-11.032
れがあり	-11.032
面	-11.032
荘	-11.0321
シャ	-11.0321
波	-11.0322
テレビドラマ	-11.0324
コンパクト	-11.0324
パイプ文法	-11.0324
警告	-11.0324
ジェームズ	-11.0324
palegreen	-11.0324
※	-11.0324
年生の女優	-11.0324
ハインリヒ	-11.0324
boolean	-11.0324
▁banner	-11.0324
2|94.228.	-11.0324
*$')	-11.0324
▁小型タイプとの切り替え	-11.0325
ヘンリー	-11.0325
案内	-11.0325
commons	-11.0325
女	-11.0325
Create	-11.0326
▁called	-11.0328
_(1980	-11.0329
_(2005	-11.0345
getTitle	-11.0346
版	-11.0348
陽	-11.0348
argTables	-11.0349
秋	-11.0351
fontcolor	-11.0352
▁Do	-11.0353
wrappers	-11.0359
どの	-11.0362
}}]]	-11.0372
gg	-11.0375
_(1982	-11.0378
神奈川県	-11.0381
▁標準名前空間	-11.0385
77	-11.0389
部分は	-11.0394
に対応し	-11.0402
▁17	-11.0403
▁HS	-11.0405
歌手	-11.0429
ordered	-11.0429
ラクターとして扱われている場合と	-11.0431
近	-11.0439
_(2006	-11.0441
▁temp	-11.0442
|2009	-11.0451
呼び	-11.0456
rxy	-11.0456
|1	-11.0458
02:	-11.0463
_(1984	-11.0465
じょうそう	-11.0466
しんご	-11.0469
▁20-	-11.0474
do	-11.0478
根	-11.0479
技術	-11.0482
を満た	-11.0483
科	-11.0486
漢字	-11.0488
|}}}}}</	-11.0495
カー	-11.0505
▁{})	-11.0512
▁12	-11.0518
変更	-11.0533
利	-11.054
器	-11.054
しょうへい	-11.0543
期	-11.0556
完了し	-11.0557
▁220	-11.0562
機関	-11.057
フェ	-11.057
結	-11.0582
▁Template	-11.0587
文章で	-11.0598
宣	-11.0606
Main	-11.0611
-)	-11.0618
桜	-11.0622
対応	-11.0626
*(.	-11.0639
左	-11.0653
シティ	-11.0655
引数で	-11.0664
てい	-11.0689
ート	-11.0691
彦	-11.0692
TOC	-11.0693
ブルー	-11.0702
キリスト教	-11.0707
▁issue	-11.0724
_(1992	-11.0726
レッド	-11.0727
sw	-11.073
um	-11.0731
Z	-11.0732
岡	-11.0743
スタ	-11.0743
=]]'	-11.0744
▁en	-11.0746
referenced	-11.0755
are	-11.0757
ごう	-11.0762
デル	-11.0767
桂	-11.0774
レス	-11.0781
宝	-11.0788
オン	-11.0791
▁8	-11.0793
の両方	-11.0798
スター	-11.0802
華	-11.0804
▁needs	-11.0807
シングル	-11.0807
2|46.	-11.0809
;/	-11.081
マリ	-11.0811
沢	-11.0812
要	-11.0814
することができ	-11.0814
スタイル	-11.0818
満	-11.0819
▁元	-11.082
李	-11.0822
装	-11.0823
仁	-11.0824
Calculate	-11.0824
ン語	-11.0824
良質な記事	-11.0824
▁Return	-11.0824
Notice	-11.0825
ヨハン	-11.0825
testcasesEditUrl	-11.0825
利用案内	-11.0825
Default	-11.0825
March	-11.0825
▁brackets	-11.0825
Tomos	-11.0825
▁goes	-11.0825
で指定されたカテゴリ	-11.0826
せつ	-11.0826
admin	-11.0827
parts	-11.0829
ブラウン	-11.083
▁These	-11.0831
docLink	-11.0839
▁Make	-11.084
リーグ	-11.0842
井上	-11.0844
ダル	-11.0846
スト	-11.0849
『	-11.0851
▁returned	-11.0852
藤	-11.0858
Du	-11.0858
赤	-11.0866
章	-11.0869
そうち	-11.0872
マーク	-11.0874
_(196	-11.0879
▁2,	-11.089
▁versions	-11.0897
しかし	-11.0898
tch	-11.0905
ジュ	-11.0906
▁testcasesLinks	-11.0908
defined	-11.0911
▁row	-11.0915
2|177.3	-11.0927
パン	-11.0929
ニュース	-11.094
その他	-11.0943
全国	-11.0946
アンハルト	-11.0953
温泉	-11.0958
プロジェクト	-11.0959
it	-11.0959
▁';'	-11.096
▁diff	-11.0961
ロンドン	-11.0962
セント	-11.097
アイルランド	-11.0977
off	-11.0978
ずっ	-11.0979
朝	-11.0979
翻訳	-11.0988
▁select	-11.0999
2|123.	-11.1001
ジャ	-11.1008
03}}	-11.1013
昌	-11.1015
▁method	-11.1025
タイム	-11.1041
46	-11.1052
昭	-11.1057
_(9	-11.1064
▁align	-11.1066
を指定することができます	-11.1067
きょう	-11.1068
とな	-11.1072
_(17	-11.108
篠山	-11.1089
幸	-11.109
フラ	-11.1095
点	-11.1096
FC	-11.1103
▁root	-11.1104
放送	-11.1121
カン	-11.1121
ための	-11.1122
uk	-11.1122
]]|[[	-11.1146
』	-11.1147
ピ	-11.115
▁over	-11.1158
って	-11.1191
makeS	-11.1199
なので	-11.1202
合意に	-11.121
DataHeader	-11.1216
、20	-11.123
これ	-11.1233
該当する	-11.1233
_(10	-11.1234
でしょうか	-11.1234
空港	-11.1236
ion	-11.1236
業	-11.124
ツ	-11.124
ラー	-11.1251
rator	-11.1255
▁de	-11.1257
貼り付けられた	-11.1261
▁2005	-11.1263
しん	-11.1264
の代替文を	-11.1272
%;	-11.1273
▁obj	-11.1275
常磐	-11.1291
).	-11.1301
地方	-11.1308
2|91.21	-11.1312
43	-11.1316
選手	-11.1324
ドン	-11.1331
],	-11.1331
使うの	-11.1333
TH	-11.1342
助	-11.1343
制	-11.1344
moz	-11.1347
[[3	-11.1349
建	-11.135
記事または節に複数の	-11.135
天皇	-11.135
周波数	-11.1351
影響が特に大きいテンプレート	-11.1351
インターチェンジ	-11.1351
2|2400:	-11.1351
シトロエン	-11.1351
連携	-11.1351
office	-11.1351
共通	-11.1351
Tiyoringo	-11.1351
メインページ新着投票所	-11.1351
却	-11.1351
秀逸な画像	-11.1351
のかわからない	-11.1351
国際空港	-11.1351
semiindef	-11.1351
Experiment	-11.1351
▁squ	-11.1351
があるため	-11.1352
▁same	-11.1352
中継	-11.1353
You	-11.1353
printable	-11.1353
Small	-11.1354
個別に	-11.1354
subpageText	-11.1357
バー	-11.1357
がいつ	-11.1357
kit	-11.1358
_(2014	-11.136
tartBoxLinksData	-11.1362
▁al	-11.1366
▁boxes	-11.1367
可能です	-11.137
記事に	-11.1371
ない場合	-11.1371
_(1983	-11.1372
Edit	-11.1375
ク語	-11.1377
スタジアム	-11.1383
cated	-11.1385
ビー	-11.1389
('^	-11.1393
を含めて	-11.1393
食	-11.1402
医療	-11.1404
''']]||[[#	-11.1408
山本	-11.1408
乗	-11.1413
民	-11.1415
リア	-11.1417
sse	-11.1419
フィリップ	-11.1419
警察	-11.1423
大阪	-11.1426
=2	-11.1429
|154.66.246.	-11.1431
ックス	-11.1433
ジェ	-11.1434
写し	-11.1436
確認の	-11.1443
2|37.1	-11.1446
このパラメータを指定	-11.1446
testcasesLink	-11.1446
スーパー	-11.1453
士	-11.1454
パラメータが指定され	-11.1455
▁offset	-11.1456
告知	-11.1458
4%	-11.146
表示する	-11.147
makeWikilink	-11.1477
まち	-11.1489
▁textstyle	-11.149
同盟	-11.1504
cfgKey	-11.1506
秀逸な記事	-11.1506
sandboxPreload	-11.1507
tidyVal	-11.1507
horizontal	-11.1508
omargs	-11.1512
▁html	-11.1514
掃海艇	-11.1515
|20	-11.1515
Web	-11.1519
学院	-11.1521
している必要があります	-11.1525
印刷	-11.1535
Doc	-11.1541
2|181.48.	-11.1545
仕様	-11.1547
AC	-11.1559
分野別	-11.1566
料理	-11.157
▁create	-11.1575
単位	-11.1586
▁Fi	-11.1588
fargs	-11.1599
文化	-11.1602
CreateLink	-11.1605
教	-11.1607
で使われ	-11.161
福	-11.1611
ろん	-11.1612
accessdate	-11.1619
2016	-11.1619
ウィ	-11.1625
55	-11.1627
することで	-11.1636
いません	-11.1637
ategorisation	-11.1648
上記	-11.1653
吉田	-11.1678
医学	-11.1688
ラン	-11.1693
ミル	-11.1708
_(195	-11.1711
分割	-11.1714
}}}}</	-11.172
▁["	-11.1734
▁sandboxLink	-11.1753
書かれて	-11.176
▁{{!}}	-11.1763
入	-11.1776
社会	-11.1788
しんごう	-11.179
ハイ	-11.1807
のカテゴリが存在しない場合	-11.181
指摘	-11.1821
アー	-11.1824
}}}">{{	-11.183
政党	-11.1833
47	-11.185
年別分類	-11.1854
ost	-11.1856
93	-11.1862
ranswiki	-11.1865
米	-11.1866
っ	-11.1869
イル	-11.1872
仙	-11.1873
1993	-11.1878
ポケモン	-11.1889
建築	-11.1891
Object	-11.1894
ーズ	-11.1897
あるいは	-11.1901
羅	-11.1903
資	-11.1904
構	-11.1905
じゅうはち	-11.1905
計画	-11.1906
昇	-11.1906
喜	-11.1906
リチャード	-11.1906
年月が正しく指定されてい	-11.1906
に年月を指定すれば	-11.1906
年月別分類する場合の親カテゴリ名	-11.1906
Blank	-11.1906
Mappings	-11.1906
docPathLink	-11.1906
funcName	-11.1906
headingStyleText	-11.1906
ção	-11.1906
▁getMessageVal	-11.1906
▁mirrorPreload	-11.1906
linksId	-11.1906
▁mathematicians	-11.1906
Ш	-11.1906
а	-11.1906
б	-11.1906
л	-11.1906
н	-11.1906
о	-11.1906
▁mirrorLink	-11.1906
ウィキポータル	-11.1906
が分類対象	-11.1906
▁mirrorDisplay	-11.1906
isSubpage	-11.1906
▁viewLink	-11.1906
sandboxEditUrl	-11.1906
▁purgeLink	-11.1906
の解説ページを参照	-11.1906
内部リンク	-11.1906
CFG	-11.1906
▁categorisation	-11.1907
▁historyDisplay	-11.1907
historyUrl	-11.1907
を満たしていない虞がある	-11.1907
▁ugsub	-11.1907
を引き渡し	-11.1907
スミス	-11.1907
▁occurs	-11.1907
▁createDisplay	-11.1907
linksClass	-11.1907
角形	-11.1907
١	-11.1907
createUrl	-11.1908
purgeLinkDisplay	-11.1908
Yesno	-11.1908
JR	-11.1908
▁editDisplay	-11.1908
InvalidTypeError	-11.1909
viewLinkDisplay	-11.1909
editUrl	-11.1909
August	-11.1909
Information	-11.1909
sandboxEditLink	-11.1909
sandboxCreateUrl	-11.1911
▁sandboxDisplay	-11.1911
nion	-11.1914
subpagesLink	-11.1914
editLinkDisplay	-11.1914
accessmonth	-11.1915
printLink	-11.1916
equals	-11.1916
qux	-11.1918
ascading	-11.192
▁2)	-11.1923
▁through	-11.1924
オプションの	-11.1924
よりも	-11.1926
▁mus	-11.1927
▁たとえば	-11.193
testcasesPage	-11.1932
_(2003	-11.1934
などを	-11.1937
sandboxPage	-11.1943
せんい	-11.1944
に自動的に	-11.1945
|3	-11.195
アス	-11.1952
制度	-11.1956
ファー	-11.1956
▁Pri	-11.1959
tes	-11.1965
ラム	-11.1974
templatePage	-11.1981
ベルト	-11.1981
case	-11.1982
茂	-11.1986
nsname	-11.1986
基本的には	-11.1994
▁ndargs	-11.1995
このテンプレートを	-11.2006
user	-11.201
;&	-11.2012
testcasesDisplay	-11.2015
▁Japan	-11.2021
_(1964	-11.2026
加藤	-11.2033
ex	-11.2038
_(5	-11.2039
▁mainCat	-11.2042
なお	-11.2046
▁2012	-11.2052
する必要があり	-11.2053
を指定した場合は	-11.2054
ハン	-11.2056
ささの	-11.2059
以下	-11.2062
年の	-11.2064
するので	-11.2072
▁msg	-11.2072
年まで	-11.2075
きょうかい	-11.2075
明治	-11.2078
blacklist	-11.2083
集中	-11.2083
楽	-11.2084
愛知県	-11.2086
血	-11.2088
デー	-11.2092
▁13	-11.2094
▁envFunc	-11.2096
navbox	-11.2097
メクレンブルク	-11.21
ローマ	-11.2102
紀	-11.2102
アレクサンドル	-11.2103
じゅうろく	-11.2105
数を	-11.2106
カナダ	-11.2106
即時削除	-11.2113
モデル	-11.2121
を満たしていないおそれのある	-11.2123
雨	-11.2124
}}}|{{#	-11.2124
形式の年	-11.2126
死	-11.2127
フォー	-11.214
pt	-11.2146
▁[[14	-11.215
2|217.	-11.2152
運動	-11.2155
細	-11.2168
uri	-11.2174
トンネル	-11.2175
the	-11.2175
じんじゃ	-11.2178
スペイン	-11.2178
▁imageLeft	-11.2185
アウト	-11.2186
([[197	-11.2186
話	-11.2188
ミュージック	-11.219
マル	-11.2194
]',	-11.2194
的	-11.2197
▁imageleft	-11.2208
初	-11.2225
2|190.20	-11.2226
▁|20160124123	-11.2236
▁しんこう	-11.224
▁|2016012412340	-11.2248
ざ	-11.2252
]]}}|	-11.2257
}}}}}}}}}	-11.2262
渡辺	-11.2262
[[:	-11.2265
パリ	-11.2267
▁config	-11.227
my	-11.2279
;'	-11.2316
om	-11.232
▁omargs	-11.2322
▁sandboxPreload	-11.2326
▁cfgKey	-11.2326
沖地震	-11.2333
既定値は	-11.2336
同様の	-11.2339
12}}	-11.2346
整理が	-11.2347
基	-11.2351
集合	-11.2358
ヴィチ	-11.2363
泉	-11.2366
区切り	-11.2373
HAN	-11.2374
歴史	-11.2376
rg	-11.2381
独立	-11.2388
▁defaultKey	-11.2391
|}}}{{{	-11.2399
素	-11.2401
ne	-11.2401
でなければ	-11.2404
パー	-11.2419
者一覧	-11.2419
千年	-11.2425
ぼ	-11.2427
accessyear	-11.2437
ふく	-11.2442
タイトル	-11.2442
帝	-11.2452
:|{{	-11.2453
常に	-11.2453
竹	-11.2453
Collapsible	-11.2454
じゅうご	-11.2462
リング	-11.2466
娘	-11.2471
右	-11.2476
lated	-11.2481
makeStartBox	-11.2482
LinksData	-11.2482
>{{{1}}}</	-11.2484
雪	-11.2491
貴	-11.2492
景	-11.2494
在	-11.2494
バイエルン	-11.2494
尚	-11.2494
Contributions	-11.2494
善通寺	-11.2494
支障	-11.2494
Frame	-11.2494
警察署	-11.2495
▁between	-11.2495
▁necessary	-11.2495
かれっじ	-11.2495
代当主	-11.2495
孝	-11.2495
SUBJECTSPACE	-11.2495
ドルレアン	-11.2495
▁implement	-11.2495
2|217.29.2	-11.2495
師団	-11.2495
July	-11.2495
コモンズ	-11.2495
ヒッツ	-11.2495
優先	-11.2495
▁once	-11.2495
bodystyle	-11.2497
▁allowed	-11.2497
_(1996	-11.25
valueFunc	-11.2501
大橋	-11.2501
2|152.26.69.3	-11.2503
条件文	-11.2504
_(1965	-11.2505
_(1969	-11.2505
めい	-11.2507
_(1959	-11.251
ジャクソン	-11.2525
write	-11.2526
レー	-11.2536
ベル	-11.255
現在	-11.2557
_(1971	-11.256
国道	-11.2561
統合	-11.2561
剛	-11.2563
ハウス	-11.2569
こと	-11.2585
れている項目	-11.2586
別分類となり	-11.2601
しゅ	-11.2604
時代	-11.2608
over	-11.2608
純	-11.2626
いくつかの	-11.2635
indow	-11.2641
2|82.11	-11.2644
提出	-11.2646
-)⇒[[	-11.2647
池	-11.266
smalltext	-11.2665
みつ	-11.2667
▁カテゴリは	-11.2668
熊本県	-11.2679
translate	-11.2681
>:	-11.2691
オーストラリア	-11.2691
賢	-11.2692
特	-11.2697
しょうにん	-11.2707
2|212.1	-11.2707
十六	-11.2712
italic	-11.2715
中の	-11.2715
imagelink	-11.2717
backtranslate	-11.2717
normal	-11.2718
条	-11.2722
機構	-11.2722
config	-11.2722
也	-11.2724
2009	-11.274
なるものも	-11.2742
36.25	-11.2746
liststyle	-11.2751
アナウンサー	-11.2753
森	-11.2753
滝	-11.2754
開発	-11.2756
しょうでん	-11.2759
しょうてん	-11.2762
リトアニア	-11.277
空白	-11.2771
ルール	-11.2776
太陽	-11.2783
短期大学	-11.2785
福寺	-11.2803
II	-11.2809
ted	-11.2809
草	-11.281
韓国	-11.282
▁パラメータを指定	-11.2826
対処	-11.2827
日曜日	-11.2828
まだ	-11.2834
ば	-11.2839
親	-11.2841
倉	-11.2851
ゆき	-11.2852
CE	-11.2852
瀬	-11.2854
千葉県	-11.2858
テレビ番組	-11.2859
荒らしに	-11.2863
栄	-11.2874
エリア	-11.2882
+9	-11.2893
を指定すると	-11.2904
方が	-11.2907
シード	-11.2912
rr	-11.2912
サッカー	-11.2917
じょうもん	-11.293
越	-11.2942
▁fmargs	-11.2946
信号	-11.295
々	-11.2954
都	-11.2955
ササ	-11.2955
不	-11.2959
see	-11.296
妙	-11.2961
輪	-11.2964
([[198	-11.2978
ジー	-11.2987
▁include	-11.2991
るか	-11.2992
|¬	-11.2994
ヌ	-11.2995
_(1999	-11.2996
"]	-11.2996
大阪府	-11.3001
市立	-11.3007
だけで	-11.3033
▁URL	-11.3034
を指定せず	-11.3036
2|9	-11.3041
99}}	-11.3045
このカテゴリに	-11.3047
橋梁	-11.3054
-)【[[	-11.3055
順	-11.3064
▁User	-11.3079
bove	-11.3082
▁[[18	-11.3086
サイト	-11.3087
革命	-11.3091
主義	-11.3091
チーム	-11.3094
精	-11.3098
愛媛県	-11.3101
1963	-11.3102
一番	-11.3106
リンク先	-11.3107
連	-11.3112
達	-11.3113
極	-11.3116
兵	-11.3117
令	-11.3118
ナショナル	-11.3119
工業	-11.3119
塩	-11.3119
拳	-11.3119
EFDE	-11.312
実業家	-11.312
年生のバスケットボール選手	-11.312
週末	-11.312
センチュリー	-11.312
浮世絵師	-11.312
▁パラメータを使用する方法	-11.312
エリーザベト	-11.312
備考	-11.312
協定	-11.312
Sampo	-11.312
クリスティーナ	-11.312
調査	-11.312
秀逸な記事の選考	-11.312
構成	-11.312
October	-11.312
JST	-11.312
シャルル	-11.312
2|43.243.112.	-11.312
人口	-11.3121
年のゲーム	-11.3121
Start	-11.3127
の入力	-11.3128
_(1997	-11.3131
None	-11.3132
「<	-11.3133
_(1960	-11.3133
▁Info	-11.3143
_(1977	-11.3151
08.10	-11.3153
:{{{4|}}}|	-11.3156
_(2001	-11.3165
▁rating	-11.3165
▁deprecated	-11.3165
▁1985	-11.3177
小説家	-11.3178
>}}<!--	-11.3178
▁Ex	-11.3179
▁Web	-11.3187
▁1979	-11.3188
▁given	-11.3192
_(1994	-11.3195
にな	-11.3197
先	-11.3199
せんぼく	-11.3201
AGE	-11.3204
00.5	-11.3207
‎|	-11.3211
内部で	-11.3217
作品	-11.3217
2011	-11.3218
とか	-11.3219
分類	-11.322
に対する	-11.3221
国家	-11.3225
。)	-11.3225
ロック	-11.3226
廃	-11.323
福島県	-11.3233
ければ	-11.3236
で議論	-11.3238
an	-11.3238
ダー	-11.3238
証明	-11.3256
画像サイズ	-11.3257
▁space	-11.3259
諸語	-11.3265
▁were	-11.3271
▁input	-11.3272
([[196	-11.3272
2.177.	-11.3276
でないと	-11.3279
リン	-11.328
▁15	-11.3285
_(1967	-11.3305
--------	-11.3311
造	-11.3316
記事用	-11.3317
7.9	-11.3322
orpha	-11.3325
ユ	-11.333
王国	-11.3333
コード	-11.3337
感	-11.3344
ました	-11.3344
農	-11.3344
ティス	-11.3347
▁|2016012412342	-11.3355
官	-11.3356
11}}	-11.3358
木村	-11.3368
しゅうだん	-11.3369
96	-11.3371
宿	-11.3377
西洋	-11.3379
Western	-11.3382
53	-11.3382
boxTable	-11.3383
る場合は	-11.3388
書かれ	-11.3392
$',	-11.3399
浄	-11.3403
メキシコ	-11.3404
文学	-11.3406
沖縄	-11.3408
3.69.	-11.342
新聞	-11.3423
一郎	-11.3428
ヨーロッパ	-11.3429
▁|2016012412341	-11.344
しど	-11.3455
▁out	-11.3457
ノー	-11.3461
の画像	-11.3477
]]||[[	-11.3485
tit	-11.349
|{{{1}}}}}<!--	-11.3499
2>	-11.3502
▁usage	-11.3512
ことに	-11.3552
55:	-11.356
_-_	-11.3561
の日時	-11.358
Pleas	-11.3583
シャー	-11.3595
横浜市	-11.3605
青	-11.3605
かもしれません	-11.3607
属	-11.3612
read	-11.3617
バラ	-11.3621
([[199	-11.3624
ive	-11.3628
▁day	-11.3669
付	-11.367
ショウ	-11.3672
ウェ	-11.3673
ページを	-11.3677
げ	-11.3682
がくいん	-11.3684
君	-11.3686
源氏物語	-11.3687
dicat	-11.369
ヴィル	-11.3706
ーネ	-11.3709
泰	-11.3711
ゼ	-11.3711
ゾ	-11.3713
どじょう	-11.3715
張	-11.3715
▁nums	-11.3716
|28	-11.3718
字	-11.3725
山口	-11.3728
関	-11.3732
Templates	-11.3735
未	-11.3738
para	-11.3747
パラメータの一覧	-11.3757
ケア	-11.3758
砂	-11.3763
_(8	-11.3763
ひとつ	-11.3773
無期限	-11.3773
_(1939	-11.3774
港	-11.3778
京	-11.3778
銀行	-11.3781
具	-11.3782
貞	-11.3785
小児	-11.3785
善福寺	-11.3785
競馬	-11.3786
禅	-11.3786
岸	-11.3786
お知らせ用のテンプレート	-11.3786
繊維	-11.3786
マジックワード	-11.3786
魚	-11.3786
土壌	-11.3786
産業	-11.3786
2|216.237.246.	-11.3786
imageCellDiv	-11.3786
▁削除についての議論	-11.3786
括弧付き記事名の一覧	-11.3786
getParent	-11.3786
textCellSpan	-11.3786
▁deletion	-11.3786
ブルボン	-11.3786
ヘッセン	-11.3786
hide	-11.3786
フランツ	-11.3786
先天性	-11.3786
2|41.205.2	-11.3786
常楽寺	-11.3786
戦国武将	-11.3786
桁の数字	-11.3786
2|177.69.	-11.3786
ベスト	-11.3787
ウィキメディアプロジェクト	-11.3787
皇帝	-11.3787
まつり	-11.3787
大聖堂	-11.3787
志度	-11.3787
▁pattern	-11.3787
70	-11.3787
時点	-11.3788
_(1998	-11.3789
XHTML	-11.3789
十文字	-11.379
の登場人物	-11.379
just	-11.379
空白以外	-11.379
任意の文章	-11.3791
boxType	-11.3791
2|2001:12	-11.3793
_(2015	-11.3793
▁'">'	-11.3793
_(1995	-11.3796
ライヴ	-11.3805
:120%	-11.3806
▁1990	-11.381
sc	-11.3814
globe	-11.383
ボード	-11.3835
6.45.	-11.3837
試験	-11.3841
FOR	-11.3843
川村	-11.3844
名前空間を	-11.3846
葉	-11.3846
tual	-11.3852
パラメータを指定し	-11.3857
▁21-	-11.3858
選挙	-11.3862
42	-11.3867
Pe	-11.3869
に変換し	-11.3871
▁typeData	-11.388
常総	-11.3884
▁strings	-11.3889
200.	-11.3891
新しい記事	-11.3892
2|109.20	-11.3896
約	-11.3898
岳	-11.3911
んたい	-11.3911
クス	-11.3915
ぞう	-11.3915
-2008	-11.3919
2|193.	-11.3922
jp	-11.3934
▁なし	-11.3934
必要があります	-11.3935
2|94.7	-11.3939
▁titleObj	-11.3949
▁cfgValue	-11.395
のこと	-11.3963
_(16	-11.397
じん	-11.3973
▁catTitle	-11.3976
2|196.20	-11.3976
}{{{2}}}{{{3}}}	-11.3978
作	-11.3982
重慶	-11.3985
65.	-11.3989
issues	-11.4003
ている	-11.4005
基本	-11.4009
▁break	-11.4012
デヒドロゲナーゼ	-11.4029
▁使用例	-11.4032
きた	-11.4035
2|46.1	-11.4036
editsection	-11.404
▁talkTitle	-11.404
out	-11.4046
列車	-11.4049
しょうてい	-11.4051
listType	-11.4065
Common	-11.4068
仏	-11.4069
np	-11.4072
選択	-11.4076
北海道	-11.408
スクリュー	-11.4081
カップ	-11.4084
floor	-11.409
免責事項	-11.4093
チェ	-11.4094
collapsible	-11.4095
argKeys	-11.4096
example	-11.4096
1|{{{	-11.4096
Some	-11.4097
LOVE	-11.4097
ped	-11.41
な文章で	-11.4107
イングランド	-11.4108
サイズ	-11.4111
}}}}}}}}}}}}}}}}	-11.4114
=」	-11.4117
ロード	-11.4118
時計	-11.412
odd	-11.4121
の合意に	-11.4125
ですね	-11.4129
0.54	-11.4131
旅行	-11.4136
▁|201601241234	-11.4138
▁str	-11.4145
カード	-11.4146
_(12	-11.4153
・3	-11.4159
があれば	-11.4163
2|179.	-11.4166
視	-11.4172
プリ	-11.4183
の外観の	-11.419
templateCat	-11.4201
▁uri	-11.4205
加	-11.4207
ガイ	-11.4209
太田	-11.4212
シング	-11.4214
と呼び	-11.4214
▁pagetype	-11.4218
2008	-11.4225
imageleft	-11.4235
ならば	-11.4254
画像表示	-11.4256
プロ	-11.4261
groupstyle	-11.4262
六	-11.4265
ボー	-11.4266
架空	-11.4273
event	-11.4279
54	-11.4283
リオ	-11.429
▁pargs	-11.43
新潟県	-11.4306
過去ログ	-11.4306
▁matches	-11.4314
じゅ	-11.4315
6.10	-11.4315
熱	-11.4335
5.170	-11.434
ブロック	-11.4352
別サブページあり	-11.4359
▁margin	-11.4371
パイプ	-11.4372
did	-11.4372
間違え	-11.4373
やま	-11.4376
76	-11.4378
▁と	-11.4399
統一	-11.4413
超	-11.4417
の漫画	-11.4425
アラ	-11.4425
eadingFontWeight	-11.4432
図	-11.4432
左側の	-11.4434
91:1	-11.4439
動	-11.4444
角	-11.4447
TextFields	-11.4451
1975	-11.4452
酒	-11.4454
向	-11.4464
開	-11.4473
を追加した	-11.4476
ick	-11.448
使う	-11.4483
引	-11.4485
い説明	-11.4485
笑	-11.4493
XX	-11.4494
縄文	-11.4495
意で	-11.4496
状況	-11.4497
布	-11.4497
典	-11.4498
十八	-11.4499
出版社	-11.4499
存	-11.45
兵衛	-11.45
啓	-11.45
選手権	-11.45
もしくは	-11.45
美術	-11.45
装飾	-11.45
観点に偏っているかを指定すること	-11.45
silver	-11.45
画像関連のパラメータ	-11.45
雨季雨季	-11.45
構文による	-11.45
バイパス	-11.45
このテンプレートにまとめる前に既	-11.45
ビジネス	-11.45
揃	-11.45
さざなみ	-11.45
▁パラメータと色の対応	-11.45
レオポルト	-11.45
乗用車	-11.45
2|95.0.153.19	-11.45
Negative	-11.45
▁automatically	-11.45
のゲームタイトル一覧	-11.45
ロイヤル	-11.45
並べたときに	-11.45
年生の俳優	-11.45
劉	-11.4501
2|203.143.	-11.4501
2|169.255.	-11.4501
マジック	-11.4501
2|201.55.1	-11.4501
連絡先	-11.4501
症候群	-11.4501
のエピソード一覧	-11.4501
November	-11.4501
フェルディナント	-11.4501
▁crop	-11.4501
要素	-11.4501
既存のテンプレート	-11.4501
エルヴィス	-11.4501
都市計画	-11.4501
▁whitespace	-11.4501
:#000;	-11.4501
百科事典向け写真撮影のガイド	-11.4501
元素	-11.4501
時刻まで含め	-11.4501
アンリ	-11.4502
ウィリアムズ	-11.4502
ポール	-11.4502
▁画像を非表示にし	-11.4503
2|43.224.1	-11.4503
内戦	-11.4503
Sandbox	-11.4503
2|111.	-11.4503
:{{{5|}}}|	-11.4505
indent	-11.4505
Diff	-11.4505
light	-11.4505
ルイス	-11.4506
▁hours	-11.4508
大賞	-11.4508
▁rounded	-11.451
ロイス	-11.4513
2|187.10	-11.4513
38.99.	-11.4514
_(1949	-11.4515
_(1955	-11.4519
0.3	-11.4519
50%"	-11.452
は以下	-11.4523
49	-11.4524
レーダー	-11.4525
ライ	-11.453
どんな	-11.4531
▁days	-11.4532
abc	-11.4533
▁log	-11.4543
味	-11.4543
_(6	-11.4543
2|200.48.	-11.4545
▁を使う	-11.4547
▁nsTable	-11.4552
襲撃	-11.4554
労働	-11.4555
が含まれている	-11.4557
の形式で指定し	-11.4557
しとう	-11.4558
クロ	-11.4559
▁center	-11.4559
中括弧	-11.456
文章を	-11.4561
SP	-11.4566
知	-11.4569
ate	-11.4569
俊	-11.4574
">{{#	-11.4575
▁OF	-11.4581
▁|201	-11.4588
)%	-11.4594
:{{{1|}}}|	-11.4597
きます	-11.4599
ささい	-11.4601
こうえん	-11.4613
が適用され	-11.4615
templateError	-11.4615
ts	-11.4616
▁12:3	-11.462
▁rowspan	-11.462
画像指定	-11.4629
作戦	-11.4636
:80%;	-11.4637
DF	-11.4639
;"|	-11.464
bs	-11.4646
▁merge	-11.4646
andboxCreateLink	-11.4649
対	-11.465
2|94.	-11.4652
「{{	-11.4653
parent	-11.466
どうろ	-11.4661
塔	-11.4665
de	-11.4668
コミック	-11.4674
青春	-11.4677
少	-11.4682
コメント	-11.4683
年月別分類しない場合	-11.4683
笹山	-11.4683
ット	-11.469
89	-11.469
郎	-11.469
右側に	-11.4703
用します	-11.4707
]'	-11.4708
れば	-11.4712
str	-11.4716
}}|{{#	-11.4717
に配置する場合は	-11.4729
Test	-11.4733
かか	-11.4734
。「	-11.4735
清水	-11.4736
▁its	-11.4738
2|190.7	-11.4745
雑誌	-11.4746
しょうゆ	-11.4746
atchesBlacklist	-11.4761
}}}}}]]	-11.4761
しよう	-11.4777
▁whe	-11.4783
チャー	-11.4803
▁25	-11.4806
の多言語	-11.4812
次の	-11.4817
現	-11.4821
自由の	-11.4822
eo	-11.4824
CurrentTitle	-11.4825
got	-11.4826
使われ	-11.4827
スキー	-11.4833
主	-11.4836
智	-11.4845
ウィキプロジェクト	-11.4847
float	-11.485
2|95.1	-11.4859
metaArgs	-11.486
ホー	-11.4861
}}}}<!--	-11.4862
コロンビア	-11.4862
エジプト	-11.4863
オーストリア	-11.4866
カラ	-11.4871
ガン	-11.4871
注意点	-11.4872
全日本	-11.4878
を付け	-11.488
漢	-11.488
0:48	-11.488
----	-11.488
照明	-11.4889
▁パラメータには	-11.4889
isT	-11.4893
テンプレートを	-11.4898
大阪市	-11.4908
1981	-11.491
▁二	-11.4913
AT	-11.4915
この項目	-11.492
タイプ	-11.492
rintBlurb	-11.4921
ip	-11.4922
言葉	-11.4926
▁新しい記事	-11.4933
>{	-11.4936
ナー	-11.4947
*}}	-11.4951
年月を	-11.4952
▁西洋	-11.4953
バイ	-11.4965
地区	-11.4971
年から	-11.4973
▁2008}}	-11.4974
後に	-11.4977
アジア	-11.4978
として扱われている場合と	-11.4983
)]	-11.4983
法的	-11.5004
),	-11.5026
のであれば	-11.5038
▁18	-11.5039
spacing	-11.5042
ハー	-11.5048
せんねん	-11.5051
総	-11.5052
侵攻	-11.5054
さい	-11.5057
恵	-11.5071
|42	-11.5074
02}}	-11.5075
類	-11.508
の観点	-11.5083
Mi	-11.5085
役	-11.5087
百科事典	-11.5093
▁sc	-11.51
2|77.	-11.5105
]][[	-11.511
[2]	-11.5111
記入	-11.5114
早	-11.512
▁lists	-11.5127
浦	-11.5134
パラ	-11.5137
▁ひとつの	-11.5138
じゅうけい	-11.5144
ドル	-11.5145
8.254	-11.5146
されてい	-11.5154
帝国	-11.5155
2|212.	-11.516
かどうか	-11.517
検出	-11.5182
▁1986	-11.5189
002:6	-11.5189
えん	-11.519
連合	-11.519
湾	-11.5191
新しい画像	-11.5201
詳し	-11.5202
使用しない	-11.5207
受	-11.5211
|%	-11.5219
梁	-11.522
すべて	-11.522
走	-11.5225
政治	-11.5231
テンプレートは	-11.5234
りゅう	-11.524
▁|2016012412343	-11.524
したり	-11.5244
▁field	-11.5245
園	-11.5248
恋	-11.5248
霊	-11.5249
悪	-11.5253
容	-11.526
権	-11.5261
黄	-11.5265
職	-11.5266
支	-11.5267
英語	-11.5267
レビュー	-11.5268
多摩に暇人	-11.5268
杜	-11.5268
遊	-11.5268
香川県	-11.5268
盛	-11.5269
紙	-11.5269
羽	-11.5269
像	-11.5269
及び	-11.5269
静脈	-11.527
管理者伝言板	-11.527
アウグスト	-11.527
秀逸ピックアップ	-11.527
罪	-11.527
を認識できない場合	-11.527
ゲオルク	-11.527
日本のテレビアニメ	-11.527
2|110.164.15.15	-11.527
2|94.247.25.16	-11.527
Japanese	-11.527
PlayStation	-11.527
▁corresponding	-11.527
▁possible	-11.527
フランソワ	-11.527
このカテゴリにも分類	-11.527
包囲	-11.527
杯	-11.527
World	-11.527
▁案件別サブページあり	-11.527
Scribunto	-11.527
野球選手	-11.527
内閣	-11.527
営業	-11.527
重力	-11.527
優勝	-11.527
braceinside	-11.527
居	-11.527
スクウェア	-11.527
歴史学者	-11.527
楽団	-11.527
makeList	-11.527
カルロス	-11.527
サンデー	-11.527
ジョー	-11.527
&#91;	-11.527
グランド	-11.527
Love	-11.5271
じょうやく	-11.5271
のいずれかの形式で指定し	-11.5271
ピアノ協奏曲第	-11.5271
京都市	-11.5271
2|201.209.	-11.5271
ワイン	-11.5271
メインページお知らせ	-11.5271
2|41.22	-11.5272
ぜんつうじ	-11.5273
茨城県	-11.5274
BOT	-11.5277
付き	-11.528
▁1991	-11.528
.77.126	-11.5281
tbl	-11.5282
step	-11.5288
]]||||[[#	-11.5288
2|202.7	-11.5289
▁math	-11.5291
_(1968	-11.5292
▁HERE	-11.5293
▁categorised	-11.5294
2|203.202.24	-11.5295
タイプが	-11.53
87	-11.5303
}}|1}}	-11.5309
45.14	-11.5312
と同一の	-11.5314
▁mean	-11.5316
2|187.	-11.5322
博物館	-11.5324
旅団	-11.5328
sion	-11.5333
じょうばん	-11.5334
▁param	-11.5339
本線	-11.5342
デイ	-11.5345
ぞく	-11.5348
配置したい	-11.535
2|124.2	-11.5351
62.25	-11.5365
タウン	-11.5365
本体	-11.5367
質問	-11.537
浜	-11.5372
fontstyle	-11.5374
▁例外	-11.538
la	-11.538
パーク	-11.538
:10}}	-11.5382
きん	-11.5395
じゅうもんじ	-11.5395
センス	-11.5398
89}}	-11.5404
_(1954	-11.5406
というのは	-11.5407
交響曲	-11.5411
wo	-11.5412
da	-11.5414
2|183.2	-11.5421
の例	-11.5421
▁1989	-11.5422
千本	-11.5424
_(194	-11.5427
エンジン	-11.5429
ですか	-11.5432
|}}}<!--	-11.5433
レット	-11.5438
▁1984	-11.5438
-------	-11.5446
神戸市	-11.5451
としては	-11.5455
シェル	-11.5455
戸島	-11.546
うん	-11.5461
2|181.	-11.5463
機能し	-11.547
ErrorCategory	-11.5474
ささがわ	-11.5475
2|92.5	-11.5478
図書	-11.5486
撃	-11.5487
しゅうはすう	-11.5488
>]]	-11.549
▁define	-11.5492
KS	-11.5492
▁'/	-11.5495
4.82	-11.5497
枝	-11.5505
の色	-11.5505
7.192.	-11.5511
それぞれの	-11.5522
を避ける	-11.5524
リバート	-11.5525
リュ	-11.5534
2|95.	-11.5551
プレインテ	-11.5555
▁Not	-11.5559
浩	-11.5562
様	-11.5565
1973	-11.557
▁smallimageright	-11.5572
2|181.143.	-11.5574
メンテナンス	-11.5575
クロアチア	-11.5576
このように	-11.5578
対策	-11.558
CA	-11.5582
▁File	-11.5593
民主党	-11.5602
2|91.18	-11.5607
ゴー	-11.5617
シドニーオリンピック	-11.5618
prefix	-11.562
ポータル	-11.562
78	-11.5621
ング	-11.563
ぜんえい	-11.5631
リス	-11.5631
2|103.4	-11.5631
クリス	-11.5631
スクリプトという呼	-11.5638
になる	-11.5639
▁cols	-11.5641
お知らせテンプレート	-11.5642
カテゴリが存在しない場合	-11.5642
▁r	-11.5642
ないのであれば	-11.5654
コピー	-11.5654
横	-11.5658
前に	-11.5665
山田	-11.5673
てつどう	-11.5675
alpha	-11.568
富山県	-11.5684
じゆうみんしゅとう	-11.5684
:|5|{{{1}}}}}	-11.5685
logo	-11.569
服飾	-11.5691
height	-11.5693
アイスランド	-11.5694
▁To	-11.5696
imageLeft	-11.5696
talkText	-11.5698
EasterData	-11.57
メディア	-11.5701
zh	-11.5701
北部	-11.5703
2|200	-11.5708
アフリカ	-11.5711
81	-11.5711
ジャパン	-11.5717
77.2	-11.5723
アドルフ	-11.5724
▁collapsible	-11.5726
info	-11.5726
]](=-	-11.5731
楽器	-11.5731
おお	-11.5733
アリス	-11.5735
じゆうの	-11.574
ise	-11.574
2|191.	-11.574
sort	-11.5741
valid	-11.5743
mini	-11.5745
百	-11.5754
5.124	-11.5762
_(14	-11.5762
▁file	-11.5766
}}.	-11.5771
文章であ	-11.5775
Param	-11.5776
樹	-11.5783
すけ	-11.5784
しょうい	-11.5787
アップ	-11.5796
ロール	-11.5801
2030	-11.5802
jo	-11.5805
日本の	-11.5806
エラ	-11.5807
▁[[10	-11.5812
)。	-11.5817
富	-11.5817
▁So	-11.5819
亮	-11.5831
ute	-11.5831
せんの	-11.5832
ライン	-11.5833
同	-11.5835
とおり	-11.5836
ランド	-11.584
2|202.166.	-11.5843
88	-11.5855
.)	-11.5863
れい	-11.5879
2|6	-11.5883
強	-11.5884
▁allow	-11.5902
神戸	-11.5908
田村	-11.5911
選	-11.5915
議会	-11.592
▁la	-11.5939
7.19	-11.5965
ar	-11.5967
91	-11.5971
意な	-11.5972
9.18	-11.5974
夢	-11.5976
▁2014	-11.598
ロン	-11.5981
atch	-11.5982
▁$	-11.5985
ヴァン	-11.5992
来	-11.5994
".	-11.6002
和田	-11.6009
鎮	-11.6013
atsu	-11.6036
との間の	-11.6036
▁them	-11.6039
ディー	-11.6045
Q	-11.6048
2.3	-11.6055
間違い	-11.6056
▁g	-11.606
無し	-11.6065
ハノー	-11.6069
静	-11.6072
▁24	-11.6078
ハラ	-11.608
せんすい	-11.608
品	-11.6083
博	-11.6085
フィ	-11.6087
▁節	-11.6087
を入れる	-11.6089
▁man	-11.6089
▁plainlinks	-11.609
宗教	-11.6091
かく	-11.6094
いいんかい	-11.6095
2|103.3	-11.6095
2|204.1	-11.6095
源	-11.6095
能	-11.6098
Nav	-11.6098
臣	-11.6098
観	-11.6098
沙	-11.6099
商	-11.6099
グランプリ	-11.61
▁remove	-11.61
格	-11.6101
専	-11.6101
レダクターゼ	-11.6101
ラヴ	-11.6102
税	-11.6102
輝	-11.6102
ヴァイオリン協奏曲	-11.6102
情	-11.6102
康	-11.6102
弁	-11.6102
連邦	-11.6102
Taisyo	-11.6102
ミュージシャン	-11.6102
領	-11.6102
射	-11.6103
離	-11.6103
添	-11.6103
財団	-11.6103
▁wrap	-11.6103
会社	-11.6103
月に繰り上が	-11.6103
陳	-11.6103
翻訳中途	-11.6103
細胞	-11.6103
国際連合安全保障理事会	-11.6103
または何も指定されない場合	-11.6103
作曲家	-11.6103
第二次世界大戦	-11.6103
紀元前	-11.6103
2|101.254.140.17	-11.6103
2|183.111.169.20	-11.6103
=56780	-11.6103
mainNsName	-11.6103
▁argTableVal	-11.6103
骨	-11.6103
2|41.161.	-11.6103
Kanjy	-11.6103
▁assume	-11.6103
アラビア語	-11.6103
)|200901}}	-11.6103
Genppy	-11.6103
アレクサンダー	-11.6103
労働組合	-11.6103
Kkkdc	-11.6103
luaArgs	-11.6103
serious	-11.6103
ビッグ	-11.6103
真言宗	-11.6103
▁alignment	-11.6103
戦闘機	-11.6103
縮小版	-11.6103
UBX	-11.6103
自動車大学校	-11.6103
映画監督	-11.6103
ジョーンズ	-11.6103
からリンクする	-11.6103
ニューヨーク	-11.6103
Clear	-11.6103
高麗	-11.6103
2|64.20.	-11.6103
▁interpret	-11.6103
56.28.1	-11.6104
が終了する	-11.6104
春分	-11.6104
mappingsKey	-11.6104
2|177.128.19	-11.6104
せんせい	-11.6104
武蔵	-11.6104
文化財	-11.6104
▁purposes	-11.6104
▁substituted	-11.6104
BEST	-11.6104
保護依頼	-11.6105
を意図し	-11.6105
を除く	-11.6105
▁suppressed	-11.6105
報道	-11.6106
Code	-11.6106
numParam	-11.6108
▁メッセージの一覧	-11.6108
smallParam	-11.6109
Nil	-11.6109
▁expect	-11.6111
▁{{!}}}	-11.6112
画像の表示	-11.6112
さくら	-11.6113
xhop	-11.6114
一度	-11.6115
Nums	-11.6115
は可能だ	-11.6118
''']]||[[	-11.612
_(1958	-11.612
▁into	-11.612
しないこと	-11.6123
66	-11.6123
スワフ	-11.6123
_(1941	-11.6125
の文字が使用されている	-11.6129
How	-11.613
▁fields	-11.613
▁allows	-11.6131
_(1937	-11.6135
_(1933	-11.6138
の人物	-11.614
▁1988	-11.6141
連続	-11.6145
}}}||<	-11.6148
50.98	-11.6148
2|78.	-11.615
2|186.89.	-11.6152
に付	-11.6152
テンプレート名を指定し	-11.6153
ラヴェル	-11.6157
▁includes	-11.6159
_〜	-11.6161
ation	-11.6162
を含む	-11.6163
7:2	-11.6163
除き	-11.6164
▁firstDig	-11.6164
とうげ	-11.6165
英語版では	-11.6167
法人	-11.6169
〜」	-11.6172
しゅうせい	-11.6172
シート	-11.6173
の方針	-11.6174
絵	-11.6174
190.205	-11.6174
attrs	-11.6176
けいさつ	-11.6181
入力して	-11.6184
▁order	-11.6184
abl	-11.6185
伯	-11.6189
ezo	-11.619
may	-11.6191
変	-11.6192
潜水	-11.6195
時刻として解釈され	-11.6198
使用方法	-11.6201
_(11	-11.6203
clude	-11.6203
ていない場合は	-11.6204
年以降	-11.6204
▁won	-11.6213
ご確認	-11.6216
▁9	-11.6217
斎藤	-11.6219
に設定	-11.6221
川橋梁	-11.6224
▁lower	-11.6229
がん	-11.6233
対応している	-11.6238
"|{{	-11.624
少年	-11.6242
大会	-11.6243
▁fac	-11.6243
レーベル	-11.6247
-2011	-11.6257
の仕様	-11.6262
調	-11.6267
フェア	-11.6271
▁')',	-11.6273
、1	-11.6275
宮本	-11.6279
▁pagename	-11.6281
住民	-11.6285
の中の	-11.6288
タイ	-11.6291
にある	-11.6292
ロス	-11.6292
2|118.97.	-11.6295
横浜	-11.6299
not	-11.6304
▁allCat	-11.6305
▁found	-11.6308
7.50	-11.6308
少女	-11.6311
emplatePage	-11.6313
▁MediaWiki	-11.6315
Links	-11.6316
を変更すると	-11.6317
の議論	-11.6319
フォード	-11.6321
2|193.2	-11.6321
138	-11.6322
2|154.	-11.6326
ーン	-11.6331
エン	-11.6334
datanum	-11.6336
影	-11.6336
fulldate	-11.6338
反	-11.634
たか	-11.6343
▁put	-11.6343
▁56	-11.6344
工	-11.6347
ライフ	-11.6348
言語間リンク	-11.6351
だい	-11.6352
以外では	-11.6353
▁As	-11.6353
▁colspan	-11.6353
せんもん	-11.6356
アップル	-11.6365
2|1.179.19	-11.6368
これらの	-11.6369
せんてんせい	-11.6375
ko	-11.6382
出します	-11.6385
▁pageObject	-11.6387
2|186.	-11.639
▁%	-11.6393
▁35	-11.6395
......	-11.6395
シュタット	-11.6397
ついて	-11.6398
直樹	-11.64
りますが	-11.6404
生物	-11.6405
ビン	-11.6408
0.222	-11.6408
値に	-11.641
た場合など	-11.6411
庄	-11.6411
きも	-11.6412
.194	-11.6414
松本	-11.6414
の日付は	-11.6425
}}}}}}}}」	-11.6426
ドラ	-11.6427
CreateUrl	-11.643
産	-11.6431
'''''	-11.6436
1.3	-11.6439
▁bold	-11.644
裕	-11.6441
エス	-11.6448
書式	-11.6448
▁4	-11.6462
am	-11.6473
([[186	-11.6479
よく	-11.6483
ita	-11.6484
じょうすい	-11.6489
岡田	-11.6489
icit	-11.6491
|{{{1}}}-1}}	-11.6496
名を指定	-11.6497
競走馬	-11.65
ac	-11.6507
ありがとうございます	-11.6509
理	-11.6514
99	-11.6514
mis	-11.6517
非	-11.6518
したページ	-11.6524
読み	-11.6524
つつ	-11.6531
私は	-11.6533
方針	-11.6536
1.19	-11.6552
シア	-11.6555
昭和	-11.6557
▁wa	-11.6564
静岡県	-11.6566
イスト	-11.657
ぶつ	-11.6571
物理学	-11.6576
ウクライナ	-11.6578
li	-11.6579
古墳	-11.6579
export	-11.658
イー	-11.6581
ささや	-11.6582
▁float	-11.6583
レン	-11.6588
モニター	-11.6589
ウィーン	-11.6589
猫	-11.6596
cause	-11.6596
炎	-11.6596
ラグビー	-11.6596
ウェールズ	-11.6596
焼	-11.6596
ショー	-11.6597
モスクワ	-11.6598
ーゼ	-11.6598
オランダ	-11.6599
トム	-11.6599
省略	-11.66
柳	-11.6602
editLink	-11.6604
find	-11.6606
baz	-11.6607
like	-11.6608
_(1944	-11.661
cols	-11.6619
trim	-11.6623
存続	-11.663
▁Sta	-11.6631
▁Easter	-11.6643
Cascad	-11.6649
▁old	-11.6651
のみを	-11.6668
7.42.	-11.6671
たち	-11.6676
あと	-11.6678
('''	-11.668
|1={{	-11.6683
遺跡	-11.6684
ジャー	-11.6687
フル	-11.6692
で直接	-11.6698
校	-11.6699
▁/>{{	-11.6703
ant	-11.6705
1",	-11.671
2.5	-11.6713
ロボット	-11.6715
▁S	-11.6715
▁st	-11.6718
equi	-11.6727
2|103.23	-11.6727
ヤン	-11.6727
LA	-11.6728
の問題	-11.6733
ses	-11.6735
even	-11.6739
ua	-11.674
tical	-11.6748
じゅうよう	-11.6752
意見	-11.6756
2|190.206.2	-11.6763
ren	-11.6764
列	-11.6765
2|109.23	-11.6766
形式のカテゴリ	-11.6769
日本語	-11.6771
194	-11.6772
わらず	-11.6775
刻として解釈することができるとき	-11.6785
2|185.	-11.6788
‎	-11.6788
削除の	-11.6789
int	-11.6791
go	-11.6793
定できる	-11.6794
秋田県	-11.6803
▁21	-11.6806
9.	-11.6812
▁ordered	-11.6813
カテゴリを年	-11.6818
▁ノート	-11.6819
自動的に	-11.6822
ちゅう	-11.6824
ナイト	-11.6828
ec	-11.6828
29.24	-11.683
じゅうりょく	-11.6833
栃木県	-11.6836
秋分	-11.684
ゆう	-11.6843
研究	-11.6843
案	-11.6854
▁Main	-11.6854
ch	-11.6859
出力	-11.6862
○○	-11.6866
2|195.	-11.6875
_(1915	-11.6877
asel	-11.6882
}}}}}}<	-11.6882
乱	-11.6886
あい	-11.689
2|177.22	-11.6893
名前空間用	-11.6895
nt	-11.6903
ミン	-11.6906
▁ア	-11.6909
▁-->}}	-11.6909
守	-11.6916
量に	-11.6917
洋	-11.692
ないでください	-11.692
ガンダム	-11.6922
きゅう	-11.6923
▁expl	-11.6941
ることを	-11.6942
2|88.1	-11.6945
241	-11.6946
姫	-11.6952
2.	-11.696
80	-11.6966
中で	-11.6967
6.246	-11.6971
宣言	-11.6971
数値	-11.6979
一定	-11.6982
尾	-11.699
歳	-11.6993
だと思います	-11.6993
宇宙	-11.6996
_(7	-11.6996
立春	-11.6997
両	-11.6998
XXX	-11.7
=4	-11.7003
輔	-11.7003
しょうおう	-11.7003
|2004	-11.7007
獣	-11.7009
サイ	-11.7009
交	-11.7009
1,	-11.701
室	-11.701
交通	-11.701
旭	-11.701
翔	-11.701
店	-11.7011
照	-11.7011
ピアノ協奏曲	-11.7011
スタブ	-11.7011
帯	-11.7011
復	-11.7011
弾	-11.7011
霧	-11.7012
▁defaultdate	-11.7012
則	-11.7012
干渉	-11.7012
礼	-11.7012
印刷時にも	-11.7012
wikimedia	-11.7012
&#124;{{#	-11.7012
絶	-11.7012
前衛	-11.7012
集英社	-11.7012
私立学校	-11.7012
▁View	-11.7012
の日付が指定された場合は	-11.7012
ブルゴーニュ	-11.7012
アソシエーション	-11.7012
クーデター	-11.7012
上毛電気鉄道	-11.7012
仮面ライダー	-11.7012
縮小	-11.7012
醤油	-11.7012
鳳	-11.7012
2|112.25.25.18	-11.7012
SINGLES	-11.7012
フェルナンド	-11.7012
月間新記事賞	-11.7012
棋士	-11.7012
ウィレム	-11.7012
都市対抗野球大会	-11.7012
▁directly	-11.7012
オペラ	-11.7012
ヒャルト	-11.7012
▁moment	-11.7012
ビジュアルエディター	-11.7012
:80%">(→[[	-11.7012
テイラー	-11.7012
傷	-11.7012
自動車検査	-11.7012
改造	-11.7012
▁Copy	-11.7012
決議	-11.7012
憲法	-11.7012
block	-11.7012
アンジェラ	-11.7012
必要であれば	-11.7012
THIS	-11.7012
ユダヤ教	-11.7012
empty	-11.7012
フィールド	-11.7012
▁&#32;<	-11.7012
ヨーゼフ	-11.7012
}}|20<!--	-11.7013
航空機	-11.7013
ナウ	-11.7013
パリ条約	-11.7013
&#93;	-11.7013
法学者	-11.7013
including	-11.7013
▁depending	-11.7013
限定	-11.7013
ホテル	-11.7013
jin	-11.7013
佐々木	-11.7014
方針とガイドライン	-11.7014
Time	-11.7014
TOM	-11.7014
スクランブル	-11.7015
▁1=''	-11.7015
2|200.192.2	-11.7016
.114	-11.7018
意識	-11.7018
電車	-11.7019
ドイツ語	-11.7019
aliases	-11.702
親カテゴリ名	-11.702
何か	-11.7021
xxxx	-11.7023
日本陸軍	-11.7023
は印刷時	-11.7023
▁more	-11.7027
設定	-11.7028
_(1948	-11.7028
作家	-11.7029
2|213.8	-11.7029
>{{{2}}}</	-11.7029
:[[	-11.703
2|46.105.152.8	-11.7031
のでしょうか	-11.7033
!}}</	-11.7035
_(1920	-11.7036
のボックスに表示	-11.7038
加して	-11.704
十郎	-11.7041
▁sandboxes	-11.7043
斉藤	-11.7044
?--[[	-11.7047
ヴェ	-11.7047
ょうしゃ	-11.705
path	-11.7053
毎月	-11.7054
阿部	-11.7055
▁how	-11.7058
▁1978	-11.706
▁1980	-11.706
dmbox	-11.706
イング	-11.7068
月のサブ	-11.7073
na	-11.7073
31.20	-11.7076
日本軍	-11.7077
せんすいかん	-11.7082
2|78.13	-11.7083
船員	-11.7084
48.13	-11.7086
▁基本的な	-11.7091
反映され	-11.7095
ine	-11.7099
ハート	-11.7104
が指定された場合	-11.7109
経済	-11.7111
asbox	-11.7112
野球	-11.7115
2|180.1	-11.7116
も含まれ	-11.7119
▁小田急	-11.712
2|82.19	-11.7124
取	-11.7124
▁0')	-11.7128
Remove	-11.713
PLE	-11.7131
:{{{3|}}}	-11.7135
マイク	-11.7137
2|202.5	-11.7142
びじねす	-11.7145
5.199	-11.7145
0,	-11.7147
昌平	-11.7151
変更する	-11.7155
検索	-11.7159
ネット	-11.7168
そのような	-11.7175
spaceCategories	-11.7177
山梨県	-11.7178
ag	-11.7188
2|88.	-11.719
を検	-11.7191
石井	-11.7192
チョ	-11.7193
ning	-11.7194
▁At	-11.7195
淳	-11.7195
▁origArgs	-11.7198
▁Language	-11.7199
ささくら	-11.7199
ter	-11.7199
:3	-11.7203
▁2003	-11.7204
自	-11.7208
メル	-11.7209
フィク	-11.7213
▁[[15	-11.7216
2|125.209.9	-11.7222
9:0:0:0:	-11.7224
up	-11.7225
|}}}|{{	-11.7227
0.186	-11.7234
My	-11.7237
▁overflow	-11.7239
▁カテゴリと言語間リンクは	-11.724
指定された場合	-11.7247
00}}	-11.725
としょかん	-11.7259
▁ver	-11.7263
カテゴライズを行	-11.7263
2|92.	-11.7264
------	-11.7268
んきょく	-11.7269
しゅうごう	-11.7275
だいがく	-11.7276
>&	-11.7286
五郎	-11.7287
ピーター	-11.7293
ブラン	-11.7296
:23	-11.7296
を変え	-11.7297
の差分	-11.73
うのも	-11.7315
じゅうそう	-11.7316
言	-11.732
1.170	-11.7332
年月が記入され	-11.7339
をまとめ	-11.734
の末尾	-11.7342
エア	-11.7344
多く	-11.735
▁{{{49	-11.7355
ものは	-11.7358
▁{{{28	-11.7374
テロ	-11.7376
ぎょう	-11.7377
▁mt	-11.7377
シェ	-11.7379
▁{{{29	-11.7385
んじ	-11.7393
ー語	-11.7394
▁mak	-11.7394
群	-11.7397
城山	-11.7398
ラブ	-11.7403
ルーム	-11.741
フッ	-11.7411
▁{{{27	-11.7414
>''	-11.742
▁trim	-11.7421
正常に	-11.7431
ギリシャ	-11.7431
天体	-11.7433
}}};	-11.7434
2|12	-11.7435
65	-11.7436
▁{{{47	-11.7439
私も	-11.7442
_(4	-11.7448
▁PAGE	-11.7452
110	-11.7453
通信	-11.7458
アナ	-11.7469
ゆうし	-11.7469
▁cause	-11.748
▁{{{26	-11.7483
2|11	-11.7486
2|190.121.1	-11.7487
色と	-11.7487
mk	-11.7491
250	-11.7493
{{{1|	-11.7494
オール	-11.7496
されていません	-11.75
||	-11.7501
塚	-11.7504
つき	-11.7506
$1	-11.7516
晋	-11.7517
現在の	-11.7518
▁{{{46	-11.752
▁{{{48	-11.7522
ワン	-11.7528
用意されてい	-11.7538
▁こう	-11.7538
CURRENTMONTH	-11.7538
ユニット	-11.7538
フォ	-11.7539
1.168.	-11.754
edi	-11.7542
createLink	-11.7543
1011	-11.7545
▁{{{39	-11.7548
海軍	-11.7551
makeUrlLink	-11.7551
柔道	-11.7555
リヒテンシュタイン	-11.756
方言	-11.7563
](	-11.7569
キャラ	-11.7569
ノン	-11.757
正教会	-11.7575
キン肉マン	-11.7575
しゅぎ	-11.7577
アド	-11.7577
ジン	-11.7577
斉	-11.7577
歌舞伎	-11.7579
ul	-11.7579
松本市	-11.758
0.35.2	-11.758
body	-11.7581
新潟市	-11.7584
defaultKey	-11.7593
アメリカン	-11.7595
child	-11.7596
-2016	-11.7599
▁{{{45	-11.76
vals	-11.7602
クリ	-11.761
科学	-11.7616
テンプレート名	-11.7616
hand	-11.7617
83.82.	-11.7617
ささめ	-11.7617
ギター	-11.762
ヘッダ	-11.7621
▁normal	-11.7636
5.34	-11.7643
山口県	-11.7646
アクセス	-11.7649
▁}}{{#	-11.765
じょうみゃく	-11.7652
').	-11.7653
くん	-11.7654
イド	-11.7658
items	-11.7666
/><	-11.7666
TO	-11.7672
ルー	-11.7679
il	-11.7685
|}}}"	-11.7689
_(18	-11.7692
ma	-11.7696
used	-11.7698
ヴァル	-11.7698
▁2002	-11.7698
ソートキーで	-11.7703
消	-11.7709
1931	-11.7709
劇場	-11.7711
:95%;	-11.7713
:78	-11.772
ティー	-11.7722
形式の	-11.7723
.172	-11.7727
▁を	-11.7733
塚古墳	-11.7737
2|52.5.	-11.7744
2|177.7	-11.7747
この引数で	-11.7751
▁{{{38	-11.7752
▁index	-11.7752
.253	-11.7753
▁|2	-11.7756
伝説	-11.7766
Books	-11.7767
}}}}}}}	-11.7774
この引数	-11.7775
▁|<!--	-11.7775
デビ	-11.7777
のため	-11.7777
▁{{{37	-11.7783
2|101.	-11.7783
問題点があ	-11.7784
ersion	-11.7787
_(13	-11.7787
じょうい	-11.7789
何	-11.7793
derStartBoxLinks	-11.7795
な文章	-11.7803
リル	-11.7807
任意	-11.7816
ありがとうございました	-11.7818
保存	-11.7822
ネー	-11.7825
除去	-11.7828
をそのまま	-11.7831
津	-11.7833
14.13	-11.784
カタ	-11.7841
用途	-11.7846
''')	-11.7849
6.34	-11.7849
2|83.2	-11.7852
顕	-11.7855
28.11	-11.7855
イズ	-11.7857
物質	-11.7862
▁onlyarticles	-11.7874
動物	-11.7874
|{{{3|}}}}}	-11.7876
150	-11.7883
明して	-11.7885
▁{{{32	-11.7887
沼	-11.7887
▁{{{43	-11.7889
説明文	-11.7892
ーム	-11.7892
{{{2}}}{{{3}}}	-11.7894
▁{{{34	-11.792
始	-11.7922
1=	-11.7922
9.1	-11.7925
▁{{{44	-11.7925
ボルボ	-11.7927
▁see	-11.7928
To	-11.7937
試	-11.794
に関しては	-11.7943
しき	-11.7945
統	-11.7946
奈	-11.7949
:0;	-11.7949
やく	-11.7955
rp	-11.7955
NS	-11.7957
トリ	-11.7959
100%	-11.7961
銃	-11.7961
2|82.	-11.7963
終末	-11.7963
Key	-11.7963
ぜんぶ	-11.7969
一致	-11.797
に関する議論	-11.7972
▁array	-11.7986
月曜日	-11.7986
ジャック	-11.7987
mapping	-11.7988
環	-11.7989
鶴	-11.7989
:|7|{{{	-11.7993
収	-11.7998
好	-11.7999
まず	-11.8
ロット	-11.8001
}}}}}|{{{	-11.8001
その後	-11.8002
インドネシア	-11.8007
▁suppress	-11.8008
メール	-11.8008
開催	-11.8008
衣	-11.8008
3.114	-11.8008
▁cau	-11.8008
池田	-11.8009
板	-11.8009
任	-11.8009
慶	-11.8009
命	-11.8009
鉱	-11.801
([[192	-11.801
リュクサンブール	-11.8011
季	-11.8011
朝倉	-11.8011
宏	-11.8011
裁判	-11.8011
右衛門	-11.8011
_(1945	-11.8011
REDIRECT	-11.8011
選考	-11.8012
生物学	-11.8012
よろしくお願い	-11.8012
も含めて	-11.8012
ハイフン	-11.8012
房	-11.8012
飛行	-11.8012
有効です	-11.8012
繁	-11.8012
嘉	-11.8012
貝	-11.8012
国際ケア機構	-11.8012
センチメンタル	-11.8012
2|190.82.9	-11.8012
障	-11.8012
2|185.58.22	-11.8012
サヴォイア	-11.8012
シュトラウス	-11.8012
嶺	-11.8012
勇	-11.8012
([1-9][0-9]*)	-11.8012
2|110.164.15.18	-11.8012
invariant	-11.8012
お笑いコンビ	-11.8012
アルフォンソ	-11.8012
クルアーン	-11.8012
前奏曲	-11.8012
尊	-11.8012
年生のアメリカンフットボール選手	-11.8012
最後の晩餐	-11.8012
爆弾	-11.8012
mprov	-11.8012
イラストレーター	-11.8012
全米オープン	-11.8012
鏡	-11.8012
2|58.96.18	-11.8012
="100%"	-11.8012
実験	-11.8012
彗星	-11.8012
露土戦争	-11.8012
2|45.32.1	-11.8012
Kadzuwo	-11.8012
現在使われていない	-11.8012
脳	-11.8012
▁($3)	-11.8012
ロサンゼルス	-11.8012
厚	-11.8012
欽ちゃん	-11.8012
Goki	-11.8012
▁fmtLink	-11.8012
ダグラス	-11.8012
マーティン	-11.8012
2|182.253.123.2	-11.8012
ピクセル	-11.8012
6.93.204	-11.8012
暴力団	-11.8012
Build	-11.8012
▁nsDetect	-11.8012
クリスマス	-11.8012
オハイオ州	-11.8012
モーニング	-11.8012
政策	-11.8012
国民議会	-11.8012
ガール	-11.8012
偏っている	-11.8012
進歩	-11.8012
redirect	-11.8012
貼り付けられたページに	-11.8012
▁&#124;	-11.8012
見た目	-11.8012
キングダム	-11.8013
桁変換	-11.8013
メアリー	-11.8013
ローリング	-11.8013
2|202.79.	-11.8013
旗本	-11.8013
に関わらず	-11.8013
系統	-11.8013
名を入力	-11.8013
カテゴリを適用	-11.8013
があった場合の	-11.8013
SISTER	-11.8013
Wikimedia	-11.8013
ジョンソン	-11.8013
アメリカ合衆国の歴史	-11.8013
220.145.19.193	-11.8013
Effect	-11.8013
hard	-11.8013
歴史書	-11.8014
の違い	-11.8014
ごとに	-11.8014
リトル	-11.8015
nium	-11.8015
じょうおう	-11.8015
▁colon	-11.8015
ダンス	-11.8015
自動車道	-11.8015
年のアニメ	-11.8015
([[18	-11.8016
判定	-11.8016
ささら	-11.8016
subpageOnly	-11.8017
April	-11.8017
2|177.223.	-11.8017
城区	-11.8017
詳細は	-11.8017
架空の人物	-11.8018
▁removed	-11.8018
リード	-11.8018
▁-->|[[{{{	-11.8019
▁rai	-11.8021
以外で	-11.8021
未対応	-11.8021
を返す	-11.8023
00)	-11.8023
ゆうび	-11.8023
スタイルガイド	-11.8024
ダブル	-11.8025
▁1992	-11.8025
吸収	-11.8026
201	-11.8028
ささもり	-11.8029
}}};{{{	-11.8029
]]」「[[	-11.803
ふん	-11.8033
2|182.253.	-11.8035
'',	-11.8036
チャール	-11.8036
_(1953	-11.8036
。\	-11.8037
▁itself	-11.8039
-1	-11.804
バル	-11.8041
連盟	-11.8042
マックス	-11.8042
日本プロ野球	-11.8042
▁'"	-11.8044
▁背景色	-11.8045
:|7|{{{1}}}	-11.8046
▁{{{35	-11.8046
の設定	-11.8046
藤原	-11.8046
co	-11.8047
keA	-11.8047
日本海軍	-11.8048
東日本	-11.8049
.112.1	-11.8054
ロマンス	-11.8056
">'''	-11.806
泉北	-11.8061
▁機能	-11.8061
Mbox	-11.8061
標準名前空間の	-11.8061
▁cy	-11.8063
表示することができます	-11.8066
オリ	-11.8067
3.	-11.8072
▁{{{33	-11.8073
ザザ	-11.8073
舞	-11.8077
すべての	-11.8078
シュウ	-11.8079
}}}}}]][[{{	-11.808
ガー	-11.8081
_-_198	-11.8082
は以下の通り	-11.8082
▁Example	-11.8085
▁サブページ	-11.8089
2|3	-11.8091
のサブページあり	-11.8096
32	-11.8098
▁stra	-11.8099
$'	-11.81
2|201.243.	-11.8102
0.23	-11.8104
2|64.2	-11.8105
の背景色	-11.811
結婚	-11.8113
4.184	-11.8122
62	-11.8126
2|218.2	-11.8127
を作成	-11.8129
テニス	-11.8129
▁{{{36	-11.8131
9.10	-11.8131
1.66	-11.8136
▁inline	-11.8136
2017	-11.8142
クラーク	-11.8143
6.58	-11.8145
▁1987	-11.8147
tted	-11.8148
2|222.	-11.815
しんこん	-11.8152
の乱	-11.8153
▁当該	-11.8157
▁[[16	-11.816
街	-11.8162
▁manu	-11.8169
▁global	-11.8171
▁名鉄	-11.8171
|2000-	-11.8176
▁L	-11.8177
ri	-11.8178
リム	-11.8182
テン	-11.8183
再	-11.8183
ザー	-11.8184
笹森	-11.8191
52.19	-11.8192
さま	-11.8194
へん	-11.8196
ホール	-11.8201
▁auto	-11.8202
十二	-11.8206
▁code	-11.8212
element	-11.8213
岡山県	-11.8214
2|200.1	-11.8217
東海	-11.8217
テル	-11.8217
▁limit	-11.822
ref	-11.822
カス	-11.8222
▁このページは	-11.8224
遠藤	-11.8226
パラメータを使用	-11.8228
呉	-11.8229
すくも	-11.8233
▁{{{40	-11.8244
カイ	-11.8244
▁errors	-11.8249
00;	-11.8251
年版	-11.8255
2|211.2	-11.8256
▁2015	-11.8256
諸島	-11.8259
事故	-11.8264
2|190.203.	-11.8265
2|176.1	-11.8265
82	-11.8268
2|178.1	-11.8269
▁option	-11.8277
声	-11.828
2|189.20	-11.8281
2|187.2	-11.8285
で返	-11.8287
0.206.	-11.8295
▁nsCategory	-11.8295
省略する	-11.8296
2|177.75.	-11.8304
タン	-11.8305
!_	-11.8306
▁yellow	-11.8307
▁**:	-11.8308
▁arg	-11.8313
▁{{{42	-11.8315
{{{2}}}{{{3}}}<	-11.8315
笹本	-11.8317
上位テンプレート	-11.832
、<	-11.8324
2|201.17	-11.8326
長野県	-11.8327
▁50	-11.8329
109	-11.833
しょうあ	-11.8331
1974	-11.8338
2.21.18	-11.8339
だん	-11.834
テキスト用	-11.834
▁{{{31	-11.8346
▁{{{30	-11.8349
ねん	-11.8351
2|89.	-11.8351
麻	-11.8354
せんゆう	-11.8357
た場合	-11.8358
プル	-11.8358
しどう	-11.8361
ンマーク	-11.8361
2|217.25.2	-11.8361
深	-11.8362
麗	-11.8364
で指定された	-11.837
リット	-11.8376
4.3	-11.8377
2|203.1	-11.8378
▁my	-11.838
.149	-11.8386
のフォーマット	-11.8388
コー	-11.8389
クロス	-11.839
欠	-11.8394
ウィキペディアで	-11.8396
クル	-11.84
つの	-11.8414
のか	-11.8416
▁Of	-11.8421
しょうあん	-11.8422
▁exper	-11.8429
魔	-11.8433
2|190.205.1	-11.8433
Ch	-11.8433
さざ	-11.8434
▁年月別	-11.8441
渡	-11.8443
を呼び出	-11.8446
箇条書きした節を避ける	-11.8449
2|87.1	-11.8454
tc	-11.8456
▁2001	-11.8457
ルス	-11.8461
プレス	-11.8464
2|183.6	-11.8467
'''。「	-11.8468
他	-11.8475
"|	-11.8475
04}}	-11.8476
ッツ	-11.8477
-----	-11.8478
キン	-11.8481
▁baz	-11.8482
ラフ	-11.8482
ファイル名	-11.8488
が表示されます	-11.8495
米国	-11.8499
パイプ構文	-11.8502
ンデ	-11.8506
術	-11.8511
「'''	-11.8513
広場	-11.852
せき	-11.8527
lway	-11.8534
サッカー選手	-11.8534
ストーン	-11.8535
比	-11.8537
8.184.	-11.8538
2|187.1	-11.8543
▁ファンサイト的	-11.8544
|2010-	-11.8545
aka	-11.8546
▁V	-11.8547
とも	-11.8549
落	-11.8555
▁new	-11.8556
復活祭	-11.8557
ニック	-11.8558
上野	-11.8562
▁[[17	-11.8564
メン	-11.8569
])。	-11.8575
機械	-11.858
するようになった	-11.8581
ぼう	-11.8594
アース	-11.8596
りつ	-11.8598
しんこく	-11.8601
にて	-11.8605
160	-11.862
矢	-11.8622
2|109.	-11.8626
に渡	-11.8626
2)	-11.8632
イベント	-11.8644
▁基本	-11.8645
-06	-11.8645
アイドル	-11.8646
レース	-11.8657
てん	-11.8657
優	-11.8659
ひろ	-11.8659
記事の	-11.8661
朝鮮	-11.8661
▁'$	-11.8662
ロードレース	-11.8663
ゲームソフト	-11.8665
コルベット	-11.8666
には存在	-11.8667
滋賀県	-11.8668
41.8	-11.8668
緑	-11.8671
subject	-11.8673
キエフ	-11.8674
橋本	-11.8675
切り替え	-11.8676
民族	-11.8678
カウンティ	-11.8678
のパラメータ	-11.8681
コート	-11.8683
ルワンダ	-11.8683
戦車	-11.8684
備	-11.8685
makeToolbar	-11.8688
技術者	-11.869
ゲームキャラクター	-11.8692
system	-11.8692
政治学者	-11.8694
expectType	-11.8699
specified	-11.87
2|202.	-11.8704
2|189.1	-11.8705
compareLink	-11.8706
桐生市	-11.8707
ni	-11.8708
スカイ	-11.8709
ブー	-11.871
nilArgs	-11.8711
スコットランド	-11.8714
Of	-11.8715
talkTitle	-11.872
プレイン	-11.8722
強化記事	-11.8724
ll	-11.8724
まとめて	-11.8725
2|186.1	-11.8727
カトリック	-11.873
envFunc	-11.8732
モンゴル	-11.8732
acock	-11.8735
2|8	-11.8737
▁::::	-11.8738
Dat	-11.8746
select	-11.8748
唐	-11.8748
健	-11.8749
▁{{{22	-11.8754
標準	-11.8757
ンズ	-11.8758
ページから	-11.8762
限り	-11.8765
とする	-11.8778
エフ	-11.8783
defini	-11.8789
推奨	-11.8791
レオ	-11.8791
シップ	-11.8792
島村	-11.8792
▁4)	-11.8793
38.18	-11.8796
証	-11.8798
te	-11.88
Commons	-11.8802
川崎	-11.8803
01}}	-11.8803
ぜんのう	-11.8804
Templat	-11.8806
記録	-11.8812
ささだ	-11.8818
ベルク	-11.8825
▁アンハルト	-11.883
▁{{{17	-11.883
▁誠	-11.8835
カル	-11.885
▁go	-11.8862
十五	-11.8864
xist	-11.8871
1940	-11.8876
使用されるテンプレート	-11.8877
ニア	-11.8877
2|154.73.2	-11.8896
ミニ	-11.8902
速	-11.8905
駒	-11.8909
▁7-	-11.8909
2|125.	-11.8914
堀	-11.8914
計	-11.8915
トラ	-11.8918
▁j	-11.8919
.207.6	-11.892
ACT	-11.8921
150%	-11.8926
base	-11.8926
の名称を	-11.8927
|{{{3|}}}}}|	-11.894
まる	-11.8942
末	-11.8945
2|182.	-11.8949
39.17	-11.8955
2|121.	-11.8959
ティック	-11.8962
▁0;	-11.8964
コン	-11.8968
悪魔	-11.8972
ベレ	-11.8972
234	-11.8975
琉球	-11.8976
IA	-11.8977
ちゃん	-11.8979
▁{{{25	-11.8983
鹿	-11.8985
もん	-11.8987
以降	-11.899
back	-11.8994
pos	-11.8998
31.161.	-11.9001
ght	-11.9006
必要	-11.9009
笹野	-11.901
Pre	-11.9013
pargs	-11.9017
125%	-11.9021
サム	-11.9023
▁Mil	-11.9025
返	-11.9025
最	-11.9027
ライダー	-11.9029
らない	-11.9029
():	-11.9032
>#	-11.9036
外部リンク	-11.9037
Arg	-11.9038
で使用され	-11.9038
フィン	-11.9044
にするため	-11.9044
並べ	-11.9045
▁ch	-11.9061
務	-11.9063
▁1972	-11.9064
したい場合	-11.9064
ケイ	-11.9068
阿	-11.9069
クト	-11.9077
保護中の	-11.908
形式の日付を	-11.9084
全英	-11.9087
を表示します	-11.9088
:{{{1}}}_	-11.9088
▁このテンプレートの	-11.9089
プロ野球	-11.909
厳	-11.909
▁Argument	-11.9102
使い分け	-11.9104
{{{2}}}</	-11.9105
翌年以	-11.9107
鈴	-11.9109
決定	-11.9109
員	-11.911
Type	-11.911
複雑な	-11.9113
級	-11.9114
43.25	-11.9115
ough	-11.9116
起	-11.9118
親カテゴリ	-11.9118
セット	-11.9119
いないテンプレートがあ	-11.912
工学	-11.912
サービス	-11.912
薬	-11.9121
密	-11.9121
ゼン	-11.9121
短	-11.9121
画	-11.9121
ンゲン	-11.9121
国鉄	-11.9122
料	-11.9122
丹	-11.9122
過	-11.9122
管	-11.9122
祖	-11.9122
▁Help	-11.9122
少弐	-11.9123
状	-11.9123
舟	-11.9123
Environment	-11.9123
寛	-11.9123
獄	-11.9123
の使用は推奨	-11.9123
改革	-11.9123
退	-11.9123
勘	-11.9123
とりあえず	-11.9123
呂	-11.9123
停	-11.9123
辰	-11.9123
益	-11.9123
竹光	-11.9123
Weekdays	-11.9123
辞	-11.9123
ロレーヌ	-11.9123
Ŝ	-11.9123
クレーター	-11.9123
嵐	-11.9123
被	-11.9123
穴	-11.9123
蒋	-11.9123
Index	-11.9123
2|187.60.47.	-11.9123
せんもんがっこうとうきょう	-11.9123
征	-11.9123
鷹	-11.9123
allowBlankParams	-11.9123
▁tidiedVal	-11.9123
チュートリアル	-11.9123
九十九王子	-11.9123
柔軟剤	-11.9123
.*$',	-11.9123
スマトラ島	-11.9123
ポルトゥガル	-11.9123
新発田市	-11.9123
楚	-11.9123
洲	-11.9123
2|39.169.4	-11.9123
2|81.218.13	-11.9123
Calvero	-11.9123
亀	-11.9123
紛争	-11.9123
読み仮名	-11.9123
2|222.89.15	-11.9123
shadow	-11.9123
×	-11.9123
ブランデンブルク	-11.9123
京都府	-11.9123
丁目	-11.9123
で始まる記事	-11.9123
氷河	-11.9123
洗礼	-11.9123
浙江省	-11.9123
甘	-11.9123
日本の企業一覧	-11.9123
自治体	-11.9123
shared	-11.9123
▁skipped	-11.9123
グスタフ	-11.9123
Device	-11.9123
練習	-11.9123
▁overwritten	-11.9123
建設	-11.9123
2|54.204.39.	-11.9123
アテネオリンピック	-11.9123
ulation	-11.9123
featured	-11.9123
アダムズ	-11.9123
追記	-11.9123
松平忠	-11.9123
食品	-11.9123
スル州	-11.9123
季節の画像投票所	-11.9123
ウルフ	-11.9124
架空の兵器	-11.9124
改名提案	-11.9124
ので対応している日付書式について	-11.9124
年月を渡して	-11.9124
殺人事件	-11.9124
ワールドカップ	-11.9124
2|186.91.1	-11.9124
歌曲	-11.9124
香港	-11.9124
連隊	-11.9124
制御	-11.9124
八幡神社	-11.9124
次郎	-11.9124
前半	-11.9124
美術館	-11.9124
以下にある	-11.9124
2|107.1	-11.9124
信号場	-11.9124
観光	-11.9124
ウッド	-11.9124
ロンドンオリンピック	-11.9124
保護の方針	-11.9124
December	-11.9124
笹倉	-11.9124
を挿入し	-11.9124
[14]	-11.9124
スクエア	-11.9124
笹目	-11.9124
5.58.2	-11.9124
▁移動日	-11.9124
栄町	-11.9124
2|95.22	-11.9124
▁union	-11.9124
2|190.85.1	-11.9124
PageTitle	-11.9124
太夫	-11.9124
女子	-11.9125
スキン	-11.9125
マルグ	-11.9125
Summary	-11.9126
Dig	-11.9126
anuki	-11.9126
中期	-11.9126
た状態	-11.9126
平成	-11.9127
14.221.1	-11.9127
きっぷ	-11.9127
調整	-11.9127
て呼び出	-11.9127
歌人	-11.9127
毛	-11.9127
&#125;&#125;	-11.9128
2|193.19	-11.9128
2|190.93.1	-11.9128
朝鮮語	-11.9129
サンタ	-11.9129
サザエさん	-11.9129
りです	-11.9131
flow	-11.9131
2|103.7.2	-11.9132
known	-11.9132
の年を	-11.9132
マー	-11.9133
ital	-11.9133
▁1971	-11.9133
しょうみょう	-11.9134
と指定すると	-11.9135
アダム	-11.9135
テンプレートの解説	-11.9135
山下	-11.9135
宮城県	-11.9136
▁-->|	-11.9136
_(1928	-11.9136
phtml	-11.9136
複数の	-11.9137
53.189	-11.9138
▁wor	-11.9138
ボックスに表示	-11.9139
つま	-11.9141
CARE	-11.9141
▁1959	-11.9142
タ用	-11.9143
いしき	-11.9144
=*5	-11.9144
語版ではいずれの場合でも年月を渡	-11.9144
▁item	-11.9145
▁と同様	-11.9145
_(1923	-11.9146
ransclu	-11.9151
▁mov	-11.9154
詳しくは	-11.9156
▁Non	-11.9157
大火	-11.9157
Tlx	-11.9159
に従って	-11.916
日付を指定された場合	-11.9162
_(1935	-11.9162
▁1960	-11.9163
投票所	-11.9163
2|92.222.237.3	-11.9166
替える	-11.9166
_(1943	-11.9169
_(1951	-11.9171
ことはできません	-11.9171
が同時に	-11.9172
ここでは	-11.9173
の選択	-11.918
5.12	-11.9182
ups	-11.9182
RO	-11.9188
りょう	-11.9191
▁params	-11.9191
大和	-11.9194
指定することができます	-11.9195
:<	-11.9198
▁1964	-11.92
ソウ	-11.92
}}」	-11.9205
理論	-11.9206
高校	-11.9207
投稿記録	-11.9208
指定方法	-11.9211
水戸市	-11.9211
して表示	-11.9213
差し戻し	-11.9215
だと	-11.9217
ラウ	-11.9218
92	-11.922
Categori	-11.9221
の左	-11.9224
ベリ	-11.9225
メイ	-11.9226
without	-11.9229
本町	-11.923
点があるので	-11.9231
ear	-11.9235
ずに	-11.9236
2|91.143.	-11.924
ブル	-11.9243
ツァ	-11.9244
22.11	-11.9246
兵器	-11.9247
なのですが	-11.9251
6.36.2	-11.9251
敬	-11.9254
▁canonicalName	-11.9255
Memo	-11.9258
人の	-11.9261
▁アメリカ	-11.9264
国民	-11.9266
ono	-11.9272
ST	-11.9274
すれば	-11.9275
49.2	-11.9277
Act	-11.9277
▁パラメータに	-11.9278
が表示されるように	-11.9279
しゅうと	-11.9279
el	-11.928
2.18	-11.928
1.253	-11.9285
mi	-11.9286
▁1994	-11.9289
▁{{{21	-11.9291
んだ	-11.9293
イロ	-11.9293
クラ	-11.9295
215.1	-11.9296
フランス語	-11.9297
将	-11.9298
後は	-11.9302
8.40.9	-11.9302
▁中国語版	-11.9304
規定	-11.9305
とき	-11.9306
荒	-11.931
▁re	-11.9312
▁{{{14	-11.9322
2|213.2	-11.9328
2|202.6	-11.9329
▁ma	-11.9331
▁Uni	-11.9333
▁1982	-11.9342
ない年	-11.9342
▁null	-11.9344
▁state	-11.9351
2|113.2	-11.9351
ゲイ	-11.9351
adlock	-11.9357
le	-11.9357
国立	-11.9361
▁引数の一覧	-11.9361
▁spaces	-11.9365
0:16	-11.9365
るカテゴリ	-11.9368
ツー	-11.9368
Sh	-11.9372
Content	-11.9372
導入	-11.9373
ff	-11.9382
こくさい	-11.9383
神宮	-11.9384
ケン	-11.9384
2|12.2	-11.9389
13.214.	-11.939
までは	-11.939
71	-11.9396
2005	-11.9399
▁ok	-11.9401
▁imageLeftCell	-11.9405
▁imageRightCell	-11.9405
それは	-11.9409
しょうはく	-11.9415
選んだ	-11.9418
マラ	-11.9419
Co	-11.9424
哲	-11.9427
たのですが	-11.9428
hitespace	-11.943
>]	-11.9439
orp	-11.9443
津市	-11.9444
ボル	-11.9445
refix	-11.9452
had	-11.9452
が用意されてい	-11.9453
上毛	-11.9457
前田	-11.9458
そのまま使	-11.9462
Log	-11.9463
cl	-11.9465
のサンドボックスとテストケース	-11.9471
ヘッド	-11.9472
を除	-11.9474
ひとつの	-11.9476
ものも	-11.9477
▁List	-11.948
="'	-11.9485
228	-11.9496
岐阜県	-11.9497
強い	-11.9499
翼	-11.9501
年月別分類	-11.9503
いぬ	-11.9508
シル	-11.9511
2|202.16	-11.9512
協奏曲	-11.9519
8.139.4	-11.9519
ひょう	-11.9521
名古屋	-11.9522
有り	-11.9529
名を	-11.953
アリー	-11.9531
▁{{{15	-11.9535
利用	-11.9536
0.181.2	-11.954
▁強化記事	-11.9542
▁{{{18	-11.9543
2|200.8	-11.9547
モー	-11.9548
だけです	-11.9549
▁tr	-11.9556
研究所	-11.9559
2|187.11	-11.9559
▁年月別分類	-11.9559
国王	-11.9561
80}}	-11.9565
ここではなく	-11.957
作業	-11.9574
ルト	-11.9575
ごうせん	-11.9575
ガル	-11.9576
修正が	-11.9577
▁0)	-11.9578
▁11:4	-11.9579
2|54.19	-11.9581
2|89.2	-11.9583
2|62.	-11.9584
2|66.1	-11.9586
:{{{2|	-11.9586
;">'	-11.9593
学生	-11.9595
▁ヘッダ	-11.9598
185	-11.9604
▁3,	-11.9615
じょ	-11.962
あか	-11.9629
ple	-11.9631
ポート	-11.9632
0:0:0:	-11.9636
おか	-11.9643
展開	-11.9649
!]]	-11.9651
ategori	-11.9652
tion	-11.9653
ささま	-11.9655
ぱ	-11.9659
アラン	-11.9668
ave	-11.967
しか	-11.967
違	-11.9671
>=	-11.9672
日本テレビ	-11.9677
ally	-11.9677
鹿児島県	-11.968
ガ語	-11.9682
選手権大会	-11.9685
場合には	-11.9689
べ	-11.969
!!]]	-11.9702
長崎	-11.9707
なしで	-11.9709
2|213.6.	-11.9711
ra	-11.9713
▁パラメータを	-11.9723
ING	-11.9726
]]』	-11.9735
ao	-11.9747
杉山	-11.9752
自然	-11.9756
デス	-11.9759
。>	-11.9759
▁新しい画像	-11.9775
2|200.3	-11.9777
ヴァー	-11.9778
半保護	-11.9779
の歌	-11.978
二十	-11.978
len	-11.9784
tC	-11.9789
2.186	-11.9797
47.13	-11.9798
▁LOVE	-11.9798
5.254.	-11.9799
新郷	-11.9799
はその	-11.9802
4.91	-11.981
火山	-11.9814
ラント	-11.9815
0.13	-11.9816
1}}}-1}}|{{{1}}}	-11.9816
は以下のように	-11.9817
の指定が	-11.9827
ト語	-11.9828
ちょっと	-11.9831
]]([[19	-11.9834
ブラ	-11.9839
ィ	-11.9841
ability	-11.9847
同じ	-11.9855
フレ	-11.9855
メトロ	-11.9857
117	-11.9861
スタン	-11.9862
5.19	-11.9863
you	-11.9865
=1|	-11.9865
ジェイ	-11.9869
0.70	-11.987
時は	-11.987
▁{{{16	-11.9871
win	-11.9873
4.13	-11.9874
ポーランド	-11.988
リアン	-11.988
1925	-11.9882
曹	-11.9884
}}|0|	-11.9887
2|181.143.2	-11.9888
ネス	-11.9888
報告	-11.989
格闘技	-11.9891
こく	-11.9892
etParam	-11.9894
湯	-11.9895
ミサイル	-11.9895
▁mod	-11.9897
日本共産党	-11.9897
▁07:3	-11.9897
:]]<!--2	-11.9898
モンテ	-11.99
ヴェネツィア	-11.99
洞	-11.9903
さいたま市	-11.9904
NE	-11.9906
気象	-11.9906
歴	-11.9907
猿	-11.9911
HS	-11.9912
父	-11.9912
collapsed	-11.9914
スクレ	-11.9915
イラク	-11.9918
ミュージカル	-11.9918
アムステルダム	-11.9919
column	-11.992
999|	-11.9921
:]]<!--3	-11.9921
探検家	-11.9923
オートバイ	-11.9923
lay	-11.9928
こちら	-11.9929
ow	-11.9929
沈	-11.993
既定	-11.993
栃木市	-11.993
59.1	-11.9933
キューバ	-11.9933
グランデ	-11.9933
新潟県中頸城郡	-11.9937
新潟県北魚沼郡	-11.9937
ブ語	-11.9938
position	-11.9939
しょうばら	-11.9942
セイ	-11.9943
エドワード	-11.9946
yyyymm	-11.9947
break	-11.9949
2|213.	-11.9951
autocollapse	-11.9951
セリ	-11.9953
よし	-11.9956
69.16	-11.9958
mShared	-11.9959
2|190.203.2	-11.996
pageObject	-11.9962
3.172	-11.9967
パラメータを指定	-11.9969
▁expe	-11.9969
5.187.1	-11.9973
-->}}	-11.9974
▁テキスト	-11.9977
沖縄県	-11.998
}}||	-11.9987
ロケット	-11.999
東方	-11.9992
総合	-11.9993
0)	-11.9999
。"	-12.0005
水滸伝	-12.0008
▁fargs	-12.0008
}{{{2}}}{{{3}}}<	-12.0014
ファンサイト	-12.0017
1946	-12.0018
仙台	-12.002
2001	-12.0023
右側	-12.0024
ブラック	-12.0028
▁26	-12.0034
ori	-12.0036
&#123;&#123;	-12.004
野村	-12.0041
明石	-12.0045
仙北	-12.0049
最後の	-12.0049
を指す	-12.0051
102}}	-12.0052
九州	-12.0055
ミール	-12.0061
:{{{4}}}	-12.0063
HEL	-12.0063
しょうれい	-12.0066
▁transparent	-12.007
のある	-12.0073
2.124.6	-12.0075
34.	-12.0078
・5	-12.0081
▁Z	-12.0082
Blacklist	-12.0089
ールズ	-12.009
5.226.	-12.0102
ab	-12.0103
efine	-12.0104
保護の	-12.0105
得	-12.0106
▁f	-12.0106
遠	-12.0108
▁{{{19	-12.011
せんぞく	-12.0113
を行ってい	-12.0119
ユーザー	-12.0123
州市	-12.0123
げん	-12.013
トロ	-12.0133
▁templateCat	-12.0134
周南市	-12.0143
1|{{	-12.0144
3",	-12.0144
人が	-12.0146
節タイプで	-12.0146
のいずれかを	-12.0153
空軍	-12.0154
▁{{{41	-12.0156
ペル	-12.0158
ティン	-12.0161
旅	-12.017
めて	-12.0173
-2013	-12.0175
適用	-12.0177
11-	-12.0178
ring	-12.0181
▁([[	-12.0184
の位置を	-12.0185
8:7	-12.0186
6.22	-12.0188
バンク	-12.019
ーと	-12.0197
.89.158	-12.02
_(1947	-12.0201
ドゥ	-12.0206
!!!	-12.0207
小さい	-12.0208
なのか	-12.0215
.222.5	-12.0222
63	-12.0223
▁{{{13	-12.0226
専門学校東京	-12.023
なる	-12.0233
our	-12.0234
.234.9	-12.0239
24.6	-12.0247
信仰	-12.0259
異常	-12.0263
へい	-12.0263
2|177.13	-12.027
データ	-12.0273
文字を	-12.0282
8.154	-12.0282
なく	-12.0285
が少ない	-12.0291
設立	-12.0292
ドール	-12.0292
海戦	-12.0293
ロジ	-12.0296
運	-12.0299
小松	-12.0302
留	-12.0304
コウ	-12.0304
ハイム	-12.0304
禁止	-12.0305
2|223.	-12.0306
ノース	-12.0315
文学者	-12.0316
1.206	-12.0318
須	-12.0319
隠す	-12.032
囲	-12.0322
2|200.5	-12.0324
La	-12.0324
表示されている	-12.0333
.237.1	-12.0333
ローズ	-12.0337
文法	-12.0337
菜	-12.0337
増	-12.0338
]]([[198	-12.0343
身	-12.0346
ドリーム	-12.0347
人間	-12.0348
ウィキ	-12.0349
ure	-12.0351
住	-12.0353
状態	-12.0353
降	-12.0354
2|21	-12.0354
アレ	-12.0354
箱	-12.0355
▁compar	-12.0356
金融	-12.0358
福岡県	-12.036
ポン	-12.0361
ガイド	-12.0362
▁mad	-12.0363
([	-12.0364
老	-12.0364
疑	-12.0365
equal	-12.0367
生活	-12.0368
メーカー	-12.0368
でしょう	-12.0369
けんきゅう	-12.037
殿	-12.037
幹	-12.037
球	-12.0371
印	-12.0371
府	-12.0371
クルマ	-12.0371
墜落事故	-12.0371
功	-12.0371
峰	-12.0372
若	-12.0372
九	-12.0372
陰	-12.0372
材	-12.0372
八幡	-12.0372
束	-12.0372
想	-12.0372
2=	-12.0372
寿	-12.0372
接	-12.0372
冠	-12.0372
連絡	-12.0372
しどにー	-12.0372
刑	-12.0372
爆撃	-12.0372
ソフト	-12.0373
範囲	-12.0373
デザイナー	-12.0373
如	-12.0373
展	-12.0373
庄原	-12.0373
算	-12.0373
象	-12.0373
要約	-12.0373
カタカナ	-12.0373
地理学	-12.0373
摂	-12.0373
不可	-12.0373
探偵	-12.0373
晴	-12.0373
核	-12.0373
梅	-12.0373
警	-12.0373
糸	-12.0373
他言語版	-12.0373
Chiether	-12.0373
ビデオ	-12.0373
掌	-12.0373
亭	-12.0373
奴	-12.0373
那	-12.0373
双	-12.0373
福祉	-12.0373
労	-12.0373
球場	-12.0373
諏訪	-12.0373
スクリーム	-12.0373
勃	-12.0373
菓子	-12.0373
2|202.142.17	-12.0373
リベリア	-12.0373
砲	-12.0373
船舶	-12.0373
酵素	-12.0373
経済学	-12.0373
たんきだいがく	-12.0373
▁[[10^	-12.0373
あいうえお	-12.0373
ひまわり	-12.0373
アイスホッケー	-12.0373
ショウアップナイター	-12.0373
ホワイト	-12.0373
巳	-12.0373
栓	-12.0373
氷川神社	-12.0373
液	-12.0373
盆	-12.0373
篠栗	-12.0373
醸造	-12.0373
Clapon	-12.0373
demopage	-12.0373
▁Sunday	-12.0373
▁calendar	-12.0373
▁demonstration	-12.0373
▁サイズが個別に指定でき	-12.0373
アルジェリア	-12.0373
ゲゲゲの鬼太郎	-12.0373
ゲームクリエイター	-12.0373
プファルツ	-12.0373
ヴァンパイア	-12.0373
夕	-12.0373
巌	-12.0373
年生のドイツ文学者	-12.0373
最新の出来事	-12.0373
江蘇省	-12.0373
祐	-12.0373
腫	-12.0373
LIVE	-12.0373
Newpages	-12.0373
グラディウス	-12.0373
ゴールデン	-12.0373
朝鮮人の姓	-12.0373
松本清張	-12.0373
栗本薫	-12.0373
森進一の曲	-12.0373
海上自衛隊	-12.0373
渤海	-12.0373
誉	-12.0373
Extensible	-12.0373
isSuppressed	-12.0373
エルンスト	-12.0373
掛川市	-12.0373
農業協同組合	-12.0373
防衛	-12.0373
▁otherwise	-12.0373
マルヌ県	-12.0373
最近大幅加筆された記事	-12.0373
2|46.146.22	-12.0373
koyomi	-12.0373
モンタナ州	-12.0373
嶋	-12.0373
1.104.1	-12.0373
currentTitle	-12.0373
listStyleType	-12.0373
▁ROSE	-12.0373
▁このメタテンプレートは	-12.0373
2|186.103.1	-12.0373
ささぐり	-12.0373
フレデリック	-12.0373
力整備	-12.0373
告白	-12.0373
宿毛	-12.0373
杉並区	-12.0373
2|187.84.1	-12.0373
2|189.211.1	-12.0373
2|61.19.	-12.0373
シュウ酸	-12.0373
海峡	-12.0373
221.241.8.207	-12.0373
つくば市	-12.0373
春野秋葉	-12.0373
株式会社	-12.0373
ウイスキー	-12.0373
ロッソ	-12.0373
ウィルソン	-12.0373
レスリング選手	-12.0373
ruby	-12.0373
資源	-12.0373
2|186.94.2	-12.0373
クリスティアン	-12.0373
2|180.250.	-12.0373
一括	-12.0373
ラグビー選手	-12.0373
初恋	-12.0373
神鋼	-12.0373
許	-12.0373
▁Speakers	-12.0374
社会民主党	-12.0374
投稿ブロック	-12.0374
級潜水艦	-12.0374
アニメーター	-12.0374
泉福寺	-12.0374
ゾフィー	-12.0374
ロワール県	-12.0374
テンプレートの説明文	-12.0374
2|93.81.	-12.0374
を探	-12.0374
承平	-12.0374
戸塚	-12.0374
2|181.168.	-12.0374
ヴェルディ	-12.0374
荒らしボット	-12.0374
キャスター	-12.0374
ハーツ	-12.0374
部首	-12.0374
ソ連	-12.0374
柔道家	-12.0374
ゲーム会社	-12.0374
解散	-12.0374
ケーキ	-12.0374
▁what	-12.0374
27.22	-12.0374
ポイント	-12.0374
街道	-12.0374
機関車	-12.0374
じょうぞう	-12.0374
歳以上	-12.0374
2|117.16	-12.0374
スクープ	-12.0374
茶人	-12.0374
混合	-12.0374
▁dolor	-12.0374
白馬	-12.0374
新交通	-12.0374
犬種	-12.0374
戦友	-12.0374
Tnavbar	-12.0374
ヘルプ	-12.0374
▁skip	-12.0375
笹井	-12.0375
ログイン	-12.0375
2|80.82.6	-12.0375
関係者	-12.0375
修道	-12.0375
書体	-12.0375
48.83	-12.0375
わ行	-12.0375
2|182.253.178.	-12.0375
図書館戦争	-12.0375
回路	-12.0375
マルタ	-12.0375
subjectns	-12.0376
エラー扱いと	-12.0376
青森県	-12.0376
を使用した	-12.0376
78.16	-12.0376
コミュニティバス	-12.0376
文字コード	-12.0376
教育者	-12.0376
viewplain	-12.0376
parameterNames	-12.0377
レフェリー	-12.0377
ガガ	-12.0377
▁1915	-12.0378
20.249	-12.0378
日本グランプリ	-12.0378
を作成するための	-12.0379
は表示されません	-12.0379
浄水	-12.0379
semiprotected	-12.0381
白い	-12.0381
=626	-12.0381
代表	-12.0382
た際に利用するカテゴリ名を指定	-12.0383
▁structure	-12.0383
▁included	-12.0383
に記述された	-12.0384
戦線	-12.0384
都市伝説	-12.0384
_(1922	-12.0384
ウェブサイト	-12.0385
はつ	-12.0385
ハム	-12.0387
を提供する	-12.0387
▁detected	-12.0388
農業	-12.0388
_(1929	-12.0389
グリーンランド	-12.0389
トルコ	-12.0389
2|80.24	-12.0389
すため	-12.0396
引用	-12.0396
(?)	-12.0396
北条	-12.0398
7.177.25	-12.0398
マール	-12.04
.57.1	-12.0401
松平	-12.0402
にかんする	-12.0403
2|260	-12.0403
フアン	-12.0404
区切りの	-12.0404
憲	-12.0407
工事	-12.0408
するなど	-12.0408
イギリスの	-12.0408
▁integer	-12.041
▁Mark	-12.0411
SEA	-12.0411
Eastern	-12.0416
2|86.10	-12.0417
しんごん	-12.0417
▁imageRight	-12.0419
=627	-12.0419
2|191.242.	-12.0419
のいち	-12.0419
0.123.	-12.0423
▁'''|'''	-12.0423
しゅうちゅう	-12.0423
解	-12.0425
孫	-12.0425
で囲	-12.0425
うこう	-12.0426
移動保護	-12.0427
青山	-12.0427
ボーイ	-12.0429
私が	-12.0429
メー	-12.043
クロノ	-12.0434
ット語	-12.0436
1}}}}}	-12.0436
6.231	-12.0437
ぶん	-12.0438
機能は	-12.0439
ドゥエ	-12.0439
る場合	-12.0441
2|202.13	-12.0441
NO	-12.0442
スティーヴン	-12.0442
2|202.14	-12.0442
ジュウ	-12.045
2|122.	-12.0452
2|47.88.1	-12.0452
コル	-12.0455
ガンダムシリーズ	-12.0462
Colla	-12.0464
2|115.	-12.0465
mo	-12.0465
藤田	-12.0466
▁cast	-12.0466
先日	-12.0467
▁subtable	-12.0474
松田	-12.0476
ドー	-12.0481
コム	-12.0481
▁our	-12.0482
のですが	-12.0484
ブレ	-12.0484
バグ	-12.0484
▁1997	-12.0486
zb	-12.0488
▁'#	-12.0488
新港	-12.049
ミス	-12.0491
|120	-12.0491
▁white	-12.0492
▁節タイプ	-12.0493
rizo	-12.0498
直接	-12.0505
_(1924	-12.0506
ささげ	-12.0507
▁contents	-12.0507
▁av	-12.0509
▁1965	-12.0514
44.9	-12.0515
ハル	-12.0521
薫	-12.0522
応	-12.0523
の年月をそのまま継承してください	-12.0524
2|185.8	-12.0528
場所	-12.0529
15}}	-12.053
グリ	-12.053
26.201.1	-12.0535
笹田	-12.0535
編集方針	-12.0538
フリ	-12.0547
}}}||	-12.0551
ナビゲーションテンプレート	-12.0554
37.168.	-12.0558
▁--></	-12.0563
ハイド	-12.0565
も表示さ	-12.0574
兵庫県	-12.0575
ちゃ	-12.0576
城端	-12.0578
ries	-12.058
部分	-12.0581
186.24	-12.0582
ヨン	-12.0582
くみあい	-12.0583
日本語版で	-12.0584
he	-12.0586
はこの	-12.0587
9.92.	-12.0588
700	-12.0588
横須賀市	-12.0589
ないようにする	-12.0596
ひと	-12.0598
に限	-12.0602
ru	-12.0603
}}]]」	-12.0609
ばん	-12.061
パイプと	-12.061
新しい	-12.061
熊本市	-12.061
参加	-12.0616
閲覧	-12.0617
ジェネ	-12.062
になっている	-12.0623
じょし	-12.0624
ヒリ	-12.0626
水道	-12.0629
2|151.2	-12.0629
せんえん	-12.0635
▁Ma	-12.0637
¬	-12.0638
アーク	-12.0643
▁{{{23	-12.0644
形成し	-12.0645
ターミナル	-12.0645
}}}}}]]|}}	-12.0648
バン	-12.0648
tk	-12.0649
〜]](	-12.0649
しゅうこう	-12.0652
▁h	-12.0654
▁パラメータと	-12.0654
del	-12.0656
高山	-12.0658
YM	-12.0663
6.88	-12.0667
でん	-12.0673
2|200.19	-12.0675
▁dash	-12.0677
詩	-12.0679
側	-12.0686
:|6|{{{	-12.0687
163.13	-12.0687
2|200.15	-12.0689
▁libraryUtil	-12.0694
テス	-12.0695
カリ	-12.0697
02.129.2	-12.07
.113.2	-12.0701
対象	-12.0703
_(1934	-12.0711
pro	-12.0712
は他	-12.0713
▁せんへい	-12.0717
Prim	-12.0725
▁1955	-12.0725
レジー	-12.0726
4.74.2	-12.0726
ことは	-12.0728
ンス	-12.073
かれて	-12.0732
クラス	-12.0732
▁08:	-12.0732
2|74.1	-12.0736
9.186	-12.0737
注意が必要です	-12.0739
▁さ行	-12.0744
の一部と	-12.0744
信用	-12.0749
▁等の	-12.0751
TS	-12.0753
2|87.	-12.0753
19.5	-12.0761
スタディオ	-12.0762
ビリー	-12.0769
)_	-12.0771
ピア	-12.0771
In	-12.0774
丘	-12.0777
電力	-12.078
Hans	-12.0782
日本人	-12.0784
4.	-12.0789
modules	-12.0791
東京スカパラダイスオーケストラの	-12.0796
テキストが	-12.0798
政府	-12.0801
じゅうの	-12.0805
あった	-12.0809
日本語版	-12.0816
しょうもん	-12.0825
ネットワーク	-12.0828
せんす	-12.0828
ペン	-12.0828
each	-12.0833
和歌山県	-12.0836
アム	-12.0841
を使用	-12.0846
とは別	-12.0847
使い方	-12.086
2|217.15	-12.0861
名前	-12.0862
va	-12.0872
▁エ	-12.0872
カム	-12.0872
2|88.19	-12.0878
ポー	-12.0884
▁col	-12.0884
せられ	-12.0884
ca	-12.0889
期間	-12.09
0.245	-12.0908
それぞれ	-12.091
Pair	-12.0913
推奨し	-12.0918
指定でき	-12.092
egoryRequireName	-12.0921
の宗派	-12.0927
8.126.1	-12.0932
^%	-12.0934
80:0:	-12.0934
8.35.1	-12.0935
2|42.	-12.0936
上に	-12.0938
▁body	-12.0941
ウル	-12.0941
7.110.	-12.0947
(2)	-12.0949
▁18:	-12.0954
75	-12.0955
外観の	-12.0958
由	-12.0959
と思いますが	-12.0961
することが	-12.0967
ストン	-12.0968
未定義の引数	-12.0971
chi	-12.0976
る項目	-12.0983
バスケットボール	-12.0984
ではない	-12.0985
ニカ	-12.0985
?[[	-12.0987
学会	-12.0991
ライセンス	-12.0993
2|190.11	-12.0993
っけい	-12.0996
pl	-12.0998
5.2	-12.1
Be	-12.1004
ackingCategories	-12.1004
ノーマルタイプ	-12.1006
.242	-12.1006
MONTHNAME	-12.1007
比較	-12.1008
dium	-12.1011
を書く	-12.1012
陸上競技	-12.1013
自然科学	-12.1017
:|4|{{{1}}}	-12.1017
nvalidTypeError	-12.1019
アラスカ州	-12.1026
佐野	-12.1027
7.157.18	-12.1029
134	-12.1029
▁EasterData	-12.1032
の改名	-12.1037
中山	-12.1039
2|41.18	-12.1047
▁13:0	-12.1048
ite	-12.1048
かわ	-12.1053
2|203.17	-12.106
サイズが	-12.106
に存在する	-12.1062
しゅうほう	-12.1066
人形	-12.1069
旧制	-12.1069
2|92.222.237.10	-12.1071
南部	-12.1076
nas	-12.1078
オス	-12.108
▁su	-12.1083
の用途	-12.1084
2.221	-12.1085
contentstyle	-12.109
郷村	-12.1095
2|82.1	-12.1096
発生	-12.1096
8%	-12.11
82.195	-12.11
リヒ	-12.1101
ること	-12.1103
ドロ	-12.1111
113	-12.1112
議論は	-12.1116
▁{{{24	-12.1116
▁du	-12.1126
パイプ構文で	-12.1127
材料	-12.1127
▁[1]	-12.1127
マライ	-12.1135
唄	-12.1138
実行	-12.1139
▁あり	-12.1141
NA	-12.1142
りん	-12.1151
75.1	-12.1157
_(176	-12.1176
大統領	-12.1177
きちんと	-12.1178
になった	-12.1181
元年	-12.1182
大分	-12.1183
5.	-12.1187
枠	-12.1194
の寺	-12.1199
哲夫	-12.12
2|180.183.	-12.1207
アニメ映画	-12.1208
ブルク	-12.1232
EN	-12.1233
んこう	-12.1235
Mer	-12.1241
大谷	-12.1245
たん	-12.1246
1.163.1	-12.1252
に来る	-12.1253
従	-12.1259
できない	-12.1262
ulti	-12.127
が記入された場合	-12.1275
おう	-12.1277
さらに	-12.1278
ife	-12.1282
▁--><!--	-12.1283
振	-12.1284
1970	-12.1287
があり	-12.1288
アルゼンチン	-12.1289
アーケードゲーム	-12.129
イスラエル	-12.1291
2.164.1	-12.1293
旗	-12.1296
カメラ	-12.1296
片	-12.1296
下記	-12.1298
リンゴ	-12.1298
アルプ	-12.1298
コンゴ	-12.1298
トス	-12.1299
携帯電話	-12.1299
アフガニスタン	-12.13
アルバータ州	-12.13
アメリカ海軍	-12.1301
ミネソタ州	-12.1301
col	-12.1301
江原道	-12.1301
春日井市	-12.1302
bo	-12.1302
むか	-12.1304
ギニア	-12.1304
に該当	-12.1305
キルギス	-12.1305
1.235	-12.1305
カリフォルニア州	-12.1305
日本統治時代	-12.1306
暗号	-12.1307
マラウイ	-12.131
歯科	-12.1311
津山市	-12.1311
飯	-12.1312
レコード	-12.1319
せんぼん	-12.1321
ささもと	-12.1327
_(175	-12.1327
)]]【[[	-12.1332
2|51.25	-12.1333
ルーマニア	-12.1335
2015	-12.1336
ミサイル巡洋艦	-12.1339
レースクイーン	-12.1339
カクテル	-12.1342
relative	-12.1343
nce	-12.1344
アメリカ独立戦争	-12.1344
本田美奈子	-12.1347
ギリシア神話	-12.1347
武蔵国	-12.1347
List	-12.1348
れん	-12.1348
YOU	-12.1349
釜	-12.1351
smallimage	-12.1354
2|31.1	-12.1359
の雛形	-12.1361
ホーム	-12.1365
にほ	-12.1366
ガラス	-12.1366
▁horizontal	-12.1369
CF	-12.1369
option	-12.137
42.1	-12.137
専用	-12.1372
hlist	-12.1372
9.6	-12.1372
する必要	-12.1375
79	-12.1375
colspan	-12.1382
yellow	-12.1389
消防	-12.139
5.236.2	-12.139
2|80.	-12.1395
173	-12.1396
さ行	-12.1397
編	-12.1408
モンティ	-12.1415
今回の	-12.1415
人物の	-12.1415
化学	-12.1416
▁fmbox	-12.1424
.234	-12.1434
smallimageright	-12.1435
198.8	-12.1437
杉	-12.1438
スクリプトと呼	-12.1441
99.130	-12.1446
87.13	-12.1448
しゅうぶん	-12.1455
ボウ	-12.1464
▁技術	-12.1465
▁co	-12.1468
じゃ	-12.1471
品質	-12.1474
たかし	-12.1475
の技術的	-12.1478
無い場合	-12.1488
周南	-12.149
fi	-12.1497
}}:{{	-12.1506
▁load	-12.1511
くる	-12.1517
ルーシ	-12.1522
ギリシャ王	-12.1523
すが	-12.1526
:0:0:0:4	-12.1529
江戸	-12.153
必要ない	-12.1531
基準の	-12.1532
mar	-12.1534
2|93.	-12.1542
▁cop	-12.1544
▁E	-12.1551
死と	-12.1555
}</	-12.1561
▁1967	-12.1561
の機能	-12.1565
ox	-12.1566
_(199	-12.1567
BE	-12.1567
質	-12.1567
シュ語	-12.1567
使う場合は	-12.1572
ボット	-12.1577
62.3	-12.1581
ルド	-12.1584
2|198.	-12.1585
競技大会	-12.1586
.148.2	-12.1586
▁sect	-12.1592
|209	-12.1593
fd	-12.1594
0.10	-12.1595
-2007	-12.1599
組	-12.1601
▁web	-12.1604
1957	-12.1604
▁1920	-12.1605
トル	-12.1606
▁その他のページ	-12.1625
の文字	-12.1627
2|190.10	-12.163
=20	-12.1634
ーナ	-12.1636
229.	-12.1637
特定版削除	-12.1638
車場	-12.1645
一般	-12.1647
襄	-12.1648
2|201.20.1	-12.1648
1」	-12.165
盤	-12.1656
.122.1	-12.1657
閏	-12.1657
使用法	-12.1657
95	-12.1659
梨	-12.1662
isation	-12.1664
.127.1	-12.1665
を指定しない場合	-12.1666
艦隊	-12.1667
覚	-12.1669
済	-12.1672
33.5	-12.1675
wikilink	-12.1678
3.102	-12.168
Talk	-12.1684
▁28	-12.1685
2|176.10	-12.1686
大輔	-12.1686
創	-12.1687
刀	-12.1688
策	-12.1693
なければ	-12.1697
の数字が	-12.1698
ントン	-12.1715
72	-12.1716
ree	-12.1719
rticle	-12.172
3.11	-12.1721
イク	-12.1722
.245	-12.1722
しゅうなんし	-12.1724
ONE	-12.1726
なかった	-12.1726
クレオ	-12.1729
行政	-12.1729
ース	-12.1739
ba	-12.1741
6.18	-12.1742
.254	-12.1743
ほうり	-12.1745
4.42.14	-12.1748
pe	-12.1749
けいとう	-12.1754
103.2	-12.1761
せんそ	-12.1763
『[[	-12.177
スコット	-12.1775
鎌倉	-12.1775
Preload	-12.1776
ドラえもん	-12.1776
未来	-12.1778
弥	-12.1778
ディア	-12.1779
勢	-12.178
ション	-12.1782
で使う	-12.1782
就	-12.1782
85	-12.1784
進化	-12.1788
70.7	-12.179
印刷時	-12.179
Box	-12.179
2|108.	-12.1791
ウン	-12.1791
essage	-12.1793
シロ	-12.1793
似	-12.1794
効	-12.1794
断	-12.1795
サザエさんの	-12.1795
トンガ	-12.1795
タワー	-12.1797
画像を非表示に	-12.1798
登	-12.1798
しい	-12.1799
いろいろ	-12.1799
営	-12.1799
チリ	-12.1799
牧	-12.1799
eff	-12.18
高木あゆみ	-12.18
頼	-12.18
オーケストラ	-12.18
恩	-12.18
潮	-12.18
欧	-12.18
低	-12.18
飛	-12.18
question	-12.18
剣	-12.1801
新宿区	-12.1801
河北省	-12.1801
芳	-12.1801
演出家	-12.1801
箇条書き	-12.1801
構成主義	-12.1801
層	-12.1801
ひらがな	-12.1801
独	-12.1801
鬼	-12.1801
庵	-12.1801
養	-12.1801
なおかつ	-12.1801
を閲覧している時点が	-12.1801
否	-12.1801
懸念	-12.1801
可	-12.1801
#124;	-12.1801
みんなのうた	-12.1801
寧	-12.1801
文庫	-12.1801
遷	-12.1801
敏	-12.1801
宇	-12.1802
己	-12.1802
特撮	-12.1802
だった場合に	-12.1802
疾患	-12.1802
カーニバル	-12.1802
至	-12.1802
タレント	-12.1802
稲	-12.1802
模様	-12.1802
正しくない	-12.1802
揚陸艦	-12.1802
重嬰	-12.1802
ようこそ	-12.1802
最高裁判所	-12.1802
締	-12.1802
句	-12.1802
戦闘	-12.1802
Tietew	-12.1802
勉	-12.1802
畑	-12.1802
負	-12.1802
Tables	-12.1802
Incorrect	-12.1802
冬至	-12.1802
商業	-12.1802
機動戦士ガンダム	-12.1802
浪	-12.1802
#125;	-12.1802
スペシャル	-12.1802
セントラル	-12.1802
人工臓器	-12.1802
商店街	-12.1802
彰	-12.1802
捕物帳	-12.1802
2|54.94.1	-12.1802
ウラジミロヴィチ	-12.1802
トーマス	-12.1802
奏者	-12.1802
魂	-12.1802
#123;	-12.1802
timestamp	-12.1802
▁unless	-12.1802
▁variable	-12.1802
さぬき市	-12.1802
で小型版にする	-12.1802
アントワーヌ	-12.1802
オウム真理教	-12.1802
オズボーンのアルバム	-12.1802
キックボクサー	-12.1802
キャンディーズの曲	-12.1802
トリガー	-12.1802
マンハッタン	-12.1802
ミシシッピ州	-12.1802
ミズーリ州	-12.1802
ミャスコフスキー	-12.1802
ヤナーチェク	-12.1802
ラジヴィウ	-12.1802
ルパン三世	-12.1802
レバノン	-12.1802
卒業	-12.1802
哉	-12.1802
帖	-12.1802
彩	-12.1802
性風俗	-12.1802
斉藤由貴の曲	-12.1802
李氏朝鮮	-12.1802
槇原敬之の曲	-12.1802
横溝正史	-12.1802
横芝光町	-12.1802
清春のアルバム	-12.1802
湖北省	-12.1802
ドラゴンクエストのモンスター一覧	-12.1802
ラフマニノフ	-12.1802
ヴェーベルン	-12.1802
囲碁	-12.1802
新北市	-12.1802
潜水母艦	-12.1802
選抜高等学校野球大会	-12.1802
NHK	-12.1802
かつて存在した中国の	-12.1802
アイオワ州アデール郡	-12.1802
アイオワ州カス郡	-12.1802
ウルトラ怪獣	-12.1802
エウリピデス	-12.1802
カルヴァドス県	-12.1802
ギタリスト	-12.1802
ギヨーム	-12.1802
グラズノフ	-12.1802
モザンビーク	-12.1802
レイティング	-12.1802
ローマ教皇	-12.1802
停留場	-12.1802
核弾頭	-12.1802
水上機母艦	-12.1802
河村隆一のアルバム	-12.1802
じどうしゃだいがっこう	-12.1802
シンプル	-12.1802
チャンネル	-12.1802
ムハンマド	-12.1802
ルートヴィヒ	-12.1802
文芸評論家	-12.1802
格闘家	-12.1802
機雷敷設艦	-12.1802
ゴルファー	-12.1802
シトクロム	-12.1802
ミランダ州	-12.1802
探査機	-12.1802
新幹線	-12.1802
洗剤	-12.1802
2|212.174.23	-12.1802
れるようにし	-12.1802
アルブレヒト	-12.1802
オンタリオ州	-12.1802
スヴャトスラ	-12.1802
ナトリウム	-12.1802
バルセロナ	-12.1802
メインページ強化記事投票所	-12.1802
対処のための緊急措置に関する報告	-12.1802
映像作家	-12.1802
流体力学	-12.1802
騎士	-12.1802
HassY	-12.1802
エヴリシング	-12.1802
ミサイル駆逐艦	-12.1802
旅客列車	-12.1802
映像作品	-12.1802
松山市	-12.1802
Happy	-12.1802
オービタ	-12.1802
コメディアン	-12.1802
東京都府中市	-12.1802
河南省	-12.1802
2|203.128.	-12.1802
カー用品店	-12.1802
ボスニア	-12.1802
模型メーカー	-12.1802
閃	-12.1802
された方へ	-12.1802
は取り除	-12.1802
アイヴズ	-12.1802
インターナショナル	-12.1802
サポートしてい	-12.1802
モナコ大公	-12.1802
橿原市	-12.1802
コロラド州	-12.1802
ユリウス	-12.1802
戦略	-12.1802
グローブ	-12.1802
戯曲	-12.1802
未満	-12.1802
林原めぐみの曲	-12.1802
核実験	-12.1802
2|190.216.10	-12.1802
しゃっふる	-12.1802
インド神話	-12.1802
ワイルド	-12.1802
園芸	-12.1802
柄	-12.1802
2|200.192.254.19	-12.1802
PeachLover	-12.1802
十島村立	-12.1802
楽器メーカー	-12.1802
カンザス州	-12.1802
ガルシア	-12.1802
楽劇	-12.1802
LANG	-12.1802
numKeys	-12.1802
小型版	-12.1802
財団法人	-12.1802
2|163.	-12.1802
search	-12.1802
修斗	-12.1802
夏至	-12.1802
協議会	-12.1802
新しい画像投票所	-12.1802
片岡	-12.1802
牧師	-12.1802
ルイジアナ州	-12.1802
松型駆逐艦	-12.1802
桶川市	-12.1802
魚類	-12.1802
和歌集	-12.1802
ロシア陸軍	-12.1802
通貨	-12.1802
イスラム教	-12.1802
たばこ	-12.1802
貨物	-12.1802
すぐろ	-12.1802
イブン	-12.1802
真光寺	-12.1802
▁perform	-12.1802
東京都中央区	-12.1802
じゅうへん	-12.1802
ピエール	-12.1802
Missing	-12.1802
網	-12.1802
アニメ監督	-12.1802
民俗学者	-12.1802
湖南市	-12.1802
マレーシア	-12.1802
新古今	-12.1802
オットー	-12.1802
住吉	-12.1802
▁24540	-12.1802
基地	-12.1802
学校法人	-12.1802
東京都北区	-12.1802
事業	-12.1802
編小説	-12.1802
アニメポケットモンスター	-12.1802
植物学者	-12.1802
クイーンズランド州	-12.1802
パーカー	-12.1802
柏市	-12.1802
民間	-12.1802
源義	-12.1802
ミハイル	-12.1802
見な	-12.1802
2|103.247.21	-12.1802
長崎県	-12.1802
2|183.87.1	-12.1802
ゲームボーイ	-12.1802
競馬場	-12.1802
治郎	-12.1802
Osaka	-12.1802
ヴァージョン	-12.1802
しんこうべ	-12.1802
ライフゲーム	-12.1802
シュウさん	-12.1802
マーラー	-12.1803
受け取	-12.1803
を指定することで	-12.1803
レーサー	-12.1803
目次	-12.1803
2|186.193.	-12.1803
formatDate	-12.1803
イングランド王	-12.1803
公社	-12.1803
2|128.7	-12.1803
じょうはな	-12.1803
2|182.160.1	-12.1803
東晋	-12.1803
藤井	-12.1803
保安	-12.1803
デンマーク	-12.1803
ケニア	-12.1803
モスクワ州	-12.1803
物流	-12.1803
朝鮮王	-12.1803
ボーイズ	-12.1803
東海市	-12.1803
ロンドン条約	-12.1803
物理学者	-12.1803
かいぎ	-12.1803
73.188.	-12.1803
イヴァン	-12.1803
ゴチャ	-12.1803
映画会社	-12.1803
キノン	-12.1803
詩人	-12.1803
を読む	-12.1803
公布	-12.1803
New	-12.1804
大久保	-12.1804
人文科学	-12.1804
2|120.19	-12.1804
書物	-12.1804
しておきます	-12.1804
2|177.22.111.	-12.1804
clone	-12.1804
心理学者	-12.1804
法律家	-12.1804
ヴァイオリン協奏曲第	-12.1804
2|177.39.186.6	-12.1804
revert	-12.1804
しょうやく	-12.1804
コンピュータゲーム	-12.1804
2|43.22	-12.1804
サウス	-12.1804
ウィズ	-12.1804
レディー	-12.1804
八木	-12.1805
数学者	-12.1805
桁の月に	-12.1805
たいかい	-12.1805
breaking	-12.1805
ワシントン州	-12.1805
先生	-12.1805
ストップ	-12.1806
効果	-12.1806
大同	-12.1806
桂文	-12.1806
ラスト	-12.1806
自由への	-12.1806
テンプレートを使って	-12.1806
月末日の	-12.1806
7・8	-12.1806
漢代	-12.1806
石川	-12.1807
カザン	-12.1807
ウェア	-12.1807
Cascade	-12.1807
林寺	-12.1807
人工言語	-12.1807
+)	-12.1807
かなり	-12.1807
アット	-12.1807
ボリビア	-12.1808
織田信	-12.1808
値を指定	-12.1808
徳島県	-12.1808
を付けて	-12.1808
subj	-12.1809
▁1939	-12.1809
▁メッセージボックス	-12.181
しゅうめい	-12.181
2|116.197.135.	-12.181
大学校	-12.181
を持つ	-12.1811
2|72.	-12.1811
gre	-12.1812
2|110.77.1	-12.1812
しょうれんじ	-12.1812
泉水	-12.1812
2|41.20	-12.1813
祭り	-12.1814
スペースが	-12.1814
▁another	-12.1814
_(1926	-12.1815
Classes	-12.1815
.94.17	-12.1815
2|190.202.	-12.1816
ロッド	-12.1816
つね	-12.1818
とじょう	-12.1818
大の月	-12.1818
2|85.9	-12.182
遼の	-12.1821
inside	-12.1822
2|81.1	-12.1823
コール	-12.1823
ザス	-12.1823
2|189.85.20.2	-12.1826
sortable	-12.1826
十四	-12.1826
yoko	-12.1826
日現在	-12.1826
_(1918	-12.1828
_(1921	-12.1828
前方	-12.1829
クリーク	-12.1829
芸術	-12.1829
置き換える	-12.183
その後は	-12.183
十王	-12.1831
ible	-12.1832
ベック	-12.1833
expanded	-12.1836
アメリカ軍	-12.1836
2|83.14	-12.1838
定義	-12.1839
3.219	-12.1839
2|103.24.12	-12.184
山崎	-12.1841
2|200.22	-12.1842
エステ	-12.1842
ローレンス	-12.1842
いたします	-12.1842
▁{{{20	-12.1844
5:9	-12.1845
歴代	-12.1849
の仮	-12.1849
例を	-12.185
26.154	-12.185
▁[[1000	-12.1851
広島県	-12.1853
じゅうえい	-12.1853
内を	-12.1854
に変換する	-12.1854
全英オープン	-12.1854
熊谷市	-12.1857
200}}	-12.1857
ルカタ	-12.1858
▁1958	-12.1862
un	-12.1863
はし	-12.1866
133	-12.187
199.2	-12.1871
は仕様	-12.1873
2|177.91.	-12.1877
づけ	-12.1878
ブルース	-12.188
DA	-12.1881
緊急	-12.1883
ちゃんねるカテゴリ	-12.1884
小野	-12.1884
ケーブル	-12.1886
での入力	-12.1886
しゅうなん	-12.1887
写真	-12.1888
▁'''{	-12.1888
数が	-12.1888
.132	-12.1889
:{{{5}}}|	-12.189
重変	-12.1897
container	-12.1898
ましょう	-12.1898
-2009	-12.1898
ロマン	-12.1898
日本酒	-12.1898
2|182.253.1	-12.1899
テンプレート文書	-12.1899
ギャラ	-12.1902
せんず	-12.1903
2|208.10	-12.1904
GA	-12.1905
fr	-12.1906
psibleTextFields	-12.1906
31.18	-12.1907
▁このモジュールは	-12.1909
Ord	-12.191
テレ	-12.191
|23	-12.1911
2|185.9	-12.1911
-->{{{	-12.1912
'''{{{	-12.1915
▁Hy	-12.1916
いて	-12.1916
延長	-12.1917
ili	-12.192
本部	-12.1923
日間	-12.1923
now	-12.1925
が日本	-12.1925
の間に	-12.1926
地理	-12.1929
wbr	-12.1929
▁{{{10	-12.1929
じゅうねん	-12.1932
ナル	-12.1933
_(1962	-12.1934
7.166	-12.1937
を持た	-12.1939
バリ	-12.1939
ニコ	-12.1941
ユリア	-12.1943
oid	-12.1944
モア	-12.1945
せんもう	-12.1945
noprint	-12.1948
は行	-12.1949
2|54.2	-12.195
の文字の	-12.1951
po	-12.1956
122	-12.1957
:{{{1|}}}|{{#	-12.1959
▁〜	-12.1961
142.19	-12.1967
環境	-12.197
▁ハイフン無し	-12.1975
ゲン	-12.1975
月以降	-12.1976
▁特殊	-12.1978
▁1977	-12.1979
笹岡	-12.1986
ぜい	-12.1992
75.85.	-12.1993
ぐち	-12.1994
99|	-12.1994
しゅうすい	-12.1997
使うのが	-12.1998
2|64.	-12.2001
ぜんそう	-12.2001
勝彦	-12.2003
山古墳	-12.2003
思います	-12.2003
た場合に	-12.2004
、[[:	-12.2007
opri	-12.2009
Offset	-12.201
証人	-12.201
京都	-12.2016
3.7	-12.2017
地形	-12.2017
1.114	-12.2018
▁{{{12	-12.2018
▁mos	-12.2019
渡良瀬川	-12.2021
後藤	-12.2022
高速道路	-12.2024
ですから	-12.2027
マウス	-12.2027
be	-12.203
マケドニア王	-12.2031
ヶ月	-12.2031
それから	-12.2034
:2	-12.2036
グラ	-12.2041
Link	-12.2046
バレーボール	-12.2046
植	-12.2049
第一	-12.2056
([[187	-12.206
においては	-12.2064
ンガー	-12.2064
▁ope	-12.2065
の名称	-12.2067
EX	-12.2072
=25	-12.2072
を省略	-12.2077
日本語版では	-12.2078
2|119.1	-12.2078
まえ	-12.2078
リダイレクト	-12.2088
意味	-12.2088
ラリー	-12.2088
▁wrapper	-12.2091
リュー	-12.2094
▁02:5	-12.2095
教師	-12.2095
=62601	-12.2098
2|185.4	-12.2106
▁place	-12.2109
は次の	-12.2109
自体	-12.211
2|179.1	-12.2113
ルドルフ	-12.2115
ピエ	-12.2117
カテゴリを	-12.2118
24.46.	-12.212
のいずれかの	-12.212
▁|2016012412325	-12.2126
ミット	-12.2135
6.38	-12.2135
69	-12.2136
▁1999	-12.2138
606	-12.2139
MY	-12.2139
Pri	-12.2145
9.160.	-12.2146
▁th	-12.2147
かもしれませんが	-12.215
多重アカウント	-12.2157
列を指定し	-12.2159
しお	-12.2159
.119	-12.2162
▁1954	-12.2165
▁マークアップを使	-12.2168
▁removeBlanks	-12.2174
ア語	-12.2181
逆	-12.2187
ピン	-12.219
alkPage	-12.2192
:%	-12.2195
歩	-12.2196
▁0}}	-12.2198
2.140.	-12.2199
▁1983	-12.2203
▁lo	-12.2208
ということ	-12.2208
明石市	-12.2211
zm	-12.2215
▁第	-12.2215
86.4	-12.2218
▁解説	-12.2219
個人	-12.2221
定期	-12.2226
号機	-12.2227
▁400	-12.2231
51.	-12.2231
、「1	-12.2231
2|177.128.	-12.2235
秋月	-12.2236
▁fr	-12.2241
で使われてい	-12.2242
を作成し	-12.2245
すぐ	-12.2246
ロイ	-12.2246
|10	-12.2254
2|103.	-12.2259
yan	-12.2263
14.207.	-12.2274
家族	-12.2278
打ち	-12.2285
{{!-}}	-12.2286
宮神社	-12.2294
8.148.	-12.2295
gif	-12.2296
パワー	-12.2298
鹿児島市	-12.2306
鳥取県	-12.231
三国	-12.231
195.1	-12.2314
([[190	-12.232
▁loadEaster	-12.2326
▁07:4	-12.2329
0.164.	-12.2331
東大阪市	-12.2351
数字	-12.2352
▁注意	-12.2353
2|94.13	-12.2354
ON	-12.2357
みます	-12.2358
明寺	-12.2358
エド	-12.237
ミラ	-12.2371
年の曲	-12.2371
雑	-12.2373
乙女	-12.2376
efaultNamespaces	-12.238
:{{{3|}}}|	-12.238
アズ	-12.2385
72.	-12.2392
以前の	-12.2394
2|190.248.1	-12.2399
([[193	-12.2402
分類し	-12.2402
ショ	-12.2403
ji	-12.2407
▁nocat	-12.2407
クイズ	-12.2408
制限	-12.2409
デア	-12.2412
:0.	-12.2413
一応	-12.2414
と同様の	-12.2415
ミラー	-12.2416
措置	-12.2416
野駅	-12.2419
2|15	-12.2421
32.19	-12.2426
文字が	-12.2427
▁{{{11	-12.2431
▁の記述	-12.2431
83	-12.2431
ンダー	-12.2435
205	-12.2441
9.147	-12.2443
▁画像の	-12.245
114.111.1	-12.2451
例もあ	-12.2463
246	-12.2465
53.217.	-12.2465
きこう	-12.2466
織	-12.2469
かと思います	-12.2472
迷	-12.2476
ても	-12.2477
しょうらい	-12.2479
2|41.8	-12.2482
輸送	-12.2491
5.13	-12.2493
衆	-12.2499
1961	-12.2503
2|181.4	-12.2507
ることができます	-12.2507
いく	-12.2508
あるようです	-12.2511
を使用して	-12.2515
="5	-12.2516
9.204.	-12.2517
こうぎょう	-12.2521
なり	-12.2522
首相	-12.2525
新潟	-12.2526
5.5	-12.2529
tena	-12.2533
nl	-12.2535
マッ	-12.2545
日本に	-12.2546
34.6	-12.2548
▁testcasesCreate	-12.2548
▁32	-12.2549
ウィキメディア財団	-12.2551
わか	-12.2554
2|197.	-12.2556
リアル	-12.2558
wline	-12.2559
げんそ	-12.2566
のページ	-12.2573
小川	-12.2574
326	-12.2574
ファンサイト的	-12.2575
名は	-12.258
'].	-12.2586
ピー	-12.2596
カテゴリ名	-12.2596
▁15:0	-12.26
]]([[194	-12.2601
されて	-12.2602
▁24538	-12.2602
:53	-12.2603
ということで	-12.261
▁同じ	-12.2614
2|200.4	-12.2615
いつ	-12.2617
2|113.20	-12.2619
しゅうどう	-12.2621
スワ	-12.2621
ていた	-12.2629
|130	-12.2636
▁【[[	-12.2646
60}}	-12.2646
古墳群	-12.2655
▁|}}	-12.2655
207	-12.2658
ウィン	-12.2661
の比較	-12.2664
うら	-12.2665
1000	-12.2665
法寺	-12.2669
エリ	-12.2675
残し	-12.2682
歯	-12.2685
バニ	-12.2693
の地名	-12.2698
ce	-12.2698
utton	-12.2701
せんいん	-12.2703
2.21	-12.2708
ばら	-12.2713
ぜんち	-12.2724
|2013	-12.2726
1930	-12.2727
艦	-12.2731
2|217.17	-12.2735
武士	-12.2737
おすすめ	-12.2737
なんか	-12.2741
2"	-12.2742
いせき	-12.2744
として解釈され	-12.2749
転載	-12.275
はここ	-12.2754
AL	-12.2754
サクラ	-12.2756
Ta	-12.2758
けつ	-12.2759
。([[	-12.276
ところ	-12.276
2|138.1	-12.2762
▁以外の	-12.2762
BB	-12.2765
nil	-12.2769
終了	-12.2771
つい	-12.2776
長さに	-12.2776
うんどう	-12.278
915	-12.2785
を入力して	-12.279
地球	-12.2793
▁1944	-12.2795
2|50.2	-12.2795
4.46	-12.2796
▁17:	-12.2803
ロイド	-12.2805
"、	-12.2808
ウェイ	-12.281
桑名市	-12.2817
概念	-12.282
:12	-12.2822
フランク	-12.2831
▁F	-12.2832
舎	-12.2834
.140.1	-12.2839
笠	-12.2839
付け	-12.2843
2|45.63.6	-12.2844
ぜんてい	-12.2844
1999	-12.2844
19.20	-12.2848
36.162	-12.2849
邦	-12.285
.162	-12.2854
タル	-12.2855
|2011	-12.2858
バウ	-12.2859
2|113.	-12.2869
追認	-12.2878
チュ	-12.2883
sd	-12.2884
っく	-12.2886
易	-12.2887
▁navbox	-12.2888
ライター	-12.2894
雅	-12.2894
2|200.2	-12.2906
2.240.	-12.2906
5.115.1	-12.2908
ヴァイ	-12.291
アメリカンフットボール	-12.2911
31.173.2	-12.2913
saku	-12.2919
ステ	-12.2919
医	-12.292
1995	-12.2921
テンプレートにリンクする	-12.2924
2|175.13	-12.2926
願い	-12.2929
アブ	-12.2931
江戸時代	-12.2932
2|119.	-12.2933
レード	-12.2934
情報工学	-12.2934
道の駅	-12.2937
ラジオドラマ	-12.2937
▁日本の	-12.2938
nolink	-12.2938
オーストリア公	-12.294
ウラジーミル	-12.2941
マドリード	-12.2941
アダルトゲーム	-12.2942
モータースポーツ	-12.2942
ウガンダ	-12.2942
された場合	-12.2943
アムトラック	-12.2943
イギリス海軍	-12.2944
思想	-12.2944
ミシガン州	-12.2944
アラバマ州	-12.2944
ウエスト	-12.2944
ユン	-12.2945
イギリス王	-12.2946
満州	-12.2947
板橋区	-12.2947
東京府	-12.2947
.173	-12.2948
満州国	-12.2948
ライブ	-12.2948
演劇	-12.2949
temp	-12.295
教科	-12.295
文具	-12.2951
お笑い	-12.2951
渋谷区	-12.2952
所沢市	-12.2952
新羅	-12.2952
適切で	-12.2954
東京都港区	-12.2954
春秋	-12.2955
燕	-12.2957
30.22	-12.2958
ほど	-12.296
▁purge	-12.2961
▁|2016012412345	-12.2962
ラジオパーソナリティ	-12.2964
pairs	-12.2972
OC	-12.2973
敷設艦	-12.2976
となる	-12.2977
your	-12.2979
05}}	-12.2981
と考え	-12.2982
しょうこう	-12.2984
アルメニア	-12.2985
6.83	-12.2985
木曽川	-12.2987
:{{{1|}}}|{{{1	-12.2987
オリジナル	-12.2989
「2	-12.2991
pair	-12.2992
イスラム	-12.2994
レストラン	-12.2995
ルトン	-12.2996
ヴァイオリニスト	-12.2997
ローカルタレント	-12.2997
ミケランジェロ	-12.2997
東部	-12.2998
アイスダンス	-12.2998
オレゴン州	-12.2999
横浜市西区	-12.2999
6.15	-12.2999
あお	-12.2999
我孫子市	-12.3
105	-12.3
いすみ市	-12.3
5.179	-12.3
TA	-12.3
ガボン	-12.3001
志摩市	-12.3001
成田市	-12.3002
日光市	-12.3002
eren	-12.3004
の中に	-12.3006
コーヒー	-12.3006
松阪市	-12.3007
.34.3	-12.3008
su	-12.3009
▁08:4	-12.301
ミラノ	-12.3011
錦	-12.3013
arg	-12.3015
ipairs	-12.3016
wrapper	-12.3017
navbar	-12.3018
ace	-12.3021
94	-12.3023
ろうどう	-12.3024
カワ	-12.3027
を使い	-12.3032
should	-12.3033
愛の	-12.3034
を見て	-12.3036
textCell	-12.3038
isTalk	-12.3038
ワイ	-12.3038
license	-12.304
リーミング	-12.304
牛	-12.3041
レスリング	-12.3041
▁years	-12.3043
templateSort	-12.3043
when	-12.3044
newArgs	-12.3044
賀	-12.3045
warning	-12.3045
templateName	-12.3046
removeBlanks	-12.3046
libraryUtil	-12.3047
imageRightCell	-12.3049
imageLeftCell	-12.3049
じゅうおう	-12.305
overflow	-12.3051
cfgValue	-12.3051
titleObj	-12.3052
.181	-12.3054
ぐ	-12.3055
mainCat	-12.3055
found	-12.3055
input	-12.3057
ゴン	-12.3058
すい	-12.3059
ヤマ	-12.306
アカウント	-12.3061
allCat	-12.3063
30.10	-12.3065
Bot	-12.3065
三重県	-12.3066
レンズ	-12.3066
2|61.	-12.3067
の記入	-12.3068
9.5	-12.3069
ネイ	-12.307
|{{{1}}}}}|{{	-12.3074
熊	-12.3091
それ以外	-12.3098
貼った	-12.31
unt	-12.31
を編集	-12.3103
殺	-12.3103
8.74	-12.3106
6.65	-12.3107
▁wind	-12.3108
秋田	-12.311
イ語	-12.3114
.☆	-12.3114
ではないかと思います	-12.3119
ンドゥ	-12.3121
える	-12.3123
1987	-12.3125
ヴ	-12.3126
情報の	-12.3128
sted	-12.3131
従軍	-12.3131
eco	-12.3131
としょ	-12.3141
08}}	-12.3141
しゅうせん	-12.3142
ったりし	-12.315
}}}|}}|	-12.3152
▁general	-12.3152
|||	-12.3154
Th	-12.3156
ヨーク	-12.3156
1.178.	-12.3156
じょういん	-12.3157
139	-12.3158
'^[	-12.3161
はな	-12.3167
1.227	-12.3167
札幌市	-12.3171
あや	-12.3171
ジア語	-12.3172
航	-12.3174
しょうま	-12.3175
内容を	-12.3178
新しい項目	-12.3179
と組み合わ	-12.3186
2|118.9	-12.3187
▁par	-12.3187
UE	-12.3189
までの	-12.319
アク	-12.3199
▁08:1	-12.3199
もう	-12.3201
ヶ	-12.3202
mago	-12.3211
さんが	-12.3212
:{{{3|	-12.3216
2|46.209.	-12.3221
8.58	-12.3223
卓	-12.3223
自分の	-12.3226
アマ	-12.3228
千葉	-12.3228
笹塚	-12.3228
翌	-12.3236
アルバ	-12.3243
ct	-12.3244
.142.8	-12.3245
;{{{	-12.3248
42.144.	-12.3251
hu	-12.3258
▁Au	-12.3259
2|221.	-12.3265
▁現在	-12.3266
年月をそのまま継承してください	-12.3266
認識	-12.3266
68.10	-12.3268
compa	-12.3268
止	-12.3268
▁31	-12.3271
の事	-12.3276
んしゃ	-12.3276
▁0,	-12.3281
▁tp	-12.3287
切	-12.3289
じゅん	-12.3289
俊一	-12.3291
民法	-12.3294
:38	-12.3294
年寄	-12.3294
敷	-12.3295
6.16	-12.3298
1.26.2	-12.331
市立図書館	-12.331
2|197.2	-12.3316
津村	-12.3318
KO	-12.3318
珍しく	-12.3319
CO	-12.3322
2|37.2	-12.3324
女王	-12.3327
い設定	-12.3328
望	-12.3331
澤	-12.3332
ょ	-12.3333
ウム	-12.3337
襲	-12.3338
▁1969	-12.3344
荒川	-12.3346
_(1938	-12.3347
土曜	-12.3347
▁Di	-12.3349
皇	-12.335
かた	-12.335
上水	-12.3355
いと思います	-12.3357
ありますが	-12.3357
ラマ	-12.3358
として使用	-12.3358
減	-12.3359
時に	-12.3368
ではありません	-12.3369
際	-12.3371
】←[[	-12.3374
▁argTable	-12.3377
か行	-12.3379
5.242	-12.3381
北朝鮮	-12.3386
ァ	-12.3386
度に欠け	-12.3389
せんあ	-12.3389
yo	-12.3389
ルナ	-12.3391
nsCategory	-12.3397
的な文章	-12.34
aramsToCheck	-12.34
与	-12.34
9.38.	-12.3402
カウ	-12.3403
サブページあり	-12.3409
0.25	-12.3412
きょく	-12.3413
▁1953	-12.3414
が使用されている場合	-12.3414
6.102	-12.3415
光寺	-12.3416
びょう	-12.3418
.150.2	-12.3419
|2003	-12.3421
そん	-12.3424
.206	-12.3424
ケー	-12.3426
2|101.1	-12.3426
▁ka	-12.3429
に記述	-12.3429
中華民国	-12.3429
|200012	-12.343
|2078	-12.3431
するために	-12.3431
ギス	-12.3431
|2089	-12.3433
▁z	-12.3435
_(15	-12.3437
手順	-12.3441
|2099	-12.3441
長谷川	-12.3441
2|152.26.69.	-12.3442
ハンガリー	-12.3444
ピアノ	-12.3445
▁getArg	-12.3446
終	-12.3446
|2034	-12.3447
韓	-12.3447
読	-12.3448
競走	-12.3448
聞	-12.3449
([[189	-12.3449
Num	-12.345
映画館	-12.3451
に関して	-12.3451
計算	-12.3451
サーバー	-12.3452
|2023	-12.3452
黄金	-12.3453
▁24539	-12.3453
開始	-12.3454
デザイン	-12.3454
じょうもう	-12.3455
|2093	-12.3455
立図書館	-12.3455
反応	-12.3456
調印	-12.3456
支援	-12.3456
先代次代	-12.3456
61.2	-12.3457
折り畳み	-12.3457
2|134.2	-12.3457
導	-12.3458
指定されている	-12.3459
メタ	-12.3459
lainlinks	-12.346
浮	-12.3461
施	-12.3461
▁memoiz	-12.3462
106	-12.3462
しとり	-12.3464
スウェーデン	-12.3464
左に指定	-12.3464
惑	-12.3464
域	-12.3464
難	-12.3464
=1}}	-12.3465
2|110.17	-12.3465
皮	-12.3465
クイーン	-12.3466
ircle	-12.3466
発表	-12.3466
新興	-12.3466
犯罪	-12.3466
温	-12.3466
トヨタ	-12.3466
席	-12.3466
佳	-12.3466
談	-12.3466
承	-12.3467
世界遺産	-12.3467
庁	-12.3467
怪	-12.3467
律	-12.3467
アカデミ	-12.3467
防	-12.3467
庭	-12.3467
消滅	-12.3467
課	-12.3467
ストリート	-12.3467
協	-12.3467
茶	-12.3467
久保	-12.3467
希	-12.3467
成人向け	-12.3467
圭	-12.3467
処	-12.3467
雷	-12.3467
劇	-12.3467
指導	-12.3467
玄	-12.3468
管理者への立候補	-12.3468
貨	-12.3468
文京区	-12.3468
販売	-12.3468
ワンダー	-12.3468
初期	-12.3468
積	-12.3468
垣	-12.3468
染	-12.3468
フランシス	-12.3468
育	-12.3468
製	-12.3468
配	-12.3468
エネルギー	-12.3468
兼	-12.3468
住宅	-12.3468
愛西市	-12.3468
題	-12.3468
駆逐艦	-12.3468
がたでん	-12.3468
桃	-12.3468
穂	-12.3468
犬山市	-12.3468
オーバー	-12.3468
横手	-12.3468
▁brace	-12.3468
オラニエ	-12.3468
ロックバンド	-12.3468
瑞	-12.3468
保険	-12.3468
娯楽とスポーツ	-12.3468
文化と芸術	-12.3468
143.62	-12.3468
虎	-12.3468
伯爵	-12.3468
何らかの	-12.3468
アテネ	-12.3468
同一の人間が	-12.3468
違憲	-12.3468
批判	-12.3468
その年月をそのまま	-12.3468
程	-12.3468
拓	-12.3468
才	-12.3468
モノレール	-12.3468
ロワール	-12.3468
剤	-12.3468
序	-12.3468
菩薩	-12.3468
有効な	-12.3468
橘	-12.3468
まぐろ	-12.3468
キャロット	-12.3468
手続き	-12.3468
Magic	-12.3468
治療	-12.3468
鷲	-12.3468
rekiyou	-12.3468
trunc	-12.3468
勧	-12.3468
暗殺	-12.3468
すくーるおぶ	-12.3468
松蔭	-12.3468
スクーデリア	-12.3468
後に日や時刻	-12.3468
硬	-12.3468
紅	-12.3468
2|24.157.	-12.3468
伴	-12.3468
弱	-12.3468
先頭の	-12.3468
焦点	-12.3468
登録	-12.3468
ダイナミック	-12.3468
プリンセス	-12.3468
刺	-12.3468
塾	-12.3468
専門学校穴吹	-12.3468
漣	-12.3468
縦	-12.3468
膳	-12.3468
NavboxYears	-12.3468
▁assign	-12.3468
スキャンダル	-12.3468
ハミルトン	-12.3468
ワルシャワ	-12.3468
不動産	-12.3468
仲	-12.3468
収束	-12.3468
岬	-12.3468
技能士	-12.3468
炉	-12.3468
率	-12.3468
2|186.10.5.13	-12.3468
Hidden	-12.3468
Newimages	-12.3468
▁Gregorian	-12.3468
▁allSort	-12.3468
▁character	-12.3468
▁chosen	-12.3468
▁ipsum	-12.3468
▁particular	-12.3468
▁precedence	-12.3468
▁tidyValNoChange	-12.3468
▁tidyValTrimOnly	-12.3468
▁translatenext	-12.3468
▁選り抜き記事	-12.3468
いきものがかりの曲	-12.3468
いちき串木野市	-12.3468
お笑いトリオ	-12.3468
かとうれい子の曲	-12.3468
くるりの曲	-12.3468
さいたま市岩槻区	-12.3468
たむらぱんの曲	-12.3468
ちあきなおみの曲	-12.3468
つくばみらい市	-12.3468
ふきのとうの曲	-12.3468
ふじみ野市	-12.3468
ものまねタレント	-12.3468
ゆずのアルバム	-12.3468
ゆずの曲	-12.3468
を探検する	-12.3468
アイオワ州カルホーン郡	-12.3468
アイオワ州キャロル郡	-12.3468
アイオワ州セロゴード郡	-12.3468
アイオワ州ブエナビスタ郡	-12.3468
アイスキュロス	-12.3468
アイダホ州	-12.3468
アシル化	-12.3468
アトラクション	-12.3468
アーカンソー州ポープ郡	-12.3468
インディアナ州	-12.3468
ウェストバージニア州	-12.3468
エノー伯	-12.3468
エンジェルのエピソード	-12.3468
オネゲル	-12.3468
オルデンブルク大公	-12.3468
カロライナ	-12.3468
カンタル県	-12.3468
カーペンターズのアルバム	-12.3468
ガロンヌ県	-12.3468
ガーゴイルズ	-12.3468
キッズ	-12.3468
キルギス国内軍	-12.3468
ギャザリング	-12.3468
ギーズ公	-12.3468
グライツ侯	-12.3468
グラビアアイドル	-12.3468
ケツメイシの曲	-12.3468
コメディ部門	-12.3468
コルサコフ	-12.3468
コンビニエンスストア	-12.3468
サーデの曲	-12.3468
シュトレーリッツ大公	-12.3468
ストーンズのアルバム	-12.3468
セルジューク朝	-12.3468
デッサウ侯	-12.3468
バルサス	-12.3468
マイセン辺境伯	-12.3468
マクロスシリーズ	-12.3468
マジシャン	-12.3468
マニャール	-12.3468
マニューバ	-12.3468
マリオシリーズ	-12.3468
マリティーム県	-12.3468
ミッテルフランケン	-12.3468
ミノーグのアルバム	-12.3468
ムガル皇子	-12.3468
ムーロム公	-12.3468
メンデルスゾーン	-12.3468
モデルエージェンシー	-12.3468
モンスターハンターシリーズ	-12.3468
モントセラト	-12.3468
モーツァルト	-12.3468
ユタ州	-12.3468
ライン宮中伯	-12.3468
リアーナの曲	-12.3468
レキシントン街線	-12.3468
レストランチェーン	-12.3468
レミオロメンの曲	-12.3468
ロシア国内軍	-12.3468
ロシア空挺軍	-12.3468
ロードアイランド州	-12.3468
ロードス島戦記	-12.3468
ヴァンドーム公	-12.3468
代神風型駆逐艦	-12.3468
全国高等学校野球選手権大会	-12.3468
全言語版の統計	-12.3468
妻	-12.3468
市川團	-12.3468
年創刊のアメリカ合衆国の雑誌	-12.3468
年生の歌手	-12.3468
忠清南道	-12.3468
忻州市	-12.3468
愛内里菜の曲	-12.3468
愛媛県北宇和郡	-12.3468
愛知県東加茂郡	-12.3468
手塚治虫	-12.3468
斑鳩町	-12.3468
新座市	-12.3468
新潟県中蒲原郡	-12.3468
新潟県中魚沼郡	-12.3468
新潟県佐渡郡	-12.3468
新潟県刈羽郡	-12.3468
新潟県北蒲原郡	-12.3468
新潟県南魚沼郡	-12.3468
新潟県古志郡	-12.3468
新潟県岩船郡	-12.3468
新潟県東頸城郡	-12.3468
新潟県西頸城郡	-12.3468
方程式	-12.3468
日蓮正宗	-12.3468
旧約聖書	-12.3468
星村麻衣の曲	-12.3468
月華の剣士	-12.3468
有田川町	-12.3468
朗	-12.3468
木更津市	-12.3468
木根尚登のアルバム	-12.3468
村上春樹	-12.3468
来生たかおのアルバム	-12.3468
東方神起のアルバム	-12.3468
東方神起の曲	-12.3468
東秩父村	-12.3468
東金市	-12.3468
松下優也の曲	-12.3468
松任谷由実の曲	-12.3468
松山千春の曲	-12.3468
松本伊代の曲	-12.3468
柴田淳の曲	-12.3468
核砲弾	-12.3468
桜田淳子の曲	-12.3468
森園みるく	-12.3468
森高千里のアルバム	-12.3468
検察官	-12.3468
正しく置き換えられ	-12.3468
武満徹	-12.3468
死刑執行人	-12.3468
毅	-12.3468
水森かおりの曲	-12.3468
氷室京介の曲	-12.3468
江若鉄道	-12.3468
汪兆銘政権	-12.3468
沢田研二の曲	-12.3468
河村隆一の曲	-12.3468
浅香唯のアルバム	-12.3468
浜崎あゆみのアルバム	-12.3468
浜田省吾の曲	-12.3468
海洋観測艦	-12.3468
海老名市	-12.3468
海防艦	-12.3468
深セン市	-12.3468
清春の曲	-12.3468
清木場俊介の曲	-12.3468
焼酎	-12.3468
熊本県飽託郡	-12.3468
爆風スランプの曲	-12.3468
牧野由依の曲	-12.3468
特設巡洋艦	-12.3468
特設水上機母艦	-12.3468
独立宣言署名者	-12.3468
簡易版	-12.3468
腕	-12.3468
蓋	-12.3468
銅	-12.3468
▁Castle	-12.3469
▁blacklistentry	-12.3469
▁二十四節気および雑節	-12.3469
ちぇ	-12.3469
アイオワ州バトラー郡	-12.3469
アマチュア無線	-12.3469
エステルイェートランド公	-12.3469
エレクトリック	-12.3469
コミューン	-12.3469
スロバキア	-12.3469
トンプソン	-12.3469
マルティヌー	-12.3469
出入口	-12.3469
文房具	-12.3469
眼	-12.3469
秒	-12.3469
自動車教習所	-12.3469
陸上自衛隊	-12.3469
2|125.24.10	-12.3469
RemoveBlanksOnly	-12.3469
̄	-12.3469
▁fetch	-12.3469
アイオワ州アウドゥボン郡	-12.3469
アイオワ州アパヌース郡	-12.3469
アイオワ州アラマキー郡	-12.3469
アイオワ州シーダー郡	-12.3469
アイオワ州ブキャナン郡	-12.3469
アイオワ州ブラックホーク郡	-12.3469
アイオワ州ブレマー郡	-12.3469
アイオワ州ブーン郡	-12.3469
アプリケーション	-12.3469
アリストテレス	-12.3469
アリストパネス	-12.3469
アリゾナ州	-12.3469
アーティスト	-12.3469
イリノイ州	-12.3469
ウィスコンシン州	-12.3469
ウエイトトレーニング	-12.3469
ウズベキスタン	-12.3469
ウルフルズの曲	-12.3469
ウンターフランケン	-12.3469
エルブフ公	-12.3469
オフコースのアルバム	-12.3469
オフコースの曲	-12.3469
オペレーティングシステム	-12.3469
オーデンヴァルト	-12.3469
オーバーフランケン	-12.3469
カザフスタン空中機動軍	-12.3469
カシオペアのアルバム	-12.3469
カバレフスキー	-12.3469
カメルーン	-12.3469
キエフと全ルーシの府主教	-12.3469
キンギョ	-12.3469
クトゥルフ神話	-12.3469
グラフィックデザイナー	-12.3469
コブクロの曲	-12.3469
コンスタンディヌーポリ総主教	-12.3469
コープランド	-12.3469
ゴスペラーズの曲	-12.3469
冷	-12.3469
千宗室	-12.3469
愛知県中島郡	-12.3469
愛知県丹羽郡	-12.3469
愛知県八名郡	-12.3469
愛知県南設楽郡	-12.3469
愛知県宝飯郡	-12.3469
愛知県幡豆郡	-12.3469
愛知県知多郡	-12.3469
愛知県碧海郡	-12.3469
愛知県額田郡	-12.3469
推理小説	-12.3469
揚陸指揮艦	-12.3469
撮影監督	-12.3469
数式処理システム	-12.3469
敷設艇	-12.3469
斉藤和義の曲	-12.3469
斉藤由貴のアルバム	-12.3469
料理研究家	-12.3469
新垣結衣の曲	-12.3469
新潟県南蒲原郡	-12.3469
新潟県東蒲原郡	-12.3469
新潟県西蒲原郡	-12.3469
日系人	-12.3469
旭日の艦隊	-12.3469
春日部市	-12.3469
時房流	-12.3469
木村カエラの曲	-12.3469
村下孝蔵の曲	-12.3469
東ティモール	-12.3469
東京事変の映像作品	-12.3469
松山千春のアルバム	-12.3469
松田聖子のアルバム	-12.3469
松田聖子の曲	-12.3469
枢機卿	-12.3469
柔然	-12.3469
柴咲コウの曲	-12.3469
桜沢エリカ	-12.3469
森高千里の曲	-12.3469
植村花菜の曲	-12.3469
榊原ゆいの曲	-12.3469
槇原敬之のアルバム	-12.3469
槍	-12.3469
民族衣装	-12.3469
気象予報士	-12.3469
江戸川乱歩	-12.3469
沢田研二のアルバム	-12.3469
河合奈保子のアルバム	-12.3469
河合奈保子の曲	-12.3469
浅香唯の曲	-12.3469
浜崎あゆみの曲	-12.3469
浜田麻里のアルバム	-12.3469
海防戦艦	-12.3469
渡辺美里のアルバム	-12.3469
演歌歌手	-12.3469
燃料	-12.3469
特殊潜航艇	-12.3469
鶏	-12.3469
2|200.25.23	-12.3469
▁インフォメーション	-12.3469
たぬき	-12.3469
アンゴラ	-12.3469
クレヨンしんちゃん	-12.3469
サウンドトラック	-12.3469
奇妙な	-12.3469
水雷艇	-12.3469
第一次世界大戦	-12.3469
迫	-12.3469
鴨	-12.3469
Berryz	-12.3469
ZERO	-12.3469
▁calculation	-12.3469
ざいだん	-12.3469
で初めて	-12.3469
アイオワ州アダムズ郡	-12.3469
エストニア	-12.3469
カスティーリャ王妃	-12.3469
ギリシャ王妃	-12.3469
コンティ公	-12.3469
スローンズ	-12.3469
チェロ協奏曲	-12.3469
マヤ暦	-12.3469
ミサイル艇	-12.3469
ラーメン店	-12.3469
ロバーツ	-12.3469
千夜一夜物語	-12.3469
日本史学者	-12.3469
梅若	-12.3469
橘型駆逐艦	-12.3469
武蔵村山市	-12.3469
洋画家	-12.3469
狼	-12.3469
瑞穂	-12.3469
ふたり	-12.3469
エリトリア	-12.3469
グレナダ	-12.3469
ワイオミング州	-12.3469
年の舞台	-12.3469
文芸誌	-12.3469
新潟県三島郡	-12.3469
潜水艇	-12.3469
2|179.185.6	-12.3469
Falcon	-12.3469
お笑い芸人	-12.3469
グラフ理論	-12.3469
三国志	-12.3469
指揮者	-12.3469
筋肉	-12.3469
2|84.54.13	-12.3469
Heart	-12.3469
ラインバッカー	-12.3469
捕手	-12.3469
東海道新幹線	-12.3469
アストゥリアス王	-12.3469
愛知県愛知郡	-12.3469
感染症	-12.3469
東広島市	-12.3469
2|202.150.1	-12.3469
FOREVER	-12.3469
positive	-12.3469
すくみず	-12.3469
むつ市	-12.3469
スタジオ	-12.3469
保護解除依頼	-12.3469
恒星	-12.3469
愛知県東春日井郡	-12.3469
映画プロデューサー	-12.3469
▁Fetch	-12.3469
エンジェルの登場人物	-12.3469
オートレース選手	-12.3469
キャバレー	-12.3469
クリップス	-12.3469
ツェッペリンの曲	-12.3469
ブルガリア	-12.3469
版画家	-12.3469
薬品	-12.3469
イスラエル空軍	-12.3469
オールバニ公	-12.3469
マドンナの曲	-12.3469
倶楽部	-12.3469
東海道本線	-12.3469
架空の怪獣	-12.3469
柏崎市	-12.3469
武蔵野市	-12.3469
歯学者	-12.3469
浦安市	-12.3469
瀋陽市	-12.3469
▁categoryHandler	-12.3469
ウルグアイ	-12.3469
しゅうなんしりつ	-12.3469
オアシスの曲	-12.3469
コンデ公	-12.3469
シトラス	-12.3469
栃木県勢	-12.3469
核爆弾	-12.3469
沼津市	-12.3469
argVal	-12.3469
ウェーバー	-12.3469
オリジナルビデオ	-12.3469
桁で指定された月を	-12.3469
LIFE	-12.3469
ウォルトン	-12.3469
キャリーのアルバム	-12.3469
ローマ神話	-12.3469
組合	-12.3469
▁preposition	-12.3469
アメリカのバンド	-12.3469
オートバイメーカー	-12.3469
レコードレーベル	-12.3469
格闘技イベント	-12.3469
Hisagi	-12.3469
イオアン	-12.3469
トーシン	-12.3469
ミサイル発射機	-12.3469
ロケットエンジン	-12.3469
不適切な	-12.3469
夫婦	-12.3469
戦車揚陸艦	-12.3469
2|169.	-12.3469
アイドルユニット	-12.3469
オンラインゲーム	-12.3469
オクラホマ州	-12.3469
ラッセル	-12.3469
投手	-12.3469
2|36.72.2	-12.3469
ゲームブランド	-12.3469
果実	-12.3469
デヴィッド	-12.3469
占有	-12.3469
江東区	-12.3469
2|187.155.	-12.3469
2|212.98.1	-12.3469
▁ndresult	-12.3469
アルゴイ	-12.3469
九郎	-12.3469
損	-12.3469
旅客船	-12.3469
青蓮寺	-12.3469
ハントのアルバム	-12.3469
ローマ地下鉄	-12.3469
有田市	-12.3469
機械要素	-12.3469
機関砲	-12.3469
工房	-12.3469
時計メーカー	-12.3469
集積	-12.3469
renderList	-12.3469
児童福祉	-12.3469
湯沢市	-12.3469
線維	-12.3469
2|186.250.	-12.3469
ブライアン	-12.3469
マーシア王	-12.3469
戦国時代	-12.3469
火曜日	-12.3469
総選挙	-12.3469
|{{{1}}}|{{{2}}}	-12.3469
▁supported	-12.3469
イギリスのバンド	-12.3469
シューマン	-12.3469
旭川市	-12.3469
柏原市	-12.3469
ドジャース	-12.3469
2|222.184.	-12.3469
アニメ制作会社	-12.3469
文化人類学者	-12.3469
しんこうつう	-12.3469
そのうちに	-12.3469
アキのアルバム	-12.3469
少帝	-12.3469
性行為	-12.3469
マシュー	-12.3469
ロンドン地下鉄	-12.3469
放送作家	-12.3469
由美子	-12.3469
ユダ王	-12.3469
2|195.178.	-12.3469
タタール	-12.3469
安易に	-12.3469
月のクレーター	-12.3469
エピロス王	-12.3469
削除提案	-12.3469
さだまさしのアルバム	-12.3469
遼の政治家	-12.3469
新宮市	-12.3469
サザンクロス	-12.3469
オックスフォード大学	-12.3469
ミヨー	-12.3469
伝統	-12.3469
教育学者	-12.3469
法廷	-12.3469
アーツ	-12.3469
レオン王	-12.3469
勝呂	-12.3469
ルーセル	-12.3469
東魏	-12.3469
秀樹	-12.3469
ウェセックス王	-12.3469
ムックのアルバム	-12.3469
旅館	-12.3469
ニコライ	-12.3469
独立リーグ	-12.3469
ゲームブック	-12.3469
ラッパー	-12.3469
白鳥神社	-12.3469
エレファントカシマシの曲	-12.3469
清水翔太の曲	-12.3469
アラゴン王	-12.3469
51.121.	-12.3469
ロシア空軍	-12.3469
ロレーヌ公	-12.3469
戸田市	-12.3469
李朝	-12.3469
海軍軍人	-12.3469
アイドルグループ	-12.3469
年のミュージカル	-12.3469
▁labor	-12.3469
スクラップ	-12.3469
流山市	-12.3469
親王	-12.3469
▁tidyValDefault	-12.3469
エルガー	-12.3469
マルクス	-12.3469
ジャンヌ	-12.3469
八十八	-12.3469
架空の生物	-12.3469
ケベック州	-12.3469
コロンビア軍	-12.3469
メリット	-12.3469
歌手グループ	-12.3469
アニメ演出家	-12.3469
天文学	-12.3469
リヒテンシュタイン公	-12.3469
アメリカ文学者	-12.3469
発電所	-12.3469
北条時	-12.3469
段階	-12.3469
石川県第	-12.3469
東松山市	-12.3469
商事	-12.3469
さだまさしの曲	-12.3469
成漢	-12.3469
チャーチル	-12.3469
等級	-12.3469
ブラッド	-12.3469
天津	-12.3469
で使用している	-12.3469
ボルボーン	-12.3469
2|119.252.1	-12.347
速度	-12.347
武器	-12.347
松江市	-12.347
関西	-12.347
▁next	-12.347
イスラエル王	-12.347
通常版	-12.347
カードゲーム	-12.347
٢٢٥	-12.347
٥	-12.347
٨	-12.347
ムックの曲	-12.347
行われています	-12.347
しんごうじょう	-12.347
キエフ州	-12.347
東栄町	-12.347
自由連合	-12.347
野球場	-12.347
٤	-12.347
٧	-12.347
unbulleted	-12.347
ウース	-12.347
レユニオン	-12.347
٢	-12.347
グリーグ	-12.347
漫画雑誌	-12.347
馬場	-12.347
架空のキャラクター	-12.347
水曜日	-12.347
٩	-12.347
木曜日	-12.347
ヨウ	-12.347
法曹	-12.347
ガガの曲	-12.347
つまり	-12.347
池田市	-12.347
金剛	-12.347
ペルシア語	-12.347
情報工学者	-12.347
尾市	-12.347
ある程度	-12.347
進行	-12.347
戦隊	-12.347
ささべ	-12.347
になって	-12.347
itemStyle	-12.347
政治団体	-12.347
旭市	-12.347
NEWS	-12.347
ブック	-12.347
第一引数	-12.347
笹谷	-12.347
新神戸	-12.347
前夜	-12.347
ガーナ	-12.347
北海道道	-12.347
鉱山	-12.347
日本のバンド	-12.347
4.213.1	-12.3471
型潜水艦	-12.3471
歴史家	-12.3471
トランス	-12.3471
新宗教	-12.3471
ビーチ	-12.3471
バーク	-12.3471
[0]	-12.3471
直後	-12.3471
里見	-12.3471
削除依頼中の	-12.3471
ヴュルテンベルク公	-12.3471
ノルウェー語	-12.3471
ゲーム機	-12.3471
東ドイツ	-12.3472
ハリス	-12.3472
世の子	-12.3472
ジャクソンの曲	-12.3472
民国	-12.3472
バット	-12.3472
ウェブブラウザ	-12.3472
▁hold	-12.3472
ユニオン	-12.3472
eprecated	-12.3472
97.134.	-12.3472
就任	-12.3472
ら行	-12.3472
都市型	-12.3472
アンハルト公	-12.3472
ステーション	-12.3473
[/\0]',	-12.3473
アリスの曲	-12.3473
2|110.170.	-12.3473
release	-12.3473
もっと	-12.3473
こうじょう	-12.3473
ジョンのアルバム	-12.3474
▁cfgTables	-12.3474
プロジェクトについて	-12.3474
の処置	-12.3474
もんだい	-12.3474
ブリッジ	-12.3474
ルーマニア語	-12.3474
ケイト	-12.3474
ま行	-12.3474
新古	-12.3474
▁1928	-12.3474
アイアン	-12.3474
新光	-12.3475
川口	-12.3475
高木	-12.3475
1.125.	-12.3475
北区	-12.3475
路線	-12.3476
ませんでした	-12.3476
安全	-12.3476
明和	-12.3476
Song	-12.3476
じゅうみん	-12.3476
listStyle	-12.3476
アベ	-12.3476
白人	-12.3476
lua	-12.3477
:#00	-12.3477
ubjectNamespaces	-12.3477
コピーライター	-12.3477
今日は	-12.3477
255	-12.3477
な行	-12.3478
▁inext	-12.3478
0.44.1	-12.3478
マルガレー	-12.3478
バール	-12.3478
_(1900	-12.3479
まあ	-12.3479
Skip	-12.348
北東	-12.348
_(1906	-12.348
9.250	-12.3481
泉北高速鉄道	-12.3482
|2097	-12.3482
DAY	-12.3483
前線	-12.3483
人生	-12.3483
ッサウ	-12.3483
前駅	-12.3484
▁1918	-12.3484
-2	-12.3484
なん	-12.3484
2|54.20	-12.3484
ベースボール	-12.3485
議論中	-12.3485
ライオン	-12.3485
▁nsid	-12.3485
王子	-12.3486
デリー	-12.3486
翌日	-12.3486
▁imageSize	-12.3487
55.9	-12.3488
情報番組	-12.3489
ied	-12.3489
せんむ	-12.349
248.7	-12.349
48.16	-12.349
typeImage	-12.3491
神田	-12.3492
ックを	-12.3492
対象と	-12.3492
78.17	-12.3492
|2={{	-12.3493
tables	-12.3493
が丘	-12.3494
▁お	-12.3494
でのみ	-12.3495
を明記する	-12.3496
Vis	-12.3496
今後	-12.3496
typeClass	-12.3497
}}}|2={{	-12.3497
2|177.5	-12.3499
ることもできます	-12.35
大原	-12.3501
編集合戦	-12.3502
散	-12.3503
|2095	-12.3503
2|46.105.152.10	-12.3503
の海戦	-12.3506
▁1949	-12.3507
Args	-12.3508
0:1:1	-12.3509
せいぎょ	-12.3511
けいざい	-12.3511
酸	-12.3511
_(1919	-12.3511
十分	-12.3512
▁arrays	-12.3513
44.14	-12.3513
ウリ	-12.3513
他の方	-12.3515
nothing	-12.3515
▁colfooter	-12.3516
春日	-12.3517
000:10	-12.3518
約束	-12.3519
2|209	-12.3519
▁誤った	-12.3521
Life	-12.3521
8.91.23	-12.3521
2|46.105.152.9	-12.3522
る文字列を	-12.3522
6.197	-12.3523
Mk	-12.3524
の領域	-12.3525
2|104.	-12.3525
の森	-12.3526
3.65.	-12.3526
しょうろう	-12.353
暦と	-12.3531
あなたの	-12.3532
の名前	-12.3533
ハイチ	-12.3533
おんな	-12.3535
paramsToCheck	-12.3538
.179.	-12.3539
3.170.	-12.354
2|103.18.	-12.3544
日本文学者	-12.3545
からです	-12.3545
指	-12.3547
12.16	-12.3548
▁per	-12.3554
ちいき	-12.3554
をさ	-12.3555
新婚	-12.3555
ほく	-12.3555
、201	-12.356
イヤー	-12.356
2|203.76.1	-12.3561
9.47.	-12.3563
2|92.222.237.9	-12.3563
リャ	-12.3564
213	-12.3565
2|52.7	-12.3565
せんもんか	-12.3566
ほけん	-12.3566
ハード	-12.3568
もち	-12.3569
せんぶ	-12.3572
表記	-12.3572
3.66	-12.3573
2|121.2	-12.3575
いくつ	-12.3578
9.36.2	-12.3578
ーリントン	-12.3578
さいぼう	-12.3581
2.130	-12.3585
1.133	-12.3586
白石	-12.3587
じゅうたく	-12.3587
Para	-12.3588
1:3	-12.3589
しゅうえき	-12.3589
Size	-12.3589
4604	-12.359
▁language	-12.3591
土曜日	-12.3591
保護テンプレート	-12.3592
だった	-12.3592
山城	-12.3592
nformation	-12.3593
2|203.	-12.3596
58.51	-12.3597
dataPage	-12.3597
ジョナ	-12.3599
キラ	-12.3601
ドラゴン	-12.3601
2'''	-12.3601
67.23	-12.3601
東村	-12.3603
2|188.168.2	-12.3603
▁そのため	-12.3605
しょうく	-12.3606
RB	-12.3607
0.151	-12.3609
▁23-	-12.3611
洋一	-12.3614
192.179	-12.3615
ty	-12.3616
はんざい	-12.3618
2|159.	-12.362
記事を	-12.362
ho	-12.3621
.180.24	-12.3621
慎	-12.3623
17.45.	-12.3625
▁te	-12.3625
おんせん	-12.3625
ED	-12.3626
{{!}}	-12.3626
)』	-12.3627
2|121.4	-12.363
西区	-12.3632
▁>	-12.3632
等の	-12.3633
と変	-12.3633
nodiv	-12.3636
236.25	-12.3636
2|41.7	-12.3641
デン	-12.365
ッシュ	-12.365
それで	-12.365
よね	-12.365
2|41.87.	-12.3652
:|2|{{{1}}}	-12.3652
4.23	-12.3655
2.226	-12.3656
検	-12.3656
ぶる	-12.3659
25.6	-12.3663
1''	-12.3663
シス	-12.3665
53.151	-12.3668
ですよね	-12.3668
要約欄に	-12.367
tT	-12.367
豪	-12.3671
▁風物詩	-12.3674
81.2	-12.3674
ラロ	-12.3675
意見を	-12.3675
▁mergeArgs	-12.3675
アリア	-12.3676
▁*<	-12.3678
▁even	-12.368
7.68	-12.368
4')	-12.3681
CS	-12.3682
IT	-12.3687
2011-11	-12.3687
▁1945	-12.3687
▁columns	-12.3687
editnotice	-12.3688
)|2	-12.3689
▁ex	-12.369
est	-12.3691
宝島	-12.3691
▁numbers	-12.3692
|2067	-12.3692
ルージュ	-12.3695
▁ha	-12.3697
の内部で	-12.3698
2|201.20	-12.3698
That	-12.37
AR	-12.3701
▁'3	-12.3704
オル	-12.3709
テンプレートが	-12.371
キッド	-12.3713
-2010	-12.3713
かり	-12.3715
普通	-12.3715
2|174.	-12.3716
209.237.2	-12.3717
に参加し	-12.3718
フロント	-12.3722
南朝	-12.3723
40.13	-12.3727
づい	-12.3727
オト	-12.3728
|2056	-12.3732
2|189.4	-12.3733
クターとして扱われている場合と	-12.3735
▁1995	-12.3742
▁alter	-12.3743
▁Parameter	-12.3744
MO	-12.3745
_-_197	-12.3747
ささお	-12.3754
日本時間	-12.3756
夏の	-12.3757
帰	-12.3759
ated	-12.3759
のは	-12.3763
'):	-12.3765
項目候補	-12.3767
吉村	-12.3769
や行	-12.3775
正義	-12.3775
金曜日	-12.3776
いりょう	-12.3776
将来	-12.3777
.230.5	-12.3779
▁(''	-12.3781
FM	-12.3781
崩れ	-12.3782
しょうゆう	-12.3784
ム語	-12.3796
di	-12.3797
9.63.4	-12.38
としこ	-12.3802
.212.9	-12.3806
エンリ	-12.3807
2|190.5	-12.3809
2|103.5	-12.3817
ばし	-12.3819
▁06:	-12.3823
キス	-12.3828
▁戦列艦	-12.3829
クレー	-12.3829
OD	-12.3829
0.28.1	-12.3829
書いて	-12.383
チョウ	-12.3833
佑	-12.3836
秋の	-12.3837
▁署名	-12.3839
ヒム	-12.3839
ひゃく	-12.3842
:]]<!--1	-12.3842
クリスティ	-12.3845
▁15-	-12.3846
|2090	-12.385
ロフ	-12.3852
デモ	-12.3853
アート	-12.3856
ナン	-12.3857
42.19	-12.386
ビュ	-12.3863
east	-12.3863
{{{5|}}}|	-12.3865
ヴォー	-12.3869
じょうおん	-12.3869
第三	-12.387
カイリ	-12.3871
私の	-12.3876
_-_200	-12.3886
情報を	-12.3886
1.6	-12.3888
▁na	-12.3891
2|181.21	-12.3894
2|112.78.1	-12.3894
キャッシュ	-12.39
232	-12.391
▁newArgs	-12.3912
▁templateSort	-12.3912
アメ	-12.3913
高田	-12.3914
▁templateName	-12.3915
春の	-12.3918
:800	-12.3923
川駅	-12.3927
紹介	-12.3927
宋	-12.393
もある	-12.3931
▁textCell	-12.3931
をお願いします	-12.3934
続	-12.3937
2|195.6	-12.3943
SH	-12.3943
。'	-12.3944
広島	-12.3945
勝寺	-12.3946
療法	-12.3953
よって	-12.3957
2|117.21	-12.3958
▁また	-12.3958
95.78	-12.396
ぜんい	-12.396
▁15:3	-12.396
克	-12.3962
はまだ	-12.3966
国語	-12.3971
DS	-12.398
電鉄	-12.3985
ツィ	-12.3985
RE	-12.3988
ナイ	-12.3988
2|219.1	-12.3991
としより	-12.3991
7.78	-12.3993
97.	-12.4007
じゅうみんきほんだいちょう	-12.4008
考え	-12.4008
じょうぐう	-12.4024
特別編	-12.4027
ubstituted	-12.4028
*)$'	-12.4034
ハウ	-12.4035
健一	-12.4037
尾上	-12.4037
21.18	-12.4039
1|}}}|{{{1}}}|{{	-12.4042
じゃない	-12.4043
ード	-12.4045
行った	-12.4045
ッタ	-12.4045
ヴェイ	-12.4048
マルコ	-12.4051
2|92.222.237.11	-12.4059
をそのまま使	-12.4061
▁lea	-12.4064
▁ra	-12.4065
ful	-12.4073
2|186.225.	-12.4074
2|115.1	-12.4074
新着	-12.4077
こうか	-12.4079
いな	-12.408
平県	-12.4082
84	-12.4087
が必要な	-12.4088
pa	-12.4096
フライ	-12.4097
この他	-12.41
のぶ	-12.4101
パラメータを使用する	-12.4101
ープ	-12.4103
2|216.	-12.4104
好き	-12.4106
サラ	-12.4107
惑星	-12.4108
1.245	-12.4113
がた	-12.4114
初の	-12.4116
8.10	-12.4117
クロー	-12.4118
といった意	-12.4122
管理者の	-12.4123
40.5	-12.4127
▁{{{1}}}}}	-12.413
扱ってい	-12.4131
Cat	-12.4134
151.2	-12.4135
呼び出す	-12.4138
300	-12.4139
伸	-12.414
顔	-12.4143
の定理	-12.4152
たま	-12.4152
2|27.131.	-12.4153
するか	-12.4154
せんれい	-12.4157
の方	-12.4162
に応じ	-12.4163
|2045	-12.4164
ごるふ	-12.4167
ヴェル	-12.417
とした	-12.4171
ext	-12.4171
JA	-12.4171
ささおか	-12.4176
{1}}}}}|{{{1}}}	-12.4179
判断	-12.4179
ux	-12.4182
}}}}|0	-12.4186
ロミ	-12.4187
周南市立	-12.4191
7.190	-12.4193
3.40.1	-12.4197
生薬	-12.4204
847	-12.4205
rb	-12.4207
▁pa	-12.4218
クリア	-12.422
番号	-12.422
のアニメ映画	-12.4229
リッツ	-12.4233
アレン	-12.4233
0.199	-12.4237
にあ	-12.4237
}}}|{{	-12.4237
クロード	-12.4238
▁11:	-12.4241
▁read	-12.4244
ベー	-12.4246
▁behav	-12.4247
3.34	-12.4247
:64	-12.4247
下の	-12.4248
che	-12.425
87.7	-12.425
ないし	-12.4254
しょうすい	-12.4254
4.230	-12.4254
ロウ	-12.4254
そく	-12.4262
">[	-12.4263
ニス	-12.4265
2|81.2	-12.427
大分県	-12.4272
を受け	-12.4275
Ne	-12.4278
されました	-12.4279
チャイ	-12.4293
}}}|{{{1}}}}}	-12.4294
ーレ	-12.4294
にテキスト	-12.4294
sv	-12.4301
関東	-12.4303
maincat	-12.4305
市場	-12.4305
3.4	-12.4305
新郷村	-12.4309
、&	-12.431
岩手県	-12.432
参	-12.432
▁back	-12.4322
2|89.4	-12.4325
んのう	-12.4328
看護	-12.4329
うち	-12.4333
野田	-12.4333
あん	-12.4334
isS	-12.4334
EC	-12.4339
イオン	-12.4339
ってい	-12.434
べき	-12.4343
▁15:5	-12.4343
括弧	-12.4344
";	-12.435
バーグ	-12.4352
▁Al	-12.4355
▁ba	-12.436
コンテンツ	-12.4362
ole	-12.4365
LE	-12.4374
韓国の	-12.438
wa	-12.4382
オロ	-12.4384
エー	-12.4388
ドゥー	-12.4389
▁talkText	-12.4392
we	-12.4396
スカ	-12.4401
マニ	-12.4401
_]*	-12.4404
53.23	-12.4409
13}}	-12.4411
ウォー	-12.4415
ラス	-12.4421
▁27	-12.4423
イケ	-12.4428
:|	-12.4436
tn	-12.4436
週間	-12.4437
民党	-12.4443
こい	-12.4446
小島	-12.4447
2]	-12.4447
(「	-12.4449
ローン	-12.4456
マク	-12.4461
表現	-12.4461
ブラウザ	-12.4465
シチリ	-12.4467
0.241.	-12.4468
235	-12.4471
▁tri	-12.4474
1917	-12.4475
ik	-12.4475
ぼく	-12.4477
2|177.39.1	-12.4481
姉妹プロジェクト	-12.4483
fil	-12.4485
}}]]}}	-12.4485
▁智	-12.4492
を選択	-12.4494
海外	-12.4494
1}}</	-12.4497
▁tw	-12.4499
させる	-12.4504
された場合に	-12.451
51.3	-12.4512
jan	-12.4516
合意	-12.4518
どお	-12.4518
さら	-12.4522
のような	-12.4522
教員	-12.4524
トゥル	-12.4524
hen	-12.4527
打	-12.4528
イラ	-12.453
mt	-12.453
天使	-12.4532
▁argKeys	-12.4535
84.14	-12.4539
しんこうせい	-12.454
の確認	-12.4541
alled	-12.4542
1()	-12.4542
.237.23	-12.4545
ered	-12.4554
救	-12.4556
2|181.19	-12.4557
([[1	-12.4559
ng	-12.4562
▁{{{1|}}}	-12.4563
▁ar	-12.4568
ータ	-12.4573
成立	-12.4574
sputed	-12.458
place	-12.4583
9.111.1	-12.4594
▁history	-12.4595
地下鉄	-12.4597
市村	-12.4601
aki	-12.4609
クー	-12.4609
審	-12.4613
▁boxTable	-12.4613
2000	-12.4614
向け	-12.4618
elect	-12.4619
DO	-12.4625
▁です	-12.4631
▁cho	-12.4631
9.12	-12.4635
なくなり	-12.4635
じょうほう	-12.4639
▁08:2	-12.4641
-5	-12.4642
3.3.	-12.4644
.137.1	-12.4649
を使っている	-12.4659
69}}	-12.4667
しゅうえい	-12.4669
▁水	-12.4681
▁タイトル	-12.4685
らく	-12.4686
+$'	-12.4689
cats	-12.4691
サント	-12.4692
▁backtranslate	-12.4694
ast	-12.4696
}}|-	-12.4701
9.122	-12.4707
ために	-12.4709
ロマ	-12.4712
2|183.89.	-12.4713
201.15	-12.4714
'],	-12.4715
いる	-12.472
改善	-12.4721
フェル	-12.4721
の神	-12.4721
小屋	-12.4722
川線	-12.4725
中島	-12.4725
本来	-12.4727
63.14	-12.4729
コロン	-12.473
西川	-12.4731
と思われる	-12.4738
60;	-12.4741
ましたが	-12.475
げき	-12.4751
山の	-12.4752
静岡	-12.4752
りか	-12.4753
が無く	-12.4753
ソー	-12.476
美智子	-12.4762
209	-12.4763
火星	-12.4765
PC	-12.4767
890	-12.4771
急	-12.4775
と思われます	-12.4781
じゅうぶ	-12.4786
シオ	-12.48
いき	-12.4801
境界	-12.4804
社会学	-12.4804
んせい	-12.4805
124	-12.4807
8.44	-12.481
工藤	-12.4811
和子	-12.4812
Header	-12.4814
攻	-12.4817
いす	-12.4818
goo	-12.4821
冬	-12.4823
ティル	-12.4824
72.13	-12.4827
ブリ	-12.4832
2|213.1	-12.4832
さんの	-12.4833
議	-12.4834
2|114.	-12.4837
上位	-12.4837
の行政区	-12.4848
_(20	-12.4851
カナ	-12.4852
▁|}}<	-12.4856
実際	-12.4857
このページ	-12.4858
リオン	-12.4862
っと	-12.4865
共	-12.4865
都市開発	-12.4866
ki	-12.4883
ファイア	-12.4884
そちら	-12.4884
画像が	-12.4885
トリック	-12.4887
ビジュアル	-12.4887
2|177.18	-12.4889
物理	-12.4891
イヌ	-12.4894
対応してい	-12.4895
設	-12.4895
リーナ	-12.4895
usercat	-12.4899
にはその	-12.4899
カスティーリャ王	-12.4901
ウイルス	-12.4902
アーカンソー州	-12.4902
ペラ	-12.4904
アイオワ州	-12.4905
ラッシュ	-12.4905
ケベック	-12.4906
マーシャル	-12.4909
アダルトビデオ	-12.491
大塚	-12.4911
マスコット	-12.4912
しゅうけい	-12.4912
モロッコ	-12.4912
.59.5	-12.4912
法学	-12.4914
175	-12.4914
ロシア海軍	-12.4915
_-	-12.4916
nav	-12.4916
マサチューセッツ州	-12.4916
ルクセンブルク大公	-12.4916
オーストリア大公	-12.4916
民謡	-12.4917
オルレアン公	-12.4918
.38.2	-12.4918
FEE	-12.4918
ヴェーザー	-12.4918
河内長野市	-12.4918
リャザン公	-12.4918
オラニエ公	-12.4919
ギリシャ軍	-12.4919
コンサート	-12.4919
エルサレム	-12.4919
ケンタッキー州	-12.4919
いわき市	-12.492
マーベル	-12.492
メイン州	-12.492
樺太	-12.4921
打楽器	-12.4921
播磨国	-12.4921
熊野市	-12.4922
コネチカット州	-12.4922
メリーランド州	-12.4922
キエフ大公	-12.4922
アパレル	-12.4922
昆虫	-12.4924
狂言	-12.4924
江戸川区	-12.4924
摂津国	-12.4925
模型	-12.4925
アニメーション	-12.4926
|2091	-12.4926
2.177.1	-12.4927
グラン	-12.4929
新上五島町	-12.493
ワード	-12.4935
ファイル名を	-12.4937
>|-	-12.4939
▁12:	-12.4944
アドレス	-12.4949
ーブ	-12.4959
木星	-12.4961
テンプレートの内部で使用している	-12.4964
▁lu	-12.4965
ヤー	-12.4968
2|112.78.	-12.4972
ちく	-12.4972
フジ	-12.4975
▁qu	-12.4976
ust	-12.4977
必要がある	-12.4981
ダイ	-12.4985
菌	-12.4985
stic	-12.4987
_(170	-12.4989
4.68	-12.4989
グリム童話	-12.499
カンボジア	-12.499
マレー鉄道	-12.499
colwidth	-12.4991
▁X	-12.4991
boxArgs	-12.4992
cu	-12.4992
海王星	-12.4992
指宿市	-12.4992
津島市	-12.4993
:'	-12.4993
エチオピア	-12.4993
戦国	-12.4994
浜松市	-12.4998
激	-12.4999
▁東京	-12.4999
ka	-12.5001
派閥	-12.5004
アヴ	-12.5005
▁On	-12.5006
ばい	-12.5011
bad	-12.5015
興寺	-12.5018
コソボ	-12.5019
ナチス	-12.5019
eE	-12.5019
アキ	-12.502
揚	-12.502
▁red	-12.5022
ISO	-12.5027
Go	-12.5028
の前に	-12.5029
あ行	-12.5031
デフォルトは	-12.5031
署名	-12.5035
富山	-12.5035
Japan	-12.5037
1901	-12.5037
123	-12.5042
じゅうよん	-12.5045
西武	-12.5045
4.6	-12.5047
Language	-12.5048
た行	-12.5048
origArgs	-12.5049
offset	-12.505
alias	-12.505
({{{	-12.505
limit	-12.5051
ないでしょうか	-12.5053
カブ	-12.5054
merge	-12.5061
.58	-12.5062
ライド	-12.5063
ランス	-12.5065
null	-12.507
-04	-12.5071
8.162	-12.5073
継承	-12.5073
34.13	-12.5073
ノス	-12.5074
24.155.1	-12.5074
検討して	-12.5075
このページは	-12.5076
=6260	-12.5076
サイン	-12.5077
スクリ	-12.5084
ブロ	-12.5084
39.15	-12.5085
▁176	-12.5087
マルティ	-12.5088
・10	-12.5089
はエラー	-12.5094
rl	-12.5095
利用者ページ	-12.5098
3.116	-12.5102
:|6|{{{1}}}	-12.5104
なのでしょうか	-12.5104
することもできます	-12.5106
>)	-12.5106
82.17	-12.5112
画像の	-12.5116
OF	-12.5119
▁cons	-12.512
ゼル	-12.5121
ケント	-12.5122
;<	-12.5126
/2006	-12.5127
岡山県の	-12.5131
スフ	-12.5138
▁kh	-12.5138
るい	-12.5141
アサ	-12.5143
PM	-12.5146
マケドニア	-12.5147
王朝	-12.5151
ンガ語	-12.5154
正人	-12.5155
テンプレートに	-12.5161
ッター	-12.5163
titlegroup	-12.5163
ather	-12.5166
兵庫県の	-12.5168
るのですが	-12.517
.150.11	-12.5172
他の新しい	-12.5173
わん	-12.5178
カレ	-12.5182
の方が	-12.5183
2088	-12.5186
=583	-12.5187
{{{1}}}	-12.5187
ないと思います	-12.5187
東山	-12.5187
一部	-12.5187
2.182	-12.5189
港湾	-12.519
2.84.	-12.519
るものは	-12.519
2|10	-12.5201
せいき	-12.5205
%3	-12.5209
学者	-12.5212
しょうらく	-12.5217
?)	-12.5217
▁国立天文台	-12.5219
2|193.17	-12.522
べん	-12.5221
2.216.1	-12.5222
1.243.5	-12.5222
内容で	-12.5222
2.174	-12.5223
%">'''	-12.5231
ヨット	-12.5232
リク	-12.5234
ig	-12.5241
水素	-12.5244
栗	-12.5245
異	-12.5247
SM	-12.5248
ーク	-12.5248
shi	-12.5251
9.56	-12.5251
の都市	-12.5253
ハリ	-12.5255
▁15:4	-12.5257
209.15	-12.5259
まつ	-12.5259
味合い	-12.526
row	-12.5261
▁{{{1|	-12.5268
善意	-12.5268
2|31.184.242.	-12.5281
を使用し	-12.5282
文学研究者	-12.5282
姓	-12.5282
2|31.18	-12.5283
.50.1	-12.5284
慈	-12.5285
可能な	-12.5286
死亡	-12.5286
熊野	-12.5294
労働党	-12.5298
02.1	-12.5305
長野	-12.5305
|2008	-12.5308
78.3	-12.5311
吹	-12.5314
送	-12.5314
+3	-12.5318
、''	-12.5322
最終	-12.5324
やきゅう	-12.5326
感じ	-12.533
}}。[[	-12.5333
を自動	-12.5334
バート	-12.5336
しゅうち	-12.5339
コミ	-12.5341
46.24	-12.5343
もと	-12.5345
マス	-12.5345
▁ab	-12.5348
松山	-12.535
▁1933	-12.5355
キリ	-12.5355
峯	-12.5358
差	-12.5359
2|222.124.1	-12.5362
諸	-12.5362
▁1996	-12.5366
().	-12.5369
2|115.11	-12.537
.173.	-12.5376
ボール	-12.5376
irst	-12.5378
吉野	-12.5379
せんく	-12.5379
et	-12.5381
+({{{	-12.5381
としまそんりつ	-12.5386
値が	-12.5389
▁custom	-12.539
ニング	-12.5391
1989	-12.5397
cs	-12.5397
使用する	-12.5398
せんち	-12.5399
2|122.15	-12.54
ンディー	-12.54
鳴	-12.5402
8:22	-12.5405
US	-12.5409
of	-12.5409
36.21	-12.5413
キュ	-12.5414
.152.1	-12.5414
いかがでしょうか	-12.5415
▁convert	-12.5418
どちら	-12.542
くら	-12.5421
山脈	-12.5421
保護されています	-12.5422
電気鉄道	-12.5425
TOP	-12.5426
話題	-12.5426
クレ	-12.5431
合戦	-12.5432
希望	-12.5432
秘	-12.5432
|}}|{{{2|}}}|	-12.5435
2|178.2	-12.5436
戻し	-12.5437
38.12	-12.5437
せんでん	-12.5438
づか	-12.5438
放	-12.5438
=5|	-12.5439
2|219.	-12.5439
▁画像を	-12.5439
首	-12.5443
巻	-12.5443
墓	-12.5444
飯田	-12.5445
III	-12.5446
求	-12.5446
空間	-12.5446
どうでしょう	-12.5446
じゅうななさい	-12.5447
即位	-12.5448
しょうめつ	-12.5448
宮城	-12.5449
スペース	-12.5451
儀	-12.5451
演	-12.5451
ハルト	-12.5453
着	-12.5455
適切な	-12.5457
特殊効果	-12.5458
方向	-12.5458
石原	-12.5458
じゅうぐん	-12.5459
然	-12.5459
4.238.	-12.546
ぜっ	-12.546
問	-12.5462
我	-12.5463
105.17	-12.5463
ベトナム	-12.5464
NUMBER	-12.5464
辺	-12.5464
ポルトガル	-12.5464
境	-12.5464
ささやかな	-12.5465
考	-12.5465
施行	-12.5465
跡	-12.5465
岐	-12.5465
寒	-12.5465
レンジャー	-12.5465
念	-12.5466
巨	-12.5466
訴	-12.5466
快	-12.5466
イーグル	-12.5466
▁follow	-12.5466
母	-12.5466
△△	-12.5466
習	-12.5466
虫	-12.5466
シュタイン	-12.5467
94.18	-12.5467
透	-12.5467
誘	-12.5467
服	-12.5467
竜	-12.5467
2|110.	-12.5467
bulleted	-12.5467
貫	-12.5467
Head	-12.5467
クラシック	-12.5467
銀	-12.5467
願寺	-12.5467
乙	-12.5467
太平洋	-12.5467
お疲れ様で	-12.5468
標	-12.5468
島根県	-12.5468
0.114.22	-12.5468
倫理	-12.5468
徹	-12.5468
確かに	-12.5468
もちろん	-12.5468
観測	-12.5468
預	-12.5468
貿易	-12.5468
忍	-12.5468
準	-12.5468
圏	-12.5468
客	-12.5468
威	-12.5468
フィンランド語	-12.5468
洗	-12.5468
禁	-12.5468
構造	-12.5468
ポケットモンスター	-12.5468
リンカーン	-12.5468
マガジン	-12.5468
サザエ	-12.5468
びょういん	-12.5468
活動	-12.5468
邸	-12.5468
堅	-12.5468
撮影	-12.5468
漁	-12.5468
毒	-12.5468
祥	-12.5468
織田弾正忠家歴代当主	-12.5468
鋼	-12.5468
渓	-12.5468
許可	-12.5468
察	-12.5468
せんもんがっこうあなぶき	-12.5468
ゲオルギオス	-12.5468
帳	-12.5468
綱	-12.5468
コンサルタント	-12.5468
ファイターズ	-12.5468
フリゲート	-12.5468
聯	-12.5468
予想	-12.5468
筒	-12.5468
紹	-12.5468
軌道	-12.5468
37.6	-12.5468
劇団	-12.5468
懿	-12.5468
障害	-12.5468
ねこぱんだ	-12.5468
悟	-12.5468
ラテン文字	-12.5468
突	-12.5468
勲	-12.5468
復帰	-12.5468
戒	-12.5468
磐	-12.5468
カルロ	-12.5468
摩	-12.5468
消息	-12.5468
騒	-12.5468
Tokyo	-12.5468
拡	-12.5468
符	-12.5468
券	-12.5468
family	-12.5468
盗	-12.5468
夷	-12.5468
急行	-12.5468
自衛隊	-12.5468
納	-12.5468
麻雀	-12.5468
コンスタンティノープル	-12.5468
危機	-12.5468
狂	-12.5468
Tekune	-12.5468
ちなみに	-12.5468
ゴーマニズム宣言	-12.5468
ベルリン	-12.5468
じゅうけいきどうこうつう	-12.5468
俣	-12.5468
幽	-12.5468
支持	-12.5468
柱	-12.5468
重慶軌道交通	-12.5468
アルデヒド	-12.5468
2|114.129.16.1	-12.5468
いんたー	-12.5468
せんもんがっこうさっぽろ	-12.5468
国立病院機構	-12.5468
殷	-12.5468
湘	-12.5468
笹ヶ峰	-12.5468
遷移	-12.5468
麦	-12.5468
と束縛変	-12.5468
アレクサンドロヴィチ	-12.5468
パシフィック	-12.5468
フランチェスコ	-12.5468
ロワイヤル	-12.5468
化合物	-12.5468
危険な	-12.5468
守護大名	-12.5468
尿	-12.5468
澄	-12.5468
神姫バス	-12.5468
秀逸な画像の推薦	-12.5468
私立大学	-12.5468
萬	-12.5468
醍醐	-12.5468
2|212.33.24	-12.5468
オペレッタ	-12.5468
キャッスル	-12.5468
マッケンジー	-12.5468
メナンドロス	-12.5468
ヤコブ	-12.5468
ヤロスラフ	-12.5468
代議院	-12.5468
抱きしめたい	-12.5468
月間感謝賞	-12.5468
混成語	-12.5468
爬虫類	-12.5468
葛	-12.5468
鍋	-12.5468
/>%1")	-12.5468
2|186.10.5.14	-12.5468
2|187.33.22	-12.5468
2|64.78.174.	-12.5468
2|87.117.68.11	-12.5468
Julian	-12.5468
▁again	-12.5468
▁behaviour	-12.5468
あきる野市	-12.5468
おねがいマイメロディ	-12.5468
が誤認識している可能性のある書式	-12.5468
ときがわ町	-12.5468
みやま市	-12.5468
アサルトライフル	-12.5468
アゼルバイジャン	-12.5468
アランソン公	-12.5468
アリューシャン列島	-12.5468
アレクセイ	-12.5468
アーケードゲーム基板	-12.5468
ウオッチ	-12.5468
オランウータン	-12.5468
オーロラ	-12.5468
オーヴェルニュ伯	-12.5468
ケレタロ州	-12.5468
コンカニ語	-12.5468
サンヒョンの曲	-12.5468
シュヴェリーン大公	-12.5468
ディビシオン	-12.5468
トーチ級潜水艦	-12.5468
ブリティッシュコロンビア州	-12.5468
プレスリーのアルバム	-12.5468
ホースシュー	-12.5468
マイクロアーキテクチャ	-12.5468
ミサイル追跡艦	-12.5468
ミネラルウォーター	-12.5468
モグーリスタン	-12.5468
レイジーのアルバム	-12.5468
ローヌ県	-12.5468
ワイドレシーバー	-12.5468
ヴァルデック侯	-12.5468
ヴィレッジ	-12.5468
全英女子オープン	-12.5468
勤	-12.5468
固有	-12.5468
奎	-12.5468
年下の男の子	-12.5468
弓	-12.5468
急設網艦	-12.5468
慶尚北道	-12.5468
慶尚南道	-12.5468
掃海艦	-12.5468
新温泉町	-12.5468
日本プロサッカーリーグ	-12.5468
望遠鏡	-12.5468
来迎寺	-12.5468
東海環状自動車道	-12.5468
東野圭吾	-12.5468
松田樹利亜のアルバム	-12.5468
松田樹利亜の曲	-12.5468
桑田佳祐の曲	-12.5468
水樹奈々の曲	-12.5468
泉佐野市	-12.5468
泉南市	-12.5468
泰安郡	-12.5468
渋滞	-12.5468
潮来市	-12.5468
琳	-12.5468
療養	-12.5468
聴	-12.5468
規制	-12.5468
Sweet	-12.5469
さよなら	-12.5469
エディンバラ公	-12.5469
カトリーヌ	-12.5469
デジモン	-12.5469
プログラミング	-12.5469
ボードゥアン	-12.5469
ポピュラー	-12.5469
ミャンマー	-12.5469
ワーグナー	-12.5469
廣	-12.5469
提督	-12.5469
朝鮮人民軍	-12.5469
柿	-12.5469
楼	-12.5469
浄土真宗	-12.5469
潤	-12.5469
照明技師	-12.5469
膜	-12.5469
貧	-12.5469
郭	-12.5469
餅	-12.5469
2|87.98.	-12.5469
じょうもうでんきてつどう	-12.5469
アレクサンドラ	-12.5469
アンダーグラフの曲	-12.5469
アーサー王伝説	-12.5469
ウラジーミル大公	-12.5469
ウラッハ公	-12.5469
エイジアのアルバム	-12.5469
オポーレ公	-12.5469
オレゴン州ビーバートン	-12.5469
キリトの曲	-12.5469
キンモクセイの曲	-12.5469
ケータイ小説家	-12.5469
コブクロのアルバム	-12.5469
コルンゴルト	-12.5469
コンサートツアー	-12.5469
スケジュール	-12.5469
バッファロー	-12.5469
メソポタミア神話	-12.5469
ラブレター	-12.5469
ヴィクトル	-12.5469
吸血鬼	-12.5469
恵那市	-12.5469
愛媛県温泉郡	-12.5469
愛知県西加茂郡	-12.5469
抄	-12.5469
斉藤和義のアルバム	-12.5469
新居昭乃のアルバム	-12.5469
東かがわ市	-12.5469
森山直太朗の曲	-12.5469
植民地	-12.5469
椎名へきるの曲	-12.5469
標的艦	-12.5469
横山光輝	-12.5469
永井真理子のアルバム	-12.5469
浄運寺	-12.5469
涼	-12.5469
湘南乃風の曲	-12.5469
粉	-12.5469
FIFA	-12.5469
カスティーリャ女王	-12.5469
コーポレーション	-12.5469
全員集合	-12.5469
爆破	-12.5469
肉体の	-12.5469
Collection	-12.5469
English	-12.5469
”	-12.5469
▁problem	-12.5469
が認識できない書式	-12.5469
を破棄	-12.5469
キル博士	-12.5469
マクシミリアン	-12.5469
マルゲリータ	-12.5469
マーフィー	-12.5469
モトクロス	-12.5469
モーモールルギャバンのアルバム	-12.5469
京急	-12.5469
保護の解除を依頼	-12.5469
外交官	-12.5469
東フランク王	-12.5469
秦皇島	-12.5469
良質ピックアップ	-12.5469
記事とは何か	-12.5469
謙	-12.5469
逃亡	-12.5469
_(1920-1924)]]	-12.5469
▁while	-12.5469
せんしゅけん	-12.5469
アリエ県	-12.5469
ウラジオストク	-12.5469
カンバーランド公	-12.5469
スマイル	-12.5469
ヤコブの子	-12.5469
咲	-12.5469
柳川市	-12.5469
極限	-12.5469
海軍長官	-12.5469
準惑星	-12.5469
蒸気機関車	-12.5469
顧問	-12.5469
東郷町	-12.5469
聖堂	-12.5469
COLOR	-12.5469
kyoto	-12.5469
イエスのアルバム	-12.5469
ギブソン	-12.5469
シドラ湾事件	-12.5469
ソフィア	-12.5469
ヘルツェゴビナ	-12.5469
坪	-12.5469
奨	-12.5469
妊娠	-12.5469
洞窟	-12.5469
オフセット	-12.5469
曹魏	-12.5469
札幌市中央区	-12.5469
絡	-12.5469
菌類	-12.5469
アンダーソン	-12.5469
イオンエンジン	-12.5469
チャップリン	-12.5469
メヒコ州	-12.5469
江南市	-12.5469
火星のクレーター	-12.5469
2|186.226.	-12.5469
カレンダー	-12.5469
ブリュッセル	-12.5469
常任	-12.5469
映像制作会社	-12.5469
洋菓子店	-12.5469
絨毛	-12.5469
設計	-12.5469
ェロン	-12.5469
オイゲン	-12.5469
朝鮮半島	-12.5469
浦添市	-12.5469
海南市	-12.5469
2|188.191.	-12.5469
83.62	-12.5469
Earth	-12.5469
シャトー	-12.5469
朝鮮の雑誌	-12.5469
東京ディズニーランド	-12.5469
熱力学	-12.5469
車両	-12.5469
鎌倉市	-12.5469
じどうれっしゃ	-12.5469
サザンカンフォート	-12.5469
収益	-12.5469
臭	-12.5469
飢	-12.5469
2|203.130.	-12.5469
あーつ	-12.5469
アテナイの将軍	-12.5469
ペルシャ	-12.5469
手動で	-12.5469
断絶	-12.5469
気象観測	-12.5469
プレゼント	-12.5469
リューション	-12.5469
学習	-12.5469
日野市	-12.5469
終端記号	-12.5469
クリケット選手	-12.5469
十四年式	-12.5469
映像技術	-12.5469
設備	-12.5469
ウィキデータ	-12.5469
ニコラエヴナ	-12.5469
マウント	-12.5469
5.186.1	-12.5469
マツダ	-12.5469
東ローマ皇帝	-12.5469
自由の森学園中学校	-12.5469
投稿ブロックの方針	-12.5469
ワルツ	-12.5469
任意の文字列	-12.5469
常総学院中学校	-12.5469
毎日放送	-12.5469
法律用語	-12.5469
阿弥	-12.5469
2|201.20.182.1	-12.5469
日本橋川	-12.5469
松戸市	-12.5469
検索エンジン	-12.5469
祥雲寺	-12.5469
電気軌道	-12.5469
つばさ	-12.5469
ロケット弾	-12.5469
ヴィクトリア	-12.5469
IGHT	-12.5469
ネパール	-12.5469
東ローマ皇后	-12.5469
賀茂	-12.5469
保育	-12.5469
拳銃	-12.5469
笹間	-12.5469
アゲイン	-12.5469
憲法学者	-12.5469
▁buffalo	-12.5469
ミゲル	-12.5469
型フリゲート	-12.5469
非対応	-12.5469
カッセル	-12.5469
ネルソン	-12.5469
フィッシュ	-12.5469
ナンシー	-12.5469
ロックミュージシャン	-12.5469
死刑	-12.5469
ショット	-12.5469
染色体	-12.5469
Citation	-12.5469
コモ県	-12.5469
そもそも	-12.5469
オレンジ	-12.5469
フィルム	-12.5469
ヴァール県	-12.5469
エレファントカシマシのアルバム	-12.5469
エーダー	-12.5469
識別子	-12.5469
機関銃	-12.5469
清水翔太のアルバム	-12.5469
終末期	-12.5469
航空事故	-12.5469
新竹県	-12.5469
コースター	-12.5469
子ども	-12.5469
自由変数	-12.5469
SUBST	-12.5469
三宅	-12.5469
SONG	-12.5469
北条氏	-12.5469
高速バス	-12.5469
カリーニングラード州	-12.5469
イギリス王女	-12.5469
気象学者	-12.5469
Otheruses	-12.5469
templateeditor	-12.5469
宣帝	-12.5469
弦楽四重奏曲第	-12.5469
金庫	-12.5469
真言	-12.5469
編集フィルター記録	-12.5469
香取	-12.5469
タクシー	-12.5469
ナンバー	-12.5469
映画評論家	-12.5469
おとめ	-12.5469
ベンジャ	-12.5469
音声	-12.5469
ハンブルク	-12.5469
野村万	-12.5469
新城市	-12.5469
浄蓮寺	-12.5469
細雪	-12.5469
▁improvement	-12.5469
ブレイク	-12.5469
通過	-12.5469
鳥類	-12.5469
低地	-12.5469
河原	-12.5469
ジョージタウン	-12.5469
92.6	-12.5469
健太郎	-12.5469
政権	-12.5469
都市再生	-12.5469
占い	-12.5469
太平洋戦争	-12.5469
ヘルマン	-12.5469
哲学	-12.5469
海洋学者	-12.5469
鉱物	-12.5469
2|41.188.	-12.5469
新竹市	-12.5469
イベール	-12.5469
ストーム	-12.5469
ソニック	-12.5469
オーケストラのアルバム	-12.5469
恐竜	-12.5469
地獄	-12.5469
笹沼	-12.5469
オーストリア皇帝	-12.5469
終末論	-12.5469
プリンス	-12.5469
集落	-12.5469
ニュートン	-12.5469
フェロー	-12.5469
させて頂きま	-12.5469
ゴリラ	-12.5469
称名寺	-12.5469
集合的	-12.5469
ツィオ	-12.5469
火薬学	-12.5469
仙北鉄道	-12.5469
タッチ	-12.5469
出版	-12.5469
譲	-12.5469
コメント依頼	-12.5469
▁instance	-12.5469
分離	-12.5469
カタール	-12.547
ガールのアルバム	-12.547
恵美	-12.547
芸人	-12.547
使徒	-12.547
2|36.81.	-12.547
岩崎	-12.547
全然	-12.547
武雄	-12.547
こういった	-12.547
2|186.248.	-12.547
格闘技団体	-12.547
じょうでん	-12.547
揖斐川町	-12.547
どちらも	-12.547
クイーンの曲	-12.547
しょうてつ	-12.547
五十	-12.547
放送局	-12.547
料金	-12.547
自動列車	-12.547
笑点	-12.547
漫画作品	-12.547
土器	-12.547
なんて	-12.547
feb	-12.547
ハプニング	-12.547
豊橋	-12.547
歌集	-12.547
消滅した	-12.547
千本城	-12.547
ウィキペディアへようこそ	-12.547
群馬県	-12.547
道具	-12.547
連合会	-12.547
青木	-12.5471
▁goat	-12.5471
としがた	-12.5471
日本のテレビドラマ	-12.5471
ユニオン駅	-12.5471
神岡	-12.5471
映画作品	-12.5471
ハイドン	-12.5471
じゅうぜん	-12.5471
大陸	-12.5471
bcjp	-12.5471
有機	-12.5471
ウサギ	-12.5471
ギリシャ王子	-12.5471
ルイーズ	-12.5471
チェコ語	-12.5471
アリーナ	-12.5471
アルバニア語	-12.5471
ケリー	-12.5471
ロング	-12.5471
2|46.105.152.7	-12.5471
クワ	-12.5471
火器	-12.5471
ナショナルズ	-12.5471
▁applied	-12.5472
セネ	-12.5472
3.107.2	-12.5472
ンクー	-12.5472
じゅうもう	-12.5472
半島	-12.5472
ジャズ	-12.5472
商人	-12.5472
コング	-12.5472
じゆうへの	-12.5472
サザン鉄道	-12.5472
全農	-12.5472
恋人	-12.5472
スルー	-12.5472
生産	-12.5472
ビニ	-12.5472
LAND	-12.5472
しょうそく	-12.5472
▁yet	-12.5472
小満	-12.5473
ビルマ	-12.5473
ライク	-12.5473
コンピューターゲーム	-12.5473
貴子	-12.5473
平井	-12.5473
ホークス	-12.5473
しょうべん	-12.5473
青い	-12.5473
ファイ	-12.5473
ツール	-12.5473
バード	-12.5473
_(1745	-12.5474
2|179.125.	-12.5474
2|}}}|{{{3|}}}|	-12.5474
を読んで	-12.5474
箇所	-12.5474
料理人	-12.5474
Load	-12.5474
2|60.5	-12.5474
しょうまる	-12.5474
しゅうまつき	-12.5474
しょうそう	-12.5475
入り	-12.5475
現代	-12.5475
笹部	-12.5475
0:2:	-12.5475
雲寺	-12.5475
アスラ	-12.5475
ヘリ	-12.5475
エロ記事	-12.5475
常磐線	-12.5475
成長	-12.5475
トラム	-12.5475
クモ	-12.5476
安市	-12.5476
水野	-12.5476
plate	-12.5476
ローム	-12.5476
▁compress	-12.5476
便利	-12.5477
フリート	-12.5477
路駅	-12.5478
サード	-12.5478
ページ内に	-12.5478
astern	-12.5478
東区	-12.5478
映画祭	-12.5479
oddstyle	-12.5479
オランダ語	-12.5479
清国	-12.5479
清明	-12.5479
ヴィラ	-12.5479
メインページ用テンプレート	-12.5479
大臣	-12.5479
DJ	-12.548
赤い	-12.548
愛子	-12.548
jul	-12.548
一家	-12.5482
エデン	-12.5482
アイザ	-12.5482
なかったこと	-12.5482
ジム	-12.5482
2|46.23	-12.5482
スクロール	-12.5483
アニー	-12.5484
だと思うのですが	-12.5485
2|201.16	-12.5485
2|52.69.	-12.5485
やくひん	-12.5485
ccf	-12.5485
再び	-12.5485
.231.1	-12.5487
2|108.17	-12.5487
複雑なテンプレート	-12.5488
uji	-12.5488
アール	-12.5489
▁attributes	-12.5489
テア	-12.5489
しょうめつした	-12.549
新町	-12.549
が終	-12.5491
高速	-12.5491
用水	-12.5491
ve	-12.5492
全部	-12.5492
io	-12.5492
2.152.1	-12.5493
金子	-12.5493
2|181.211.1	-12.5493
みなみ	-12.5493
あんど	-12.5493
tab	-12.5493
2|43.24	-12.5493
2|197.21	-12.5494
アラゴン	-12.5494
|122.129.79.89}}	-12.5495
トップ	-12.5495
newindex	-12.5495
ささる	-12.5496
6.117.1	-12.5496
つぼ	-12.5497
町田市	-12.5497
▁21:	-12.5498
にち	-12.5498
6.141.	-12.5499
46.23	-12.5499
3872	-12.55
バタ	-12.5501
ぐう	-12.5501
リール	-12.5501
.5}}	-12.5503
太平	-12.5505
Pia	-12.5505
意味では	-12.5506
自分で	-12.5506
ミッション	-12.5506
2.69.10	-12.5507
・12	-12.5507
別のページに	-12.551
elcome	-12.551
引数名	-12.5511
▁による	-12.5512
76.14	-12.5513
グラフ	-12.5513
削除依頼を出	-12.5514
クロウ	-12.5514
蒸発	-12.5515
上海	-12.5516
マシン	-12.5516
)',	-12.5517
気に	-12.552
シャルロッ	-12.552
metadata	-12.552
あきら	-12.552
pus	-12.5521
ムルト	-12.5521
ブロックが	-12.5522
チキン	-12.5523
にん	-12.5523
女性	-12.5526
▁safe	-12.5526
="1	-12.5528
しゅうせき	-12.5528
▁uncollapsed	-12.553
able	-12.553
ムント	-12.5531
here	-12.5531
|12=	-12.5532
後の	-12.5532
itn	-12.5532
_(1914	-12.5534
▁remain	-12.5534
▁calculate	-12.5536
|11=	-12.5537
▁ni	-12.5537
309	-12.5537
じょうへい	-12.5538
マークアップ	-12.5538
2|177.101.	-12.5539
▁|[[2014	-12.5541
しんこうく	-12.5541
ざい	-12.5542
中野	-12.5543
違反	-12.5543
が発	-12.5545
ミスター	-12.5545
質問は	-12.5546
ペトロ	-12.5546
アイコンを	-12.5547
脱出	-12.5547
.163.13	-12.5547
2.253.	-12.5548
1.250	-12.5551
だと思いますが	-12.5551
トゥール	-12.5552
▁take	-12.5552
▁script	-12.5553
▁tD	-12.5553
を使って	-12.5555
じゅうだん	-12.5556
おとこ	-12.5556
絵画	-12.5556
日記	-12.5556
開戦	-12.5557
ステージ	-12.5558
▁これは	-12.5558
1984	-12.5558
2|92.46.	-12.5559
jor	-12.556
と呼ばれ	-12.5561
2|186.89.1	-12.5562
再生	-12.5562
民主主義	-12.5563
6.25	-12.5563
しゅうざん	-12.5563
っきゅう	-12.5564
▁sa	-12.5565
年月別	-12.5566
矢野	-12.5571
EVER	-12.5572
いえ	-12.5574
''']]||	-12.5574
|1}}})+	-12.5574
が使われている	-12.5576
ぜんせん	-12.5578
ダッシュ	-12.5579
▁-->|{{{	-12.5579
8.162.	-12.558
lo	-12.5581
村上	-12.5581
ここに	-12.5583
▁side	-12.5583
.113.	-12.5588
しゅうよう	-12.5589
シルバー	-12.5589
朝日新聞	-12.559
とじま	-12.559
-1993	-12.5591
るので	-12.5593
37.31	-12.5593
▁23:	-12.5596
イス	-12.5598
577	-12.5598
将棋の	-12.56
削除が	-12.5605
アヴァ	-12.5605
毎日	-12.5606
てる	-12.5612
原子	-12.5613
少し	-12.5614
5.124.6	-12.5614
日本郵政	-12.5615
衛生	-12.5616
25.18	-12.5616
する場合	-12.5616
ボイ	-12.5619
ガリア	-12.5623
2|92.222.237.7	-12.5626
aximu	-12.5626
RS	-12.5627
の草案	-12.5628
/}}	-12.5631
しんこうとう	-12.5632
▁Wi	-12.5633
▁14:	-12.5634
7.160	-12.5637
望月	-12.5639
阪	-12.564
アルタイ	-12.5641
朝鮮労働党	-12.5643
立中央図書館	-12.5643
14.1	-12.565
音楽家	-12.565
rder	-12.5656
ーず	-12.5659
びじゅつ	-12.5666
総務	-12.5668
んじょ	-12.5676
fore	-12.5677
▁00:5	-12.5678
2|2009	-12.5678
69.21	-12.568
230	-12.5682
fter	-12.5682
だから	-12.5684
.139	-12.5685
長岡	-12.5687
ときは	-12.5687
の中で	-12.5689
球団	-12.569
$	-12.5691
$2	-12.5691
ニツァ	-12.5693
RC	-12.5695
なくても	-12.5698
:|3|{{	-12.57
ンド	-12.5702
gr	-12.5704
しゅうそく	-12.5706
ティブ	-12.5708
177.12	-12.5708
完成	-12.5709
ぶんかざい	-12.571
職業	-12.5711
ile	-12.5713
レイモン	-12.5713
アルテ	-12.5717
ルイー	-12.5718
:8	-12.572
▁black	-12.5721
▁colheader	-12.5722
8.93.15	-12.5722
▁showhide	-12.5725
・[[	-12.5726
二郎	-12.5726
既に	-12.5727
星の日面通過	-12.5728
エレ	-12.573
川橋	-12.5731
▁Wikidata	-12.5733
大統領選挙	-12.5734
Ca	-12.5734
自分	-12.5736
を得	-12.5737
学科	-12.5738
しょうぞう	-12.5741
46.182.	-12.5742
2|2005	-12.5747
.189.9	-12.5751
プレー	-12.5756
▁"1"	-12.5757
じょうやま	-12.5758
96.1	-12.5759
|2001	-12.576
フォル	-12.5762
2|220.2	-12.5763
4}}}	-12.5765
51.4	-12.5767
しょうず	-12.5769
権限を	-12.5769
▁下	-12.577
利用者名前空間	-12.577
400	-12.5771
こん	-12.5771
加賀	-12.5772
{!}}	-12.5776
2|46.209.2	-12.5779
2|37.23	-12.578
ディス	-12.5781
日に	-12.5783
アカ	-12.5785
nvok	-12.5786
知識	-12.5792
7.53.	-12.5797
oci	-12.5798
こうべ	-12.5798
!]](	-12.5799
ざん	-12.5804
2.241.	-12.5805
6.222.	-12.5806
の扱い	-12.5808
もあります	-12.5809
る方	-12.5811
▁を設定	-12.5812
!!]](	-12.5812
ヴォルフ	-12.5813
2010	-12.5815
のいずれか	-12.5817
城県	-12.5817
▁ad	-12.5818
431	-12.5819
▁40	-12.582
▁suffix	-12.5822
ベントン郡	-12.5823
ズラ	-12.5825
自由民主党総裁	-12.5825
江川	-12.5827
アレグ	-12.583
147.13	-12.5832
([[188	-12.5832
岐阜	-12.5835
StartBoxLinks	-12.5836
修徳	-12.5836
ヒュー	-12.5839
ける	-12.5839
7.21	-12.584
じんこうし	-12.5847
けんきゅうか	-12.5852
それが	-12.5853
▁08:0	-12.5855
|3=	-12.5855
書かれた	-12.5857
▁Day	-12.5858
良い	-12.5862
のうた	-12.5866
くじ	-12.5871
ride	-12.5871
DB	-12.5871
hi	-12.5872
あたり	-12.5879
ser	-12.5885
ガス	-12.5887
▁alias	-12.5887
]]/[[	-12.5888
▁イギリス	-12.589
encode	-12.5896
プラン	-12.5898
なー	-12.5899
87.4	-12.5904
▁任意の	-12.5905
責任	-12.5905
存在してい	-12.5906
妙寺	-12.591
ibility	-12.5912
eFunc	-12.5913
▁05:	-12.5915
let	-12.5916
.61	-12.592
このカテゴリ	-12.5923
天王	-12.5925
歌詞	-12.5926
ある場合に	-12.593
117.17	-12.593
|2010	-12.5944
を機械的	-12.5945
PON	-12.5946
運用	-12.5948
ガード	-12.5951
ニ語	-12.5957
ナス	-12.5958
中世	-12.5961
する編集	-12.5962
心の	-12.5964
番街	-12.5964
medi	-12.5967
ルネ	-12.5967
りがく	-12.5968
▁01.	-12.5968
削除され	-12.5972
176.11	-12.5974
ゼフ	-12.5977
31}}	-12.5977
242	-12.5979
ニティ	-12.5981
色の	-12.5981
みー	-12.5981
田氏	-12.5984
このメッセージボックス	-12.5987
ビス	-12.5988
jun	-12.5999
ウォ	-12.6
ウィキペディアと	-12.6
log	-12.601
2|45.6	-12.6011
指定すると	-12.6013
アルバニア	-12.6015
▁license	-12.6018
▁port	-12.6023
ha	-12.603
っている	-12.6031
;{{	-12.6035
rchives	-12.6035
inten	-12.6036
時刻	-12.6038
ファル	-12.604
げんご	-12.6043
に関する法律	-12.6044
問題が	-12.6045
指示	-12.6046
しの	-12.6046
ひとり	-12.6047
▁fo	-12.6051
ており	-12.6051
|}}}</	-12.6052
2|4	-12.6053
エンド	-12.6055
セクション	-12.6056
.113.13	-12.6059
254.2	-12.6061
標準化	-12.6064
>}}|<	-12.6068
Count	-12.6073
ならず	-12.6074
2|190.206.21	-12.6074
▁30	-12.6075
.218.13	-12.6077
アンドレ	-12.6077
内村	-12.6077
ささやき	-12.6082
土用	-12.6085
社会科学	-12.6086
トマス	-12.6086
▁10-	-12.6088
ヴィン	-12.6097
.120.22	-12.6098
てスクリプトと呼	-12.61
37.4	-12.6102
▁16:5	-12.6102
りました	-12.6104
.34.2	-12.6105
.145	-12.6108
自由に	-12.611
じょうあん	-12.6111
▁1968	-12.6114
oto	-12.6115
8.50.1	-12.6116
ですので	-12.6116
▁1924	-12.6116
DLE	-12.6119
▁07:5	-12.6129
2|110.77.	-12.6131
2|222.124.3	-12.6135
しょうれつ	-12.6137
107.15	-12.6138
}}}|{{{	-12.6139
▁04:	-12.6143
陸軍	-12.6145
Su	-12.6145
DE	-12.6151
ヴィッツ	-12.6156
100}}	-12.6157
2|177.39.	-12.616
|22	-12.6161
によると	-12.6163
▁"==	-12.6163
▁me	-12.617
を呼び出し	-12.617
チン	-12.6172
キャンベ	-12.618
ラッツ	-12.6181
240.16	-12.6181
はそれぞれ	-12.6182
2|5	-12.6183
子供	-12.6184
01:2	-12.6184
の王	-12.6186
・・・	-12.6192
rig	-12.6192
ギン	-12.6196
全ての	-12.6198
松井	-12.62
に必要	-12.62
55.6	-12.6201
her	-12.6203
blem	-12.6203
33.8	-12.6204
解除	-12.6207
ルバ	-12.6209
ail	-12.6209
じゅうえん	-12.6218
.82	-12.6221
ヴォ	-12.6221
ゴールド	-12.6225
]]([[1	-12.6226
ze	-12.6228
▁position	-12.6235
([[177	-12.6235
関数	-12.6241
ノフ	-12.6242
じょうや	-12.6245
ょこう	-12.6249
バフ	-12.6255
の人	-12.6257
88.20	-12.6258
ムンク	-12.6259
ck	-12.626
ザン	-12.6261
意図	-12.6261
|10=	-12.6262
08.14	-12.6263
2|109.2	-12.6264
沢村	-12.6269
.243.11	-12.6275
▁アイコン	-12.6282
ose	-12.6284
市長	-12.6284
53.10	-12.6285
上で	-12.6286
サキ	-12.6288
旨	-12.6293
らが	-12.6293
▁サブページあり	-12.6294
tls	-12.6295
|{{{1}}}|	-12.63
研究科	-12.6301
2|63.2	-12.6303
>|0	-12.6306
11)	-12.6309
していません	-12.6312
Ri	-12.6312
オウ	-12.6315
フランケンシュタイン	-12.6316
.142.19	-12.6317
事情	-12.632
vi	-12.6324
2|180.24	-12.6325
6.72.1	-12.6326
▁もし	-12.6327
▁mo	-12.6327
の使い方	-12.6327
利光	-12.6327
ジア	-12.6328
Format	-12.6331
ichi	-12.6332
3.42	-12.6336
田駅	-12.6342
息子	-12.6343
地球の	-12.6345
技術的	-12.6347
に指定し	-12.6348
のう	-12.6352
ジェイム	-12.6354
呉の	-12.6357
晃	-12.636
らくじ	-12.6361
万達成	-12.6363
グロ	-12.6365
イースト	-12.6371
rds	-12.6373
9.34	-12.6373
ara	-12.6379
はまた	-12.638
|}}}">	-12.6381
|140	-12.6387
てにす	-12.6388
スタート	-12.6396
ライア	-12.6396
トレ	-12.6398
台湾の	-12.6399
526	-12.64
が無いもの	-12.6402
▁child	-12.6405
187.18	-12.6406
200	-12.6408
port	-12.641
メタテンプレートの	-12.6413
▁カール	-12.6414
54.1	-12.6418
クシー	-12.6419
を返	-12.6423
▁03:	-12.6425
▁しと	-12.6431
5.178	-12.6433
▁Me	-12.6436
uki	-12.6438
樟蔭	-12.6441
sci	-12.6441
stcasesCreateUrl	-12.6442
グラム	-12.6443
Ks	-12.6443
▁-1	-12.6445
プラ	-12.6447
51.10	-12.6448
3.2	-12.6453
6.8	-12.6454
▁bo	-12.6454
ade	-12.6455
ID	-12.6461
1:1	-12.6465
▁名前空間	-12.6466
}}"	-12.6476
脱	-12.6476
|}}}}}|	-12.6477
としと	-12.6479
.254.21	-12.6482
を行いました	-12.6484
しょうじょ	-12.6491
▁find	-12.6491
}}}|'''	-12.6492
|180	-12.6493
2|191.3	-12.6496
年世界	-12.6504
OS	-12.6508
▁33	-12.6512
以上が	-12.6518
ヴェー	-12.6519
の再	-12.652
72.2	-12.6525
53.20	-12.6526
7.197	-12.6527
ささかわ	-12.6537
メタル	-12.6537
がんば	-12.6539
行われた	-12.654
のところ	-12.6545
奈良	-12.6547
▁2017	-12.6547
|1}}	-12.6549
福岡	-12.6551
2|222.1	-12.6552
。''	-12.6556
原駅	-12.6558
ハウゼン	-12.6561
一般の	-12.6566
2|112.12	-12.6566
2|222.124.	-12.6571
ia	-12.6574
示します	-12.6579
{$	-12.6585
かる	-12.6588
・6	-12.6588
の変換	-12.6591
同じく	-12.6592
まい	-12.6603
132	-12.6604
引数の一覧	-12.6607
172	-12.6607
エイ	-12.6609
中華人民共和国	-12.6611
せんも	-12.6611
プレイ	-12.6613
ソフトウェア	-12.6614
同時に	-12.6614
落合	-12.6615
ノートに	-12.6616
に使用する	-12.6616
力学	-12.6618
くあ	-12.6627
}}12	-12.6628
レオン	-12.663
清朝	-12.6644
にいくつ	-12.665
1={{{	-12.6653
オブジェ	-12.6654
のひ	-12.6655
リー語	-12.6659
600	-12.666
ささく	-12.6662
アガ	-12.6662
0.45.11	-12.6663
改名	-12.6664
▁clear	-12.667
使用し	-12.6671
っし	-12.6674
酸デヒドロゲナーゼ	-12.6681
永田	-12.6681
2|190.121.	-12.6683
ぽ	-12.6686
ヘル	-12.6686
グレ	-12.6686
こんな	-12.6687
るのが	-12.6693
ッチ	-12.6699
この画像	-12.6705
ウォール	-12.6705
▁odd	-12.6705
{{{3}}}	-12.6706
女子短期大学	-12.671
2|120.2	-12.671
んく	-12.6711
:|6|{{{1}}}}}	-12.6715
▁81	-12.6716
仕様の	-12.6719
クリン	-12.672
▁li	-12.6722
は何	-12.6723
▁04:2	-12.6727
CLE	-12.6729
メイト	-12.6731
236	-12.6733
をお	-12.6735
ccept	-12.6737
置	-12.6737
けど	-12.6741
市川	-12.6741
ウェル	-12.6744
160.24	-12.6744
サンドボックスとテストケース	-12.6745
せきにん	-12.6745
'''<	-12.6749
▁ゲーム	-12.6751
GT	-12.6753
千葉県の	-12.6754
6.250.	-12.6754
}}};}}"	-12.6756
2|211.	-12.6757
うざん	-12.6758
7.2	-12.676
ペー	-12.676
1}}}|{{{1}}}]]	-12.6761
の季節	-12.6765
マグ	-12.6766
25}}	-12.677
ほんげんじものがたり	-12.6773
251	-12.6775
さつ	-12.6778
川崎市	-12.678
▁15:2	-12.6781
4.160.	-12.6784
01.3	-12.6787
トゥー	-12.679
しゅうひ	-12.6793
-05	-12.6797
号大	-12.6798
じどうし	-12.6798
てぃ	-12.68
167	-12.6801
▁数	-12.6806
ウィル	-12.6807
由来	-12.6807
14.22	-12.6807
56.	-12.6813
のではないでしょうか	-12.6814
ギー	-12.6825
2|50.	-12.6826
多言語	-12.6826
サブページで	-12.6827
に移動	-12.6833
このページの	-12.6834
sPositiveInteger	-12.6836
アグ	-12.6837
>}}	-12.6841
ーター	-12.685
2|194.1	-12.6854
しつ	-12.6857
すう	-12.6862
しょうれ	-12.6864
ひとみ	-12.6864
北京	-12.687
以外を指定する	-12.687
今月の	-12.6872
パイ	-12.6875
'%	-12.688
らぶ	-12.688
宗派	-12.688
}}}}}|	-12.6881
残	-12.6882
15.16	-12.6883
▁tE	-12.689
年月別分類しない場合の	-12.6891
へのリンク	-12.6892
RequireName	-12.6893
ピオ	-12.6895
0.202	-12.6899
テイ	-12.6901
tur	-12.6903
.52	-12.6904
(10	-12.6905
ホット	-12.6907
ズィ	-12.6908
としき	-12.6913
Da	-12.6916
おんがく	-12.6917
sT	-12.6919
ish	-12.6921
エール	-12.6923
トー	-12.6924
136	-12.6926
▁fi	-12.6926
せんぞう	-12.6928
▁ウィリアム	-12.6929
敦	-12.6932
2003	-12.6934
日が	-12.6936
8.212	-12.6936
発見	-12.6937
ドリング	-12.6947
0.6	-12.6948
2|183.	-12.6951
6.	-12.6954
ッ	-12.6959
ically	-12.6961
の放送	-12.6962
ベイ	-12.6968
2|204.2	-12.6972
0:0:0:1	-12.6972
([[178	-12.6973
2|178.	-12.6974
2014	-12.6975
listT	-12.6978
じど	-12.6983
コア	-12.699
|25}}}	-12.699
adv	-12.6998
かな	-12.6998
77.11	-12.7006
用途に	-12.7006
接吻	-12.7012
んぞう	-12.7015
:75	-12.7018
▁29	-12.7019
リナ	-12.7021
じつ	-12.7022
この項目の	-12.7029
14.23	-12.7032
improve	-12.7033
4.126.	-12.7036
よっては	-12.7049
トシ	-12.705
▁14:0	-12.7052
▁熊本県	-12.7053
0:200	-12.7066
場線	-12.7067
2|197.3	-12.7071
with	-12.7072
注	-12.7075
......。	-12.7078
カミ	-12.708
1.179.1	-12.709
日の	-12.71
ヘッドライン	-12.7101
えの	-12.7101
スクア	-12.7105
。',	-12.7106
ジーン	-12.7111
5.113.4	-12.7111
西方	-12.7113
191.235.	-12.7115
陸	-12.712
しゅうとく	-12.7121
6.70	-12.7122
シカ	-12.7127
モリ	-12.7132
バレ	-12.7133
197.1	-12.7135
扱	-12.7135
via	-12.7135
▁translate	-12.7139
ヴァリ	-12.7141
Ho	-12.7141
specific	-12.7143
.250.1	-12.7146
木造	-12.7146
モル	-12.7148
>(	-12.7148
.96.18	-12.7155
どん	-12.7158
ゆうけん	-12.7163
56.1	-12.7166
インター	-12.7166
2|49.	-12.7167
der	-12.7168
tp	-12.7172
1927	-12.7175
'')	-12.7175
73.9	-12.7178
《	-12.718
の相	-12.7183
したら	-12.7191
見受けられ	-12.7192
:37	-12.7193
ound	-12.7194
ヴィリ	-12.7195
8.71	-12.7196
ぴ	-12.7196
トラン	-12.72
年度	-12.7201
2|80.7	-12.7205
じんこうか	-12.7206
生命	-12.7207
のテンプレートを作成	-12.7208
1}}}}}|0	-12.7208
ココ	-12.7209
▁しかし	-12.721
7.20	-12.7212
▁8-	-12.7212
ライム	-12.7214
ーノ	-12.7217
ニャ	-12.7218
576	-12.7219
3000	-12.7225
いった	-12.7226
今月	-12.7228
焼き	-12.7228
ヒル	-12.7229
とら	-12.7231
きょ	-12.7235
50.24	-12.7236
1}}}}}|{{	-12.7238
大島	-12.7238
43.1	-12.7239
ザク	-12.7243
を編集し	-12.7244
山村	-12.7245
OT	-12.7246
あれば	-12.7247
くろ	-12.7247
lus	-12.7254
158.1	-12.7256
レイン	-12.7256
テンプレ	-12.7256
GO	-12.7258
202.166	-12.7269
を行った	-12.7272
どれ	-12.7275
▁gl	-12.7275
|2=	-12.7276
RI	-12.7277
いいと思います	-12.7286
2|85.	-12.7287
蓮	-12.7287
ストレ	-12.7291
▁22	-12.7295
クサ	-12.7296
-40	-12.7298
名古屋市	-12.7301
パル	-12.7303
2600	-12.731
かつて	-12.7314
178.	-12.7318
栃木	-12.7319
しゆう	-12.7319
正月	-12.7321
山神社	-12.7321
4.66	-12.7321
蒲	-12.7322
▁ny	-12.7326
上院	-12.7327
コフ	-12.7329
バッ	-12.7329
ase	-12.733
ぞ	-12.7332
JU	-12.7333
ささご	-12.734
に絞	-12.734
2|58.	-12.7344
大野	-12.7346
▁|2016012412481	-12.7354
油	-12.7354
歴史学	-12.7355
からの	-12.7355
クライ	-12.7356
tended	-12.7358
ると思います	-12.7361
の塔	-12.7361
エンジニア	-12.7361
ぜんら	-12.7365
爆	-12.7366
妄	-12.7367
想の文章化であるとして扱う風習が	-12.7367
2|125.209.	-12.7368
解釈	-12.7371
.225.17	-12.7372
オックスフォード	-12.7372
208	-12.7373
オルガン	-12.7373
.74.2	-12.7376
5.8	-12.7378
ハワイ	-12.738
ぃ	-12.738
クイーンズランド	-12.7381
揖斐川	-12.7381
日本の歌手	-12.7382
アルフィー	-12.7383
東海道	-12.7384
ロシア大公	-12.7386
ヨルダン	-12.7387
DREAM	-12.7387
ヴュルテンベルク王	-12.7388
_(192	-12.7388
モスクワ総主教	-12.7388
コミュニケーション	-12.7388
アダルト	-12.739
小山	-12.739
松尾	-12.739
カンタベリー	-12.7391
ユーゴスラビア	-12.7392
ルクセンブルク	-12.7393
はん	-12.7395
枚方市	-12.7396
オランダ王	-12.7397
ルーマニア王	-12.7397
グノー	-12.7399
フィス	-12.7402
gar	-12.7402
箱根	-12.7406
第一次	-12.7408
カノ	-12.741
充	-12.7412
テック	-12.7413
の作成	-12.7415
事実	-12.7416
ムック	-12.7417
ルドン	-12.7418
自己	-12.7426
鳥取	-12.743
福島	-12.7434
(1	-12.7435
ぜんおん	-12.7441
欧州	-12.7442
ッロ	-12.7445
45.22	-12.7445
2|201.5	-12.7445
がない	-12.7446
朝鮮史	-12.7446
グルジア	-12.745
宝塚	-12.7452
.30.82	-12.7454
Parameter	-12.7456
Rad	-12.7458
てしまう	-12.746
ムシ	-12.7462
▁ワシントン	-12.7463
やすい	-12.7469
家の	-12.7471
じょうそ	-12.7471
新規	-12.7471
エクアドル	-12.7473
デイヴィ	-12.7476
イスラーム	-12.7477
ヴィーンヌィツャ州	-12.7479
2|212.4	-12.7479
affixNums	-12.748
ゲームデザイナー	-12.748
グルタチオン	-12.748
Electr	-12.748
グロスター	-12.748
adjuster	-12.7481
ロシア帝国	-12.7481
リスボン	-12.7482
リッチモンド	-12.7483
ぜ	-12.7487
東急	-12.7488
朱	-12.7488
初版	-12.7489
せんや	-12.749
▁東京都	-12.7491
が開	-12.7491
いま	-12.7491
本源氏物語	-12.7492
ティーン	-12.7493
崩	-12.7496
江戸幕府	-12.7499
1}}<!--	-12.7504
▁off	-12.7505
あなた	-12.7507
アニメ第	-12.7508
潜水艦救難艦	-12.7511
伊勢	-12.7511
2|206.	-12.7513
の形	-12.7515
37.3	-12.7516
beta	-12.7516
dataList	-12.7517
dash	-12.7519
挙	-12.7519
114	-12.752
メント	-12.752
あら	-12.7521
-15	-12.7521
Tri	-12.7523
Nam	-12.7525
スティーブ	-12.7526
protect	-12.7526
64	-12.753
|-1}}	-12.753
.158.13	-12.753
subgroup	-12.7531
suffix	-12.7533
▁ヴュルテンベルク	-12.7534
so	-12.7534
しようか	-12.7535
パレ	-12.7536
explanation	-12.7536
ビコ	-12.7537
られる	-12.7537
2016-01-2	-12.754
都心	-12.754
レベル	-12.7541
アンプ	-12.7544
required	-12.7545
中国語版	-12.7545
無視	-12.7545
▁あ	-12.755
rowspan	-12.755
金山	-12.7553
名鉄	-12.7553
隠	-12.7554
500	-12.7559
議員	-12.7561
んてん	-12.7563
可能性	-12.7568
6.12	-12.7573
しあ	-12.7574
([[200	-12.7578
28|	-12.7578
安田	-12.7579
:|8|{{{1}}}	-12.7582
2|190.6	-12.7582
しろ	-12.7583
マド	-12.7583
-01	-12.7583
南京	-12.7583
適	-12.7585
マハー	-12.7587
住民基本台帳	-12.7589
斎	-12.7595
代替	-12.7596
いちごう	-12.7596
受賞	-12.7597
めん	-12.7598
AM	-12.76
リシア	-12.7605
34.9	-12.7605
まとめ	-12.7606
書き換え	-12.7615
かった	-12.7618
1.33	-12.7618
▁曖昧さ回避	-12.762
2.8	-12.7622
ディング	-12.7623
8.191.1	-12.7627
2|69.	-12.7627
5.15	-12.7634
9.196	-12.7636
2|85.1	-12.7639
かんこう	-12.764
.85	-12.7641
センチ	-12.7642
▁内容	-12.7642
0.	-12.7643
Whites	-12.7643
セラ	-12.7644
本文の	-12.7645
2|46.5	-12.7649
バーン	-12.7652
丸山	-12.7654
▁testcasesEdit	-12.7655
im	-12.7658
▁ラ	-12.766
メインページの	-12.7661
ゲー	-12.7663
▁オート	-12.7665
リヤー	-12.7666
ndargs	-12.7667
じゅうだい	-12.767
毎	-12.7672
リッチ	-12.7673
の経済	-12.7675
pressSparseArray	-12.7676
盟	-12.7676
seText	-12.7676
3.1	-12.7678
=3|	-12.7682
吉川	-12.7683
しょういち	-12.7686
補	-12.7688
4.140	-12.769
▁subst	-12.7692
ヒヤ	-12.7693
のお知らせ	-12.7694
85.1	-12.7702
966	-12.7704
1|	-12.7711
ゅうじょう	-12.7712
を説明する	-12.7714
ざる	-12.7715
.101.230	-12.7716
バイオ	-12.7724
▁これ	-12.7725
23.8	-12.7728
烏	-12.7731
坊	-12.7732
_(169	-12.7733
ヨア	-12.7734
認	-12.7738
ぜんぽう	-12.7738
徳寺	-12.7738
115	-12.7739
ノイ	-12.7742
くけい	-12.7747
その他の	-12.7749
びじゅ	-12.7749
コロ	-12.7752
やら	-12.7757
無い	-12.7762
1.181.1	-12.7764
parameters	-12.7766
新小岩	-12.7767
84.9	-12.7768
郵便	-12.7768
闘	-12.7769
▁ロシア	-12.7769
233	-12.7771
▁特別	-12.7772
存在する場合	-12.7776
というのが	-12.7777
▁loca	-12.7778
で行って	-12.7779
たび	-12.7779
0.4.	-12.7781
formation	-12.7781
文化学者	-12.7781
uall	-12.7784
▁09:	-12.7784
正一	-12.7786
改	-12.7787
よる	-12.7789
しり	-12.7791
としお	-12.7792
サザナミ	-12.7792
2|221.2	-12.7797
▁16:1	-12.7798
2|47.88.	-12.7802
esult	-12.7804
ジェル	-12.7804
設置	-12.7804
|}}}|}}|	-12.7805
だけを	-12.7806
2|203.2	-12.7806
掲載	-12.7807
15.44	-12.7807
|9=	-12.781
2|181.2	-12.7813
▁10:5	-12.7815
.172.11	-12.7816
フタ	-12.7818
ように思います	-12.7821
68.23	-12.783
5000	-12.7834
忘れ	-12.7837
83}}	-12.7839
2|186.8	-12.7843
神話	-12.7845
を貼る	-12.7845
ささやまし	-12.7845
1}}}}}<!--	-12.7849
原則	-12.785
▁1951	-12.7851
しゅうふ	-12.7852
メリー	-12.7853
しょうは	-12.7854
保護を解除	-12.7854
49.5	-12.7855
エウ	-12.7855
ーダ	-12.7856
ere	-12.7858
というような	-12.7859
可能	-12.7865
:|5|{{{1}}}	-12.7867
せんえ	-12.7868
375	-12.7869
フィー	-12.7881
メイン	-12.7882
土星	-12.7882
.130.13	-12.7883
スペ	-12.7884
いう	-12.7885
果	-12.7887
ムス	-12.7888
42.3	-12.7889
]</	-12.7889
VEN	-12.7891
除	-12.7892
からは	-12.7894
ぁ	-12.7896
gi	-12.7897
▁ru	-12.7897
ドリー	-12.79
ぶれ	-12.7901
不明	-12.7902
7.73.	-12.7905
全音	-12.7907
aff	-12.7907
BO	-12.7908
芸	-12.7911
8.214.2	-12.7912
がい	-12.7913
ベール	-12.7915
待避	-12.7915
2.126	-12.7921
=7|	-12.7924
ネル	-12.7924
ようご	-12.7925
せんふ	-12.7926
たいさく	-12.7928
5.254.2	-12.7929
2|190.2	-12.7929
|2000-02-30	-12.7929
)*1	-12.7929
遼	-12.7931
体育	-12.7935
シュト	-12.7936
ができ	-12.7937
まれ	-12.7938
誌	-12.7938
Re	-12.7938
ER	-12.7939
戸田	-12.794
▁attribute	-12.7942
予	-12.7944
行為	-12.7944
作詞家	-12.7945
違う	-12.7945
ster	-12.7945
-08-2	-12.7945
れき	-12.7946
又	-12.7946
3.142	-12.7946
ウィキダルマ	-12.7947
世界初の	-12.7947
追	-12.7948
祝	-12.7949
何の日	-12.795
ギリシア語	-12.795
共産党	-12.7951
戦前	-12.7951
仕	-12.7952
2|116.197.13	-12.7953
相当	-12.7953
休	-12.7954
があ	-12.7955
}<!--	-12.7955
dle	-12.7955
活	-12.7956
大きい	-12.7956
TableTools	-12.7958
月曜	-12.7958
4.160	-12.7958
埼玉	-12.796
頂	-12.7961
2.146.	-12.7961
88.243	-12.7962
最初に	-12.7962
ディナ	-12.7963
116.2	-12.7963
持	-12.7963
confirmed	-12.7964
ノルウェー	-12.7964
でのみ使用	-12.7965
5.67.	-12.7965
□	-12.7965
沖	-12.7965
愛知	-12.7965
個人サイト	-12.7965
替	-12.7965
せんぷ	-12.7966
浅	-12.7966
余	-12.7966
へようこそ	-12.7966
柏	-12.7966
相撲	-12.7966
豆	-12.7966
69.1	-12.7966
監督	-12.7966
ピュ	-12.7966
研	-12.7967
ヒャ	-12.7967
奏	-12.7967
圧	-12.7967
スペクト	-12.7967
献	-12.7967
デリケ	-12.7967
スチュワート	-12.7967
婚	-12.7967
恭	-12.7967
-1889	-12.7967
Value	-12.7967
パウロ	-12.7967
聡	-12.7967
及	-12.7967
略	-12.7967
没	-12.7967
魏	-12.7967
ビューティ	-12.7967
映	-12.7967
期限	-12.7967
コントローラ	-12.7967
7.113.1	-12.7967
|{{{3|}}}|	-12.7968
芝	-12.7968
グレード	-12.7968
-1884	-12.7968
フランクリン	-12.7968
桐	-12.7968
忍者	-12.7968
タイタニック	-12.7968
動画	-12.7968
府中	-12.7968
融	-12.7968
キャロル	-12.7968
民主	-12.7968
を予防するために	-12.7968
コーカソイド	-12.7968
捜査	-12.7968
ぱたごん	-12.7968
陵	-12.7968
菊	-12.7968
遺伝	-12.7968
オープンコンテント	-12.7968
誕生	-12.7968
ウルトラ	-12.7968
82.253.19	-12.7968
検査	-12.7968
オープン	-12.7968
りょうき	-12.7968
紫	-12.7968
カーネーション	-12.7968
法務大臣	-12.7968
校歌	-12.7968
罰	-12.7968
頃	-12.7968
尻	-12.7968
チャイルド	-12.7968
ヴィッチ	-12.7968
誕	-12.7968
指揮権	-12.7968
組曲	-12.7968
辞典	-12.7968
価	-12.7968
排	-12.7968
軽	-12.7968
成績	-12.7968
琴	-12.7968
幣	-12.7968
秦	-12.7968
取引	-12.7968
濃	-12.7968
震	-12.7968
こんにちは	-12.7968
に使用されている画像	-12.7968
やっぱり	-12.7968
外部リンクの選び方	-12.7968
緯	-12.7968
釈	-12.7968
駐	-12.7968
リポーター	-12.7968
Portal	-12.7968
から抽出	-12.7968
私としては	-12.7968
紋	-12.7968
批評家	-12.7968
民俗学	-12.7968
籍	-12.7968
翻訳のガイドライン	-12.7968
ミサイル発射	-12.7968
粒子	-12.7968
ワンダフル	-12.7968
架	-12.7968
monospace	-12.7968
▁が使用する識別子	-12.7968
として扱う	-12.7968
デジタル	-12.7968
列挙	-12.7968
参考までに	-12.7968
壬生	-12.7968
新しい依頼ページ	-12.7968
石川県	-12.7968
給	-12.7968
丈	-12.7968
改訂	-12.7968
市中区	-12.7968
干	-12.7968
札	-12.7968
ucfirst	-12.7968
滅	-12.7968
窟	-12.7968
腺	-12.7968
昭和電工事件	-12.7968
甲	-12.7968
Internet	-12.7968
ccccff	-12.7968
あくまで	-12.7968
どうしても	-12.7968
妄想を羅列した文章を指して	-12.7968
Bananas	-12.7968
乳	-12.7968
佐賀	-12.7968
年齢	-12.7968
災害	-12.7968
せいしゅん	-12.7968
による緊急措置	-12.7968
カテゴリを適用するのか否かを指定	-12.7968
壬午	-12.7968
GIRL	-12.7968
錠	-12.7968
([1-9]	-12.7968
°	-12.7968
ありがとう	-12.7968
せんちゅりー	-12.7968
アイコンサイズの横幅	-12.7968
アイコンサイズの縦幅	-12.7968
スチュワード	-12.7968
ディスカバリー	-12.7968
処暑	-12.7968
審査	-12.7968
況	-12.7968
独立行政法人	-12.7968
競艇	-12.7968
考古学	-12.7968
銘	-12.7968
半夏生	-12.7968
寒露	-12.7968
希土戦争	-12.7968
競争	-12.7968
霜降	-12.7968
Aliases	-12.7968
SUBJECT	-12.7968
THRESHOLD	-12.7968
▁syntax	-12.7968
しょういぐんじん	-12.7968
とくべつ	-12.7968
を使い分ける	-12.7968
エンジェル	-12.7968
コンスタンティノス	-12.7968
サラリーマン	-12.7968
シンデレラ	-12.7968
人工知能	-12.7968
何とか	-12.7968
千利休	-12.7968
国土交通省	-12.7968
壮	-12.7968
崇	-12.7968
彫刻家	-12.7968
楽譜出版社	-12.7968
樽	-12.7968
準備	-12.7968
空欄	-12.7968
雑草とり	-12.7968
&#124;...	-12.7968
->{$_}}	-12.7968
PRIDE	-12.7968
utterfly	-12.7968
▁applicable	-12.7968
アイコンのリンク先を指定	-12.7968
エリザベート	-12.7968
カーボベルデ	-12.7968
グアテマラ	-12.7968
サザーランド	-12.7968
ファルネーゼ	-12.7968
ブロックされていないもので	-12.7968
ライオネル	-12.7968
ワトソン	-12.7968
世田谷	-12.7968
区検察庁	-12.7968
欲	-12.7968
眠狂四郎	-12.7968
磨	-12.7968
紳士同盟	-12.7968
羅生門	-12.7968
脚	-12.7968
2|115.160.137.1	-12.7968
2|177.207.	-12.7968
2|193.194.87.22	-12.7968
2|223.164.2	-12.7968
Configuration	-12.7968
DOERAX	-12.7968
Himetv	-12.7968
Ksora	-12.7968
Mishika	-12.7968
Monaneko	-12.7968
Nishith	-12.7968
VOICE	-12.7968
categorytree	-12.7968
counterReset	-12.7968
japan	-12.7968
record	-12.7968
useLoadData	-12.7968
}}|9|1|3}}	-12.7968
▁aliqu	-12.7968
▁exceptions	-12.7968
▁libUtil	-12.7968
えびの市	-12.7968
おニャン子クラブのアルバム	-12.7968
かにぱん	-12.7968
さいたま市大宮区	-12.7968
ずうとるびの曲	-12.7968
そうでない場合を区別	-12.7968
とある魔術の禁書目録	-12.7968
とんねるずの曲	-12.7968
ほぞん	-12.7968
みちのくプロレス	-12.7968
アセトイン形成	-12.7968
アレクサンドリア総主教	-12.7968
イゼール県	-12.7968
イワノフ	-12.7968
インターネットサービスプロバイダ	-12.7968
ウィキペディアを引用する	-12.7968
ウィキペディアを探検するには	-12.7968
ウィキメディア財団理事の選挙	-12.7968
ウエストライフの曲	-12.7968
エルサレム総主教	-12.7968
エールス公	-12.7968
オシフィエンチム公	-12.7968
オーヴェルニュ女伯	-12.7968
カラオケ	-12.7968
キマグレンの曲	-12.7968
キーボーディスト	-12.7968
ギルティギア	-12.7968
クライストチャーチ	-12.7968
クラヴィッツのアルバム	-12.7968
クーネオ県	-12.7968
グジャラート	-12.7968
ケチュア語	-12.7968
ケンブリッジ大学	-12.7968
コダーイ	-12.7968
コペンハーゲン	-12.7968
コルーニャ県	-12.7968
コレーズ県	-12.7968
コンテナ船	-12.7968
コードギアス	-12.7968
ゴスペラーズのアルバム	-12.7968
サヴォワ県	-12.7968
シンガーズの曲	-12.7968
シートン動物記	-12.7968
ジョンファのアルバム	-12.7968
チャンピオン	-12.7968
チューリップ	-12.7968
テキサス	-12.7968
テンペスト	-12.7968
トライアンフ	-12.7968
ハリケーン	-12.7968
ビスデクロロゲオジン形成	-12.7968
ファンタジア	-12.7968
フォンテーヌブロー条約	-12.7968
プレスリーの曲	-12.7968
ベルンブルク侯	-12.7968
マナー向上委員会	-12.7968
マニトバ州	-12.7968
マルムスティーンのアルバム	-12.7968
マンシュ県	-12.7968
マールワール王	-12.7968
ムガル皇帝	-12.7968
ムザッファル朝	-12.7968
ムソルグスキー	-12.7968
メルボルン	-12.7968
メーワール王	-12.7968
モスクワ府主教	-12.7968
モルディブ	-12.7968
モンパンシエ伯	-12.7968
モンフェラート侯	-12.7968
ヤロスラヴィチ	-12.7968
ユーコン準州	-12.7968
ラチブシュ公	-12.7968
ラパッロ条約	-12.7968
ラヴィーンの曲	-12.7968
リキュール	-12.7968
リゲティ	-12.7968
リッピントンズのアルバム	-12.7968
リャードフ	-12.7968
ルィリスク公	-12.7968
レグニツァ公	-12.7968
ロックマンシリーズ	-12.7968
ロートリンゲン公	-12.7968
ヴィリニュス	-12.7968
ヴィレーヌ県	-12.7968
ヴィヴァルディ	-12.7968
ヴェストファーレン	-12.7968
ヴォクリューズ県	-12.7968
ヴォルィーニ公	-12.7968
一つしか表示され	-12.7968
代目当主	-12.7968
促進	-12.7968
国民体育大会	-12.7968
大小様々な差異が	-12.7968
婆	-12.7968
安婦	-12.7968
年のアメリカ合衆国の映画	-12.7968
年のビデオゲーム	-12.7968
年のフランス映画	-12.7968
年の劇作品	-12.7968
年の韓国映画	-12.7968
年生のワイドレシーバー	-12.7968
年生の作曲家	-12.7968
年生の野球選手	-12.7968
年生まれのサッカー選手	-12.7968
年生まれの投手	-12.7968
年結成のアイドルユニット	-12.7968
幼稚園	-12.7968
式守錦太夫	-12.7968
引越センター	-12.7968
形電気機関車	-12.7968
愛内里菜のアルバム	-12.7968
愛媛県東宇和郡	-12.7968
戦国大名	-12.7968
投資家	-12.7968
救いを求める女たち	-12.7968
新垣結衣のアルバム	-12.7968
新左翼	-12.7968
日進市	-12.7968
旧制中等教育学校の一覧	-12.7968
旧村名	-12.7968
書き込み主の私生活を自慢する	-12.7968
月間強化記事賞	-12.7968
未確認動物	-12.7968
本巣市	-12.7968
杵築市	-12.7968
松任谷由実のアルバム	-12.7968
架空の軍用機	-12.7968
柏原芳恵の曲	-12.7968
栃木県芳賀郡	-12.7968
椎名高志	-12.7968
楊	-12.7968
業界団体	-12.7968
江西省	-12.7968
法哲学者	-12.7968
津幡町	-12.7968
淀川水系	-12.7968
淡路市	-12.7968
測位システム	-12.7968
湊かなえ	-12.7968
漫画原作者	-12.7968
潜水艦母艇	-12.7968
牧之原市	-12.7968
牧野家重臣	-12.7968
的建造物群	-12.7968
相互	-12.7968
秀逸な記事の再選考	-12.7968
緒	-12.7968
解析	-12.7968
読み手の実生活と	-12.7968
閃乱カグラ	-12.7968
降伏	-12.7968
雇用	-12.7968
霞	-12.7968
黄昏	-12.7968
Again	-12.7969
Android	-12.7969
Project	-12.7969
WORLD	-12.7969
entury	-12.7969
▁Island	-12.7969
▁規定値	-12.7969
エミュレータ	-12.7969
ギニアビサウ	-12.7969
ソビエト社会主義共和国	-12.7969
マクベス	-12.7969
マダガスカル	-12.7969
リニー伯	-12.7969
不思議の国のアリス	-12.7969
昌邑	-12.7969
星のカービィ	-12.7969
松前町	-12.7969
民事訴訟	-12.7969
生神女就寝大聖堂	-12.7969
終着駅	-12.7969
藍	-12.7969
透明人間	-12.7969
193.219.28.144	-12.7969
HUNTER	-12.7969
JAPAN	-12.7969
NiKe	-12.7969
Ohtera	-12.7969
▁rotation	-12.7969
▁記事数の推移	-12.7969
せんぼんまつ	-12.7969
アンソニー	-12.7969
イダルゴ州	-12.7969
ウルフルズのアルバム	-12.7969
エッセイスト	-12.7969
エースコンバットシリーズ	-12.7969
カプコン	-12.7969
カンファレンス	-12.7969
ガーシュウィン	-12.7969
ガーリチ公	-12.7969
キンクスのアルバム	-12.7969
グアドループ	-12.7969
ケイ台市	-12.7969
ケルト神話	-12.7969
ケルンテン公	-12.7969
ケロロ軍曹	-12.7969
コンゴ民主共和国	-12.7969
コンピューティング	-12.7969
スロベニア	-12.7969
タンパク質	-12.7969
ノストラダムス師の予言集	-12.7969
パラリンピック	-12.7969
フィラデルフィア	-12.7969
リメンバー	-12.7969
リンク抜きのファイル名で記入	-12.7969
乃	-12.7969
之丞	-12.7969
忌野清志郎のアルバム	-12.7969
思想史家	-12.7969
情報収集艦	-12.7969
愛知県渥美郡	-12.7969
掃海母艦	-12.7969
接待飲食店	-12.7969
政村流	-12.7969
文筆家	-12.7969
新山詩織の曲	-12.7969
日立市	-12.7969
日置市	-12.7969
早見優のアルバム	-12.7969
朝潮型駆逐艦	-12.7969
木之内みどりの曲	-12.7969
木村カエラのアルバム	-12.7969
東洋史学者	-12.7969
松原みきのアルバム	-12.7969
松浦亜弥の曲	-12.7969
松澤由美のアルバム	-12.7969
松澤由美の曲	-12.7969
柏原よしえの曲	-12.7969
柴田淳のアルバム	-12.7969
栃木県下都賀郡	-12.7969
森川美穂の曲	-12.7969
森昌子の曲	-12.7969
権中納言	-12.7969
河内守	-12.7969
海上保安庁	-12.7969
淡	-12.7969
深セン地下鉄	-12.7969
深海探査艇	-12.7969
清瀬市	-12.7969
灘	-12.7969
片品村	-12.7969
硫黄	-12.7969
秩父	-12.7969
軽巡洋艦	-12.7969
項目の区切り	-12.7969
TOKYO	-12.7969
アザラシ	-12.7969
ウイグル	-12.7969
文部官僚	-12.7969
瀬戸	-12.7969
2|186.226.251.	-12.7969
Convert	-12.7969
_(1888	-12.7969
_–_1	-12.7969
インスブルック	-12.7969
ゴンザーガ	-12.7969
スパルタ	-12.7969
メトネル	-12.7969
レクイエム	-12.7969
年生の政治家	-12.7969
法定洞	-12.7969
演劇研究者	-12.7969
>'''	-12.7969
]]|1582	-12.7969
daily	-12.7969
▁earlie	-12.7969
きかんしゃトーマス	-12.7969
しゅうせきかいろ	-12.7969
その差異を他人を乏す	-12.7969
ぽえこ	-12.7969
ゅーてぃ	-12.7969
よみうり	-12.7969
イルハン朝	-12.7969
ウェストミンスター	-12.7969
カウナス	-12.7969
コンクール	-12.7969
スイート	-12.7969
スクールランブル	-12.7969
セレナーデ	-12.7969
ドラゴンボール	-12.7969
ナポレオン	-12.7969
ハイブリッド	-12.7969
パズル	-12.7969
新撰組	-12.7969
自動車整備	-12.7969
飛行機雲	-12.7969
2|62.221.	-12.7969
しょうてんがい	-12.7969
イメージガール	-12.7969
ギャング	-12.7969
中村勘三郎	-12.7969
払い	-12.7969
承認	-12.7969
日蓮宗	-12.7969
昭島市	-12.7969
沿海地方	-12.7969
じとうがた	-12.7969
じゅういっちゃん	-12.7969
アストゥリアス公	-12.7969
上海地下鉄	-12.7969
交換	-12.7969
加古川	-12.7969
包	-12.7969
年入省	-12.7969
昭烈	-12.7969
歩兵師団	-12.7969
2|187.60.35.	-12.7969
の編集を手助けする	-12.7969
アルベニス	-12.7969
オールスターゲーム	-12.7969
センチメンタルジャーニー	-12.7969
ダウンタウン	-12.7969
奇襲	-12.7969
小暑	-12.7969
年のアメリカ映画	-12.7969
晋城市	-12.7969
清須市	-12.7969
Princess	-12.7969
サリーのアルバム	-12.7969
スラブ語	-12.7969
セーヌ県	-12.7969
ダイビング	-12.7969
ニコニコ	-12.7969
パスポート	-12.7969
ベルンハルト	-12.7969
ホールディングス	-12.7969
ユニコーンのアルバム	-12.7969
依存	-12.7969
板野町	-12.7969
武道家	-12.7969
熊本地震	-12.7969
特務艇	-12.7969
篠岡	-12.7969
聖書注解	-12.7969
2|186.46.	-12.7969
アインシュタイン	-12.7969
ウィンストン	-12.7969
コーエー	-12.7969
大阪市営バス	-12.7969
李自成	-12.7969
ゴッホ	-12.7969
林原めぐみのアルバム	-12.7969
武術	-12.7969
エルサレム女王	-12.7969
サザンオールスターズ	-12.7969
ッピング	-12.7969
メートル	-12.7969
ロッシーニ	-12.7969
医薬品	-12.7969
千枚	-12.7969
東本願寺	-12.7969
永楽帝	-12.7969
疾病	-12.7969
訴訟	-12.7969
スクリューボール	-12.7969
ヘイホー	-12.7969
ボーフォート	-12.7969
メシアン	-12.7969
惣	-12.7969
追跡	-12.7969
占拠	-12.7969
宇都宮	-12.7969
日の金曜日	-12.7969
東庄町	-12.7969
架空の話と現実に起こった話を	-12.7969
集積回路	-12.7969
[...]
